{
  "[PAD]": 0,
  "[UNK]": 1,
  "[CLS]": 2,
  "[SEP]": 3,
  "[MASK]": 4,
  "!": 5,
  "\"": 6,
  "##0": 7,
  "##1": 8,
  "##11": 9,
  "##13": 10,
  "##16": 11,
  "##2": 12,
  "##25": 13,
  "##3": 14,
  "##32": 15,
  "##35": 16,
  "##4": 17,
  "##40": 18,
  "##5": 19,
  "##50": 20,
  "##6": 21,
  "##7": 22,
  "##8": 23,
  "##86": 24,
  "##9": 25,
  "##a": 26,
  "##a1": 27,
  "##ab": 28,
  "##abi": 29,
  "##ability": 30,
  "##able": 31,
  "##ably": 32,
  "##ac": 33,
  "##aca": 34,
  "##ace": 35,
  "##aceous": 36,
  "##ach": 37,
  "##ache": 38,
  "##acing": 39,
  "##ack": 40,
  "##acle": 41,
  "##aco": 42,
  "##act": 43,
  "##actic": 44,
  "##ad": 45,
  "##ada": 46,
  "##adi": 47,
  "##ado": 48,
  "##ae": 49,
  "##aer": 50,
  "##af": 51,
  "##ag": 52,
  "##aga": 53,
  "##age": 54,
  "##ages": 55,
  "##agger": 56,
  "##agi": 57,
  "##aging": 58,
  "##ah": 59,
  "##aha": 60,
  "##aid": 61,
  "##ail": 62,
  "##ain": 63,
  "##aint": 64,
  "##ak": 65,
  "##akes": 66,
  "##aking": 67,
  "##aks": 68,
  "##al": 69,
  "##ala": 70,
  "##ale": 71,
  "##ales": 72,
  "##ali": 73,
  "##alic": 74,
  "##all": 75,
  "##ally": 76,
  "##als": 77,
  "##aly": 78,
  "##am": 79,
  "##ama": 80,
  "##ami": 81,
  "##amp": 82,
  "##amps": 83,
  "##an": 84,
  "##ana": 85,
  "##ance": 86,
  "##ancy": 87,
  "##ane": 88,
  "##ang": 89,
  "##ange": 90,
  "##ani": 91,
  "##ann": 92,
  "##ans": 93,
  "##ant": 94,
  "##ants": 95,
  "##any": 96,
  "##ao": 97,
  "##ap": 98,
  "##ape": 99,
  "##app": 100,
  "##apple": 101,
  "##ar": 102,
  "##aran": 103,
  "##ard": 104,
  "##arding": 105,
  "##are": 106,
  "##ari": 107,
  "##aring": 108,
  "##ario": 109,
  "##ark": 110,
  "##arm": 111,
  "##aro": 112,
  "##ars": 113,
  "##art": 114,
  "##arts": 115,
  "##ary": 116,
  "##as": 117,
  "##asa": 118,
  "##ash": 119,
  "##asi": 120,
  "##ask": 121,
  "##ast": 122,
  "##at": 123,
  "##atable": 124,
  "##ate": 125,
  "##ated": 126,
  "##ately": 127,
  "##ater": 128,
  "##ates": 129,
  "##athlon": 130,
  "##atic": 131,
  "##ating": 132,
  "##ation": 133,
  "##ative": 134,
  "##ator": 135,
  "##att": 136,
  "##au": 137,
  "##aux": 138,
  "##av": 139,
  "##ava": 140,
  "##ave": 141,
  "##aves": 142,
  "##avi": 143,
  "##aw": 144,
  "##away": 145,
  "##ax": 146,
  "##ay": 147,
  "##ayo": 148,
  "##az": 149,
  "##b": 150,
  "##ba": 151,
  "##back": 152,
  "##backs": 153,
  "##bag": 154,
  "##balance": 155,
  "##ball": 156,
  "##balls": 157,
  "##band": 158,
  "##bar": 159,
  "##bay": 160,
  "##bb": 161,
  "##bbly": 162,
  "##bby": 163,
  "##be": 164,
  "##beat": 165,
  "##bed": 166,
  "##bee": 167,
  "##bell": 168,
  "##belt": 169,
  "##ben": 170,
  "##ber": 171,
  "##berg": 172,
  "##berry": 173,
  "##bers": 174,
  "##bes": 175,
  "##bha": 176,
  "##bi": 177,
  "##bia": 178,
  "##bians": 179,
  "##bic": 180,
  "##bid": 181,
  "##bie": 182,
  "##bil": 183,
  "##bility": 184,
  "##bin": 185,
  "##bing": 186,
  "##biotic": 187,
  "##bird": 188,
  "##birds": 189,
  "##bit": 190,
  "##bla": 191,
  "##ble": 192,
  "##bles": 193,
  "##bling": 194,
  "##block": 195,
  "##blood": 196,
  "##bo": 197,
  "##board": 198,
  "##boarding": 199,
  "##boat": 200,
  "##bol": 201,
  "##bolt": 202,
  "##bon": 203,
  "##bone": 204,
  "##book": 205,
  "##books": 206,
  "##bos": 207,
  "##box": 208,
  "##boy": 209,
  "##bra": 210,
  "##brate": 211,
  "##bre": 212,
  "##bread": 213,
  "##breaker": 214,
  "##bri": 215,
  "##bro": 216,
  "##brush": 217,
  "##bs": 218,
  "##bson": 219,
  "##bu": 220,
  "##burg": 221,
  "##burn": 222,
  "##bury": 223,
  "##bus": 224,
  "##by": 225,
  "##c": 226,
  "##ca": 227,
  "##cable": 228,
  "##cake": 229,
  "##cal": 230,
  "##cala": 231,
  "##can": 232,
  "##cap": 233,
  "##cape": 234,
  "##car": 235,
  "##card": 236,
  "##care": 237,
  "##carriage": 238,
  "##cate": 239,
  "##cated": 240,
  "##cating": 241,
  "##cation": 242,
  "##cave": 243,
  "##cc": 244,
  "##cci": 245,
  "##cco": 246,
  "##cd": 247,
  "##ce": 248,
  "##ced": 249,
  "##cence": 250,
  "##cent": 251,
  "##centric": 252,
  "##ception": 253,
  "##cer": 254,
  "##ces": 255,
  "##ch": 256,
  "##cha": 257,
  "##chal": 258,
  "##chan": 259,
  "##chang": 260,
  "##che": 261,
  "##ched": 262,
  "##chel": 263,
  "##chen": 264,
  "##cher": 265,
  "##ches": 266,
  "##chet": 267,
  "##chi": 268,
  "##chin": 269,
  "##ching": 270,
  "##chment": 271,
  "##chs": 272,
  "##chu": 273,
  "##ci": 274,
  "##cia": 275,
  "##cial": 276,
  "##cie": 277,
  "##cier": 278,
  "##cies": 279,
  "##cing": 280,
  "##cino": 281,
  "##cio": 282,
  "##cit": 283,
  "##ck": 284,
  "##cker": 285,
  "##cko": 286,
  "##cks": 287,
  "##cky": 288,
  "##cl": 289,
  "##claim": 290,
  "##cle": 291,
  "##cloth": 292,
  "##co": 293,
  "##coat": 294,
  "##cola": 295,
  "##color": 296,
  "##com": 297,
  "##comb": 298,
  "##coming": 299,
  "##con": 300,
  "##connected": 301,
  "##cope": 302,
  "##cor": 303,
  "##cos": 304,
  "##cott": 305,
  "##court": 306,
  "##cr": 307,
  "##cre": 308,
  "##creen": 309,
  "##cross": 310,
  "##crow": 311,
  "##cs": 312,
  "##ct": 313,
  "##cta": 314,
  "##ctable": 315,
  "##cted": 316,
  "##cter": 317,
  "##cting": 318,
  "##ction": 319,
  "##ctor": 320,
  "##cts": 321,
  "##cture": 322,
  "##cu": 323,
  "##cum": 324,
  "##cup": 325,
  "##cus": 326,
  "##cut": 327,
  "##cy": 328,
  "##cz": 329,
  "##d": 330,
  "##da": 331,
  "##dae": 332,
  "##dah": 333,
  "##dak": 334,
  "##dal": 335,
  "##dale": 336,
  "##dant": 337,
  "##das": 338,
  "##date": 339,
  "##day": 340,
  "##dda": 341,
  "##dded": 342,
  "##ddle": 343,
  "##ddling": 344,
  "##de": 345,
  "##ded": 346,
  "##del": 347,
  "##dell": 348,
  "##der": 349,
  "##des": 350,
  "##dev": 351,
  "##dge": 352,
  "##dget": 353,
  "##dha": 354,
  "##dhar": 355,
  "##di": 356,
  "##dia": 357,
  "##dicate": 358,
  "##dice": 359,
  "##dies": 360,
  "##diment": 361,
  "##dina": 362,
  "##dine": 363,
  "##ding": 364,
  "##dio": 365,
  "##dis": 366,
  "##dit": 367,
  "##dle": 368,
  "##dled": 369,
  "##dles": 370,
  "##dling": 371,
  "##dman": 372,
  "##do": 373,
  "##dom": 374,
  "##dome": 375,
  "##don": 376,
  "##door": 377,
  "##dor": 378,
  "##dr": 379,
  "##dra": 380,
  "##dre": 381,
  "##drick": 382,
  "##drop": 383,
  "##drum": 384,
  "##ds": 385,
  "##du": 386,
  "##ducted": 387,
  "##duction": 388,
  "##ductive": 389,
  "##dy": 390,
  "##e": 391,
  "##ea": 392,
  "##ead": 393,
  "##eal": 394,
  "##ear": 395,
  "##earing": 396,
  "##ears": 397,
  "##ease": 398,
  "##eased": 399,
  "##eaux": 400,
  "##eb": 401,
  "##ec": 402,
  "##ece": 403,
  "##ect": 404,
  "##ed": 405,
  "##edge": 406,
  "##ee": 407,
  "##eer": 408,
  "##eft": 409,
  "##ege": 410,
  "##ei": 411,
  "##ein": 412,
  "##eit": 413,
  "##eke": 414,
  "##eki": 415,
  "##el": 416,
  "##ele": 417,
  "##ell": 418,
  "##ella": 419,
  "##elle": 420,
  "##eller": 421,
  "##elling": 422,
  "##ello": 423,
  "##els": 424,
  "##ely": 425,
  "##em": 426,
  "##ema": 427,
  "##eme": 428,
  "##emi": 429,
  "##en": 430,
  "##ena": 431,
  "##ency": 432,
  "##end": 433,
  "##ene": 434,
  "##ened": 435,
  "##ener": 436,
  "##eni": 437,
  "##ening": 438,
  "##eno": 439,
  "##ens": 440,
  "##ensburg": 441,
  "##ense": 442,
  "##ent": 443,
  "##entation": 444,
  "##ented": 445,
  "##enting": 446,
  "##ents": 447,
  "##eo": 448,
  "##eon": 449,
  "##eous": 450,
  "##ep": 451,
  "##ept": 452,
  "##eptive": 453,
  "##er": 454,
  "##ere": 455,
  "##ered": 456,
  "##ergy": 457,
  "##eri": 458,
  "##eric": 459,
  "##erina": 460,
  "##ering": 461,
  "##ero": 462,
  "##erry": 463,
  "##ers": 464,
  "##erson": 465,
  "##ert": 466,
  "##es": 467,
  "##ese": 468,
  "##esh": 469,
  "##ess": 470,
  "##est": 471,
  "##ester": 472,
  "##estinal": 473,
  "##et": 474,
  "##ete": 475,
  "##eter": 476,
  "##eti": 477,
  "##etic": 478,
  "##ets": 479,
  "##ett": 480,
  "##ette": 481,
  "##ettes": 482,
  "##etto": 483,
  "##ev": 484,
  "##eva": 485,
  "##eve": 486,
  "##evic": 487,
  "##ew": 488,
  "##ex": 489,
  "##ey": 490,
  "##eye": 491,
  "##ez": 492,
  "##f": 493,
  "##fa": 494,
  "##face": 495,
  "##falls": 496,
  "##fan": 497,
  "##fare": 498,
  "##fe": 499,
  "##fect": 500,
  "##fed": 501,
  "##feit": 502,
  "##fers": 503,
  "##fest": 504,
  "##ff": 505,
  "##ffa": 506,
  "##ffe": 507,
  "##ffen": 508,
  "##ffi": 509,
  "##ffie": 510,
  "##ffin": 511,
  "##ffle": 512,
  "##ffs": 513,
  "##fi": 514,
  "##fication": 515,
  "##fide": 516,
  "##field": 517,
  "##fields": 518,
  "##fies": 519,
  "##fighting": 520,
  "##filtration": 521,
  "##finder": 522,
  "##fine": 523,
  "##finger": 524,
  "##fire": 525,
  "##firmed": 526,
  "##fish": 527,
  "##fl": 528,
  "##flow": 529,
  "##flower": 530,
  "##fly": 531,
  "##fo": 532,
  "##fold": 533,
  "##folia": 534,
  "##for": 535,
  "##ford": 536,
  "##form": 537,
  "##fr": 538,
  "##fra": 539,
  "##free": 540,
  "##ft": 541,
  "##fu": 542,
  "##ful": 543,
  "##fully": 544,
  "##fulness": 545,
  "##fur": 546,
  "##fus": 547,
  "##fy": 548,
  "##fying": 549,
  "##g": 550,
  "##ga": 551,
  "##gai": 552,
  "##gan": 553,
  "##gano": 554,
  "##gar": 555,
  "##gard": 556,
  "##gart": 557,
  "##gas": 558,
  "##gating": 559,
  "##ge": 560,
  "##ged": 561,
  "##gement": 562,
  "##gen": 563,
  "##genic": 564,
  "##gent": 565,
  "##ger": 566,
  "##ges": 567,
  "##gg": 568,
  "##gged": 569,
  "##gger": 570,
  "##ggle": 571,
  "##ggles": 572,
  "##ggy": 573,
  "##gh": 574,
  "##ght": 575,
  "##gi": 576,
  "##gic": 577,
  "##gie": 578,
  "##gies": 579,
  "##ging": 580,
  "##girl": 581,
  "##gis": 582,
  "##giving": 583,
  "##gl": 584,
  "##glass": 585,
  "##gle": 586,
  "##gler": 587,
  "##glers": 588,
  "##gles": 589,
  "##gli": 590,
  "##gling": 591,
  "##gly": 592,
  "##gm": 593,
  "##gn": 594,
  "##gne": 595,
  "##gno": 596,
  "##go": 597,
  "##gon": 598,
  "##gonal": 599,
  "##gong": 600,
  "##gr": 601,
  "##gra": 602,
  "##grade": 603,
  "##gram": 604,
  "##grant": 605,
  "##grapher": 606,
  "##graphy": 607,
  "##grate": 608,
  "##ground": 609,
  "##growth": 610,
  "##gs": 611,
  "##gua": 612,
  "##gun": 613,
  "##gur": 614,
  "##gus": 615,
  "##gy": 616,
  "##h": 617,
  "##ha": 618,
  "##had": 619,
  "##hala": 620,
  "##hale": 621,
  "##haling": 622,
  "##ham": 623,
  "##han": 624,
  "##hand": 625,
  "##hang": 626,
  "##har": 627,
  "##has": 628,
  "##hd": 629,
  "##hea": 630,
  "##head": 631,
  "##heads": 632,
  "##hear": 633,
  "##hee": 634,
  "##hell": 635,
  "##hem": 636,
  "##hen": 637,
  "##her": 638,
  "##hers": 639,
  "##hesion": 640,
  "##hesis": 641,
  "##hesive": 642,
  "##hetic": 643,
  "##hey": 644,
  "##hh": 645,
  "##hi": 646,
  "##hid": 647,
  "##hill": 648,
  "##him": 649,
  "##hing": 650,
  "##hip": 651,
  "##hips": 652,
  "##hir": 653,
  "##his": 654,
  "##hl": 655,
  "##hn": 656,
  "##ho": 657,
  "##hoe": 658,
  "##hof": 659,
  "##hog": 660,
  "##hol": 661,
  "##hole": 662,
  "##holes": 663,
  "##hom": 664,
  "##hoot": 665,
  "##hop": 666,
  "##hot": 667,
  "##how": 668,
  "##hr": 669,
  "##hra": 670,
  "##hre": 671,
  "##ht": 672,
  "##hta": 673,
  "##hus": 674,
  "##hy": 675,
  "##i": 676,
  "##ia": 677,
  "##iable": 678,
  "##iac": 679,
  "##ial": 680,
  "##ian": 681,
  "##iance": 682,
  "##iard": 683,
  "##ias": 684,
  "##iated": 685,
  "##ib": 686,
  "##ible": 687,
  "##ic": 688,
  "##ica": 689,
  "##ical": 690,
  "##ically": 691,
  "##icated": 692,
  "##ication": 693,
  "##ice": 694,
  "##ich": 695,
  "##ici": 696,
  "##iciencies": 697,
  "##ick": 698,
  "##icle": 699,
  "##icles": 700,
  "##ico": 701,
  "##ics": 702,
  "##iculate": 703,
  "##id": 704,
  "##ida": 705,
  "##idal": 706,
  "##ide": 707,
  "##ider": 708,
  "##ides": 709,
  "##idi": 710,
  "##ids": 711,
  "##ie": 712,
  "##ied": 713,
  "##ier": 714,
  "##iere": 715,
  "##ieri": 716,
  "##iers": 717,
  "##ies": 718,
  "##iest": 719,
  "##if": 720,
  "##ification": 721,
  "##ified": 722,
  "##ifier": 723,
  "##ifies": 724,
  "##ify": 725,
  "##ifying": 726,
  "##ig": 727,
  "##iga": 728,
  "##ige": 729,
  "##iger": 730,
  "##ign": 731,
  "##ik": 732,
  "##ika": 733,
  "##ike": 734,
  "##iki": 735,
  "##il": 736,
  "##ila": 737,
  "##ile": 738,
  "##ili": 739,
  "##ility": 740,
  "##ill": 741,
  "##illa": 742,
  "##ils": 743,
  "##im": 744,
  "##ime": 745,
  "##imeter": 746,
  "##imeters": 747,
  "##imi": 748,
  "##in": 749,
  "##ina": 750,
  "##inal": 751,
  "##inate": 752,
  "##inated": 753,
  "##inating": 754,
  "##ination": 755,
  "##ind": 756,
  "##ine": 757,
  "##iner": 758,
  "##ines": 759,
  "##iness": 760,
  "##ing": 761,
  "##inger": 762,
  "##ings": 763,
  "##ini": 764,
  "##ink": 765,
  "##inkles": 766,
  "##ino": 767,
  "##int": 768,
  "##io": 769,
  "##iol": 770,
  "##ion": 771,
  "##ioned": 772,
  "##ions": 773,
  "##ior": 774,
  "##ios": 775,
  "##ious": 776,
  "##ip": 777,
  "##ipe": 778,
  "##ique": 779,
  "##ir": 780,
  "##ira": 781,
  "##ire": 782,
  "##iri": 783,
  "##is": 784,
  "##ise": 785,
  "##ised": 786,
  "##iser": 787,
  "##ises": 788,
  "##ish": 789,
  "##ished": 790,
  "##ishing": 791,
  "##ishment": 792,
  "##isi": 793,
  "##ising": 794,
  "##ism": 795,
  "##iso": 796,
  "##iss": 797,
  "##isse": 798,
  "##ist": 799,
  "##iste": 800,
  "##ister": 801,
  "##istic": 802,
  "##istle": 803,
  "##istles": 804,
  "##it": 805,
  "##itaire": 806,
  "##ital": 807,
  "##itas": 808,
  "##itate": 809,
  "##ite": 810,
  "##iter": 811,
  "##iti": 812,
  "##itia": 813,
  "##iting": 814,
  "##ition": 815,
  "##itive": 816,
  "##ito": 817,
  "##itte": 818,
  "##ity": 819,
  "##itz": 820,
  "##iu": 821,
  "##ium": 822,
  "##ius": 823,
  "##iva": 824,
  "##ive": 825,
  "##iving": 826,
  "##iz": 827,
  "##ization": 828,
  "##ize": 829,
  "##ized": 830,
  "##izer": 831,
  "##izes": 832,
  "##izing": 833,
  "##ja": 834,
  "##jing": 835,
  "##jit": 836,
  "##jo": 837,
  "##jon": 838,
  "##jou": 839,
  "##ju": 840,
  "##jun": 841,
  "##jure": 842,
  "##just": 843,
  "##k": 844,
  "##kan": 845,
  "##kas": 846,
  "##kat": 847,
  "##ke": 848,
  "##ked": 849,
  "##kee": 850,
  "##kel": 851,
  "##ken": 852,
  "##ker": 853,
  "##kers": 854,
  "##kha": 855,
  "##ki": 856,
  "##kie": 857,
  "##kim": 858,
  "##kin": 859,
  "##king": 860,
  "##kins": 861,
  "##kle": 862,
  "##kon": 863,
  "##kra": 864,
  "##ks": 865,
  "##kt": 866,
  "##ky": 867,
  "##l": 868,
  "##la": 869,
  "##lace": 870,
  "##lad": 871,
  "##lage": 872,
  "##lam": 873,
  "##lan": 874,
  "##land": 875,
  "##landa": 876,
  "##lar": 877,
  "##las": 878,
  "##lash": 879,
  "##lass": 880,
  "##lat": 881,
  "##late": 882,
  "##lated": 883,
  "##lates": 884,
  "##lating": 885,
  "##lav": 886,
  "##lay": 887,
  "##laze": 888,
  "##lb": 889,
  "##lberg": 890,
  "##lc": 891,
  "##lch": 892,
  "##le": 893,
  "##lea": 894,
  "##led": 895,
  "##leen": 896,
  "##lem": 897,
  "##len": 898,
  "##lent": 899,
  "##ler": 900,
  "##lers": 901,
  "##les": 902,
  "##less": 903,
  "##let": 904,
  "##leton": 905,
  "##lets": 906,
  "##lev": 907,
  "##lewood": 908,
  "##ley": 909,
  "##lga": 910,
  "##li": 911,
  "##lia": 912,
  "##lian": 913,
  "##lic": 914,
  "##lica": 915,
  "##lid": 916,
  "##lide": 917,
  "##lie": 918,
  "##lier": 919,
  "##light": 920,
  "##lights": 921,
  "##lim": 922,
  "##lin": 923,
  "##line": 924,
  "##liner": 925,
  "##lines": 926,
  "##liness": 927,
  "##ling": 928,
  "##linger": 929,
  "##lini": 930,
  "##lining": 931,
  "##lio": 932,
  "##lip": 933,
  "##lis": 934,
  "##lish": 935,
  "##lism": 936,
  "##list": 937,
  "##lit": 938,
  "##lite": 939,
  "##lization": 940,
  "##lizer": 941,
  "##lk": 942,
  "##lke": 943,
  "##ll": 944,
  "##lla": 945,
  "##llar": 946,
  "##llation": 947,
  "##lled": 948,
  "##ller": 949,
  "##lli": 950,
  "##llie": 951,
  "##llis": 952,
  "##llo": 953,
  "##lls": 954,
  "##lm": 955,
  "##ln": 956,
  "##lo": 957,
  "##load": 958,
  "##lock": 959,
  "##logram": 960,
  "##logue": 961,
  "##logy": 962,
  "##lon": 963,
  "##lone": 964,
  "##long": 965,
  "##lor": 966,
  "##lore": 967,
  "##lot": 968,
  "##lous": 969,
  "##lov": 970,
  "##lova": 971,
  "##low": 972,
  "##lp": 973,
  "##ls": 974,
  "##lster": 975,
  "##lt": 976,
  "##lter": 977,
  "##lth": 978,
  "##lu": 979,
  "##lub": 980,
  "##lva": 981,
  "##lves": 982,
  "##lving": 983,
  "##lvis": 984,
  "##ly": 985,
  "##m": 986,
  "##ma": 987,
  "##mable": 988,
  "##made": 989,
  "##mage": 990,
  "##mail": 991,
  "##maker": 992,
  "##makers": 993,
  "##making": 994,
  "##mal": 995,
  "##man": 996,
  "##manship": 997,
  "##mar": 998,
  "##mare": 999,
  "##market": 1000,
  "##marks": 1001,
  "##mas": 1002,
  "##mat": 1003,
  "##matic": 1004,
  "##max": 1005,
  "##mba": 1006,
  "##mbled": 1007,
  "##mbo": 1008,
  "##me": 1009,
  "##med": 1010,
  "##mel": 1011,
  "##men": 1012,
  "##ment": 1013,
  "##ments": 1014,
  "##mer": 1015,
  "##meral": 1016,
  "##mere": 1017,
  "##meric": 1018,
  "##mering": 1019,
  "##mers": 1020,
  "##mes": 1021,
  "##met": 1022,
  "##meter": 1023,
  "##metric": 1024,
  "##metry": 1025,
  "##mi": 1026,
  "##mia": 1027,
  "##mic": 1028,
  "##mide": 1029,
  "##mill": 1030,
  "##min": 1031,
  "##mina": 1032,
  "##ming": 1033,
  "##missible": 1034,
  "##missive": 1035,
  "##mith": 1036,
  "##mm": 1037,
  "##mmer": 1038,
  "##mming": 1039,
  "##mmy": 1040,
  "##mo": 1041,
  "##mona": 1042,
  "##mony": 1043,
  "##mos": 1044,
  "##mount": 1045,
  "##movable": 1046,
  "##mp": 1047,
  "##mple": 1048,
  "##mpt": 1049,
  "##ms": 1050,
  "##mu": 1051,
  "##mun": 1052,
  "##mus": 1053,
  "##music": 1054,
  "##mx": 1055,
  "##n": 1056,
  "##na": 1057,
  "##nage": 1058,
  "##nail": 1059,
  "##naire": 1060,
  "##nan": 1061,
  "##nant": 1062,
  "##nar": 1063,
  "##nare": 1064,
  "##nas": 1065,
  "##nat": 1066,
  "##nate": 1067,
  "##nation": 1068,
  "##nator": 1069,
  "##nberg": 1070,
  "##nc": 1071,
  "##nce": 1072,
  "##nch": 1073,
  "##ncies": 1074,
  "##nco": 1075,
  "##ncy": 1076,
  "##nd": 1077,
  "##nder": 1078,
  "##nding": 1079,
  "##ne": 1080,
  "##neck": 1081,
  "##ned": 1082,
  "##nee": 1083,
  "##nell": 1084,
  "##ner": 1085,
  "##ners": 1086,
  "##nes": 1087,
  "##ness": 1088,
  "##net": 1089,
  "##nett": 1090,
  "##ng": 1091,
  "##nge": 1092,
  "##nged": 1093,
  "##ngen": 1094,
  "##nging": 1095,
  "##nh": 1096,
  "##ni": 1097,
  "##nia": 1098,
  "##nie": 1099,
  "##nier": 1100,
  "##nies": 1101,
  "##nified": 1102,
  "##nin": 1103,
  "##ning": 1104,
  "##nish": 1105,
  "##nivorous": 1106,
  "##nk": 1107,
  "##nna": 1108,
  "##nne": 1109,
  "##no": 1110,
  "##nob": 1111,
  "##nock": 1112,
  "##nor": 1113,
  "##nosis": 1114,
  "##not": 1115,
  "##nous": 1116,
  "##nova": 1117,
  "##now": 1118,
  "##ns": 1119,
  "##nse": 1120,
  "##nsed": 1121,
  "##nsis": 1122,
  "##nt": 1123,
  "##nts": 1124,
  "##nu": 1125,
  "##nut": 1126,
  "##ny": 1127,
  "##o": 1128,
  "##oa": 1129,
  "##ob": 1130,
  "##oc": 1131,
  "##oca": 1132,
  "##och": 1133,
  "##oche": 1134,
  "##ock": 1135,
  "##ocks": 1136,
  "##oco": 1137,
  "##od": 1138,
  "##odes": 1139,
  "##odle": 1140,
  "##odon": 1141,
  "##ods": 1142,
  "##oe": 1143,
  "##of": 1144,
  "##off": 1145,
  "##og": 1146,
  "##ographic": 1147,
  "##oh": 1148,
  "##oi": 1149,
  "##oic": 1150,
  "##ok": 1151,
  "##oke": 1152,
  "##oked": 1153,
  "##ol": 1154,
  "##ola": 1155,
  "##old": 1156,
  "##ole": 1157,
  "##oli": 1158,
  "##olic": 1159,
  "##olin": 1160,
  "##oll": 1161,
  "##olo": 1162,
  "##ologist": 1163,
  "##ology": 1164,
  "##om": 1165,
  "##ome": 1166,
  "##ometer": 1167,
  "##omo": 1168,
  "##omp": 1169,
  "##omy": 1170,
  "##on": 1171,
  "##ond": 1172,
  "##one": 1173,
  "##ong": 1174,
  "##onga": 1175,
  "##oni": 1176,
  "##onia": 1177,
  "##onne": 1178,
  "##ons": 1179,
  "##ont": 1180,
  "##ony": 1181,
  "##oo": 1182,
  "##oof": 1183,
  "##ool": 1184,
  "##oon": 1185,
  "##oons": 1186,
  "##oop": 1187,
  "##ooped": 1188,
  "##ooping": 1189,
  "##oot": 1190,
  "##op": 1191,
  "##opa": 1192,
  "##opped": 1193,
  "##ops": 1194,
  "##or": 1195,
  "##ora": 1196,
  "##ore": 1197,
  "##ori": 1198,
  "##ories": 1199,
  "##oris": 1200,
  "##oro": 1201,
  "##orous": 1202,
  "##ors": 1203,
  "##ort": 1204,
  "##ory": 1205,
  "##os": 1206,
  "##osa": 1207,
  "##osing": 1208,
  "##osis": 1209,
  "##osition": 1210,
  "##osity": 1211,
  "##oss": 1212,
  "##ost": 1213,
  "##osta": 1214,
  "##ot": 1215,
  "##ota": 1216,
  "##ote": 1217,
  "##oth": 1218,
  "##oto": 1219,
  "##otti": 1220,
  "##otto": 1221,
  "##ou": 1222,
  "##ough": 1223,
  "##oun": 1224,
  "##ound": 1225,
  "##our": 1226,
  "##ous": 1227,
  "##out": 1228,
  "##outh": 1229,
  "##outs": 1230,
  "##ov": 1231,
  "##ove": 1232,
  "##over": 1233,
  "##ow": 1234,
  "##owa": 1235,
  "##owed": 1236,
  "##own": 1237,
  "##ox": 1238,
  "##oxide": 1239,
  "##oy": 1240,
  "##oz": 1241,
  "##p": 1242,
  "##pa": 1243,
  "##pack": 1244,
  "##pad": 1245,
  "##page": 1246,
  "##pan": 1247,
  "##paper": 1248,
  "##par": 1249,
  "##para": 1250,
  "##pas": 1251,
  "##pate": 1252,
  "##pati": 1253,
  "##pd": 1254,
  "##pe": 1255,
  "##ped": 1256,
  "##pee": 1257,
  "##pen": 1258,
  "##per": 1259,
  "##pers": 1260,
  "##personal": 1261,
  "##pes": 1262,
  "##pet": 1263,
  "##ph": 1264,
  "##pha": 1265,
  "##pher": 1266,
  "##phi": 1267,
  "##phones": 1268,
  "##phy": 1269,
  "##pi": 1270,
  "##pic": 1271,
  "##pie": 1272,
  "##piece": 1273,
  "##pies": 1274,
  "##pin": 1275,
  "##ping": 1276,
  "##pins": 1277,
  "##pipe": 1278,
  "##piration": 1279,
  "##pit": 1280,
  "##pl": 1281,
  "##ple": 1282,
  "##plication": 1283,
  "##ply": 1284,
  "##point": 1285,
  "##pol": 1286,
  "##pon": 1287,
  "##poo": 1288,
  "##pop": 1289,
  "##post": 1290,
  "##pot": 1291,
  "##power": 1292,
  "##pp": 1293,
  "##pped": 1294,
  "##pper": 1295,
  "##pping": 1296,
  "##ppy": 1297,
  "##pr": 1298,
  "##pre": 1299,
  "##press": 1300,
  "##pressing": 1301,
  "##print": 1302,
  "##pro": 1303,
  "##promising": 1304,
  "##proof": 1305,
  "##ps": 1306,
  "##pt": 1307,
  "##pta": 1308,
  "##ptic": 1309,
  "##pu": 1310,
  "##py": 1311,
  "##qu": 1312,
  "##qua": 1313,
  "##qual": 1314,
  "##que": 1315,
  "##quet": 1316,
  "##qui": 1317,
  "##quil": 1318,
  "##quin": 1319,
  "##quisite": 1320,
  "##r": 1321,
  "##ra": 1322,
  "##rac": 1323,
  "##ractive": 1324,
  "##rad": 1325,
  "##rade": 1326,
  "##raf": 1327,
  "##rag": 1328,
  "##rah": 1329,
  "##rai": 1330,
  "##rail": 1331,
  "##ral": 1332,
  "##ram": 1333,
  "##ran": 1334,
  "##rana": 1335,
  "##rangle": 1336,
  "##rani": 1337,
  "##rank": 1338,
  "##rant": 1339,
  "##raph": 1340,
  "##raphic": 1341,
  "##raphy": 1342,
  "##ras": 1343,
  "##rat": 1344,
  "##rate": 1345,
  "##rating": 1346,
  "##ration": 1347,
  "##rator": 1348,
  "##rave": 1349,
  "##raz": 1350,
  "##rb": 1351,
  "##rba": 1352,
  "##rc": 1353,
  "##rce": 1354,
  "##rch": 1355,
  "##rd": 1356,
  "##rdi": 1357,
  "##rdo": 1358,
  "##rdy": 1359,
  "##re": 1360,
  "##real": 1361,
  "##reate": 1362,
  "##recht": 1363,
  "##red": 1364,
  "##rel": 1365,
  "##rella": 1366,
  "##rem": 1367,
  "##ren": 1368,
  "##rer": 1369,
  "##res": 1370,
  "##resh": 1371,
  "##ress": 1372,
  "##resses": 1373,
  "##rest": 1374,
  "##ret": 1375,
  "##rew": 1376,
  "##rg": 1377,
  "##rge": 1378,
  "##ri": 1379,
  "##riam": 1380,
  "##rian": 1381,
  "##rians": 1382,
  "##ric": 1383,
  "##rica": 1384,
  "##rice": 1385,
  "##rich": 1386,
  "##rick": 1387,
  "##ricting": 1388,
  "##rid": 1389,
  "##ride": 1390,
  "##ridge": 1391,
  "##riding": 1392,
  "##rie": 1393,
  "##rien": 1394,
  "##rier": 1395,
  "##ries": 1396,
  "##rified": 1397,
  "##rift": 1398,
  "##right": 1399,
  "##ril": 1400,
  "##rily": 1401,
  "##rim": 1402,
  "##rin": 1403,
  "##ring": 1404,
  "##rip": 1405,
  "##rish": 1406,
  "##rit": 1407,
  "##rita": 1408,
  "##rite": 1409,
  "##rium": 1410,
  "##rius": 1411,
  "##riz": 1412,
  "##rize": 1413,
  "##rk": 1414,
  "##rks": 1415,
  "##rm": 1416,
  "##rmi": 1417,
  "##rmin": 1418,
  "##rn": 1419,
  "##rna": 1420,
  "##ro": 1421,
  "##rock": 1422,
  "##rod": 1423,
  "##rogen": 1424,
  "##rol": 1425,
  "##roll": 1426,
  "##rom": 1427,
  "##ron": 1428,
  "##room": 1429,
  "##rop": 1430,
  "##ros": 1431,
  "##rose": 1432,
  "##rot": 1433,
  "##rou": 1434,
  "##roud": 1435,
  "##roup": 1436,
  "##rous": 1437,
  "##routed": 1438,
  "##rov": 1439,
  "##row": 1440,
  "##roy": 1441,
  "##rp": 1442,
  "##rr": 1443,
  "##rra": 1444,
  "##rral": 1445,
  "##rri": 1446,
  "##rring": 1447,
  "##rro": 1448,
  "##rs": 1449,
  "##rson": 1450,
  "##rst": 1451,
  "##rt": 1452,
  "##rte": 1453,
  "##rter": 1454,
  "##rti": 1455,
  "##rting": 1456,
  "##rts": 1457,
  "##ru": 1458,
  "##ruck": 1459,
  "##rud": 1460,
  "##rued": 1461,
  "##ruff": 1462,
  "##rum": 1463,
  "##run": 1464,
  "##rup": 1465,
  "##rut": 1466,
  "##ry": 1467,
  "##ryl": 1468,
  "##ryn": 1469,
  "##rz": 1470,
  "##s": 1471,
  "##sa": 1472,
  "##sal": 1473,
  "##sam": 1474,
  "##san": 1475,
  "##sari": 1476,
  "##sas": 1477,
  "##sat": 1478,
  "##sc": 1479,
  "##sca": 1480,
  "##sch": 1481,
  "##scia": 1482,
  "##sco": 1483,
  "##scribe": 1484,
  "##scu": 1485,
  "##se": 1486,
  "##sed": 1487,
  "##sel": 1488,
  "##sen": 1489,
  "##ser": 1490,
  "##ses": 1491,
  "##set": 1492,
  "##sey": 1493,
  "##sh": 1494,
  "##sha": 1495,
  "##shaft": 1496,
  "##shaw": 1497,
  "##shed": 1498,
  "##shi": 1499,
  "##shin": 1500,
  "##shing": 1501,
  "##shot": 1502,
  "##si": 1503,
  "##sia": 1504,
  "##sible": 1505,
  "##sic": 1506,
  "##sier": 1507,
  "##sies": 1508,
  "##sight": 1509,
  "##sin": 1510,
  "##sing": 1511,
  "##sion": 1512,
  "##sis": 1513,
  "##sive": 1514,
  "##ska": 1515,
  "##sl": 1516,
  "##sle": 1517,
  "##sley": 1518,
  "##sm": 1519,
  "##smith": 1520,
  "##smo": 1521,
  "##so": 1522,
  "##sol": 1523,
  "##son": 1524,
  "##sp": 1525,
  "##sper": 1526,
  "##sr": 1527,
  "##ss": 1528,
  "##sse": 1529,
  "##sser": 1530,
  "##ssi": 1531,
  "##sso": 1532,
  "##st": 1533,
  "##sta": 1534,
  "##stand": 1535,
  "##station": 1536,
  "##ste": 1537,
  "##ster": 1538,
  "##sti": 1539,
  "##stic": 1540,
  "##stick": 1541,
  "##stle": 1542,
  "##stones": 1543,
  "##stream": 1544,
  "##sts": 1545,
  "##sty": 1546,
  "##su": 1547,
  "##suit": 1548,
  "##sul": 1549,
  "##sworth": 1550,
  "##sy": 1551,
  "##t": 1552,
  "##ta": 1553,
  "##table": 1554,
  "##tag": 1555,
  "##tage": 1556,
  "##tail": 1557,
  "##tal": 1558,
  "##tam": 1559,
  "##tan": 1560,
  "##tangle": 1561,
  "##tangled": 1562,
  "##tar": 1563,
  "##tarian": 1564,
  "##tas": 1565,
  "##tate": 1566,
  "##tation": 1567,
  "##tch": 1568,
  "##tched": 1569,
  "##te": 1570,
  "##tea": 1571,
  "##tec": 1572,
  "##ted": 1573,
  "##tell": 1574,
  "##tem": 1575,
  "##ten": 1576,
  "##tens": 1577,
  "##ter": 1578,
  "##tera": 1579,
  "##tering": 1580,
  "##tern": 1581,
  "##ters": 1582,
  "##tes": 1583,
  "##th": 1584,
  "##tha": 1585,
  "##the": 1586,
  "##ther": 1587,
  "##therapy": 1588,
  "##thest": 1589,
  "##thi": 1590,
  "##ti": 1591,
  "##tia": 1592,
  "##tic": 1593,
  "##ties": 1594,
  "##tight": 1595,
  "##tile": 1596,
  "##tility": 1597,
  "##till": 1598,
  "##time": 1599,
  "##tin": 1600,
  "##tine": 1601,
  "##ting": 1602,
  "##tion": 1603,
  "##tions": 1604,
  "##tious": 1605,
  "##tip": 1606,
  "##tis": 1607,
  "##titles": 1608,
  "##tive": 1609,
  "##tl": 1610,
  "##tle": 1611,
  "##tness": 1612,
  "##to": 1613,
  "##tock": 1614,
  "##tom": 1615,
  "##ton": 1616,
  "##tone": 1617,
  "##tones": 1618,
  "##tor": 1619,
  "##tore": 1620,
  "##tori": 1621,
  "##torm": 1622,
  "##tors": 1623,
  "##tort": 1624,
  "##tory": 1625,
  "##tou": 1626,
  "##tour": 1627,
  "##tr": 1628,
  "##tra": 1629,
  "##tre": 1630,
  "##tree": 1631,
  "##tri": 1632,
  "##trip": 1633,
  "##tro": 1634,
  "##try": 1635,
  "##ts": 1636,
  "##tt": 1637,
  "##tta": 1638,
  "##tte": 1639,
  "##tten": 1640,
  "##tter": 1641,
  "##tters": 1642,
  "##tti": 1643,
  "##ttle": 1644,
  "##tto": 1645,
  "##tton": 1646,
  "##tu": 1647,
  "##tub": 1648,
  "##tura": 1649,
  "##ture": 1650,
  "##tures": 1651,
  "##turn": 1652,
  "##tus": 1653,
  "##ty": 1654,
  "##tyle": 1655,
  "##tz": 1656,
  "##tze": 1657,
  "##ua": 1658,
  "##ual": 1659,
  "##uary": 1660,
  "##uate": 1661,
  "##uated": 1662,
  "##ub": 1663,
  "##uba": 1664,
  "##uber": 1665,
  "##uc": 1666,
  "##uce": 1667,
  "##uch": 1668,
  "##uchi": 1669,
  "##uck": 1670,
  "##ud": 1671,
  "##ude": 1672,
  "##uder": 1673,
  "##udes": 1674,
  "##udge": 1675,
  "##udi": 1676,
  "##ue": 1677,
  "##uer": 1678,
  "##ues": 1679,
  "##uez": 1680,
  "##uf": 1681,
  "##ug": 1682,
  "##ugh": 1683,
  "##ui": 1684,
  "##uin": 1685,
  "##uis": 1686,
  "##uising": 1687,
  "##uity": 1688,
  "##uk": 1689,
  "##ul": 1690,
  "##ula": 1691,
  "##ular": 1692,
  "##ulate": 1693,
  "##ulated": 1694,
  "##ulates": 1695,
  "##ulating": 1696,
  "##ulation": 1697,
  "##ulator": 1698,
  "##uld": 1699,
  "##ule": 1700,
  "##ulent": 1701,
  "##ull": 1702,
  "##ulsion": 1703,
  "##ulsive": 1704,
  "##um": 1705,
  "##uman": 1706,
  "##umb": 1707,
  "##umi": 1708,
  "##uming": 1709,
  "##ump": 1710,
  "##ums": 1711,
  "##un": 1712,
  "##unce": 1713,
  "##une": 1714,
  "##uni": 1715,
  "##unk": 1716,
  "##unt": 1717,
  "##uous": 1718,
  "##up": 1719,
  "##ups": 1720,
  "##upt": 1721,
  "##ur": 1722,
  "##ura": 1723,
  "##urable": 1724,
  "##ural": 1725,
  "##ure": 1726,
  "##ures": 1727,
  "##uri": 1728,
  "##uring": 1729,
  "##urities": 1730,
  "##urized": 1731,
  "##urs": 1732,
  "##us": 1733,
  "##use": 1734,
  "##used": 1735,
  "##uss": 1736,
  "##ust": 1737,
  "##ut": 1738,
  "##uta": 1739,
  "##utable": 1740,
  "##utation": 1741,
  "##ute": 1742,
  "##uted": 1743,
  "##uter": 1744,
  "##uth": 1745,
  "##uti": 1746,
  "##ution": 1747,
  "##utter": 1748,
  "##uttered": 1749,
  "##uve": 1750,
  "##ux": 1751,
  "##uze": 1752,
  "##v": 1753,
  "##va": 1754,
  "##vable": 1755,
  "##van": 1756,
  "##vani": 1757,
  "##vas": 1758,
  "##vati": 1759,
  "##vating": 1760,
  "##ve": 1761,
  "##ved": 1762,
  "##vel": 1763,
  "##ven": 1764,
  "##vent": 1765,
  "##ver": 1766,
  "##vert": 1767,
  "##ves": 1768,
  "##vi": 1769,
  "##via": 1770,
  "##vial": 1771,
  "##vic": 1772,
  "##ville": 1773,
  "##vin": 1774,
  "##vine": 1775,
  "##ving": 1776,
  "##vio": 1777,
  "##vis": 1778,
  "##vita": 1779,
  "##vo": 1780,
  "##vor": 1781,
  "##vot": 1782,
  "##vron": 1783,
  "##vs": 1784,
  "##w": 1785,
  "##wa": 1786,
  "##wall": 1787,
  "##wan": 1788,
  "##war": 1789,
  "##ward": 1790,
  "##ware": 1791,
  "##wash": 1792,
  "##watch": 1793,
  "##water": 1794,
  "##way": 1795,
  "##we": 1796,
  "##wear": 1797,
  "##wed": 1798,
  "##wee": 1799,
  "##weight": 1800,
  "##wer": 1801,
  "##wi": 1802,
  "##wig": 1803,
  "##win": 1804,
  "##wind": 1805,
  "##wine": 1806,
  "##wing": 1807,
  "##wire": 1808,
  "##wise": 1809,
  "##wives": 1810,
  "##wk": 1811,
  "##wn": 1812,
  "##woman": 1813,
  "##wood": 1814,
  "##work": 1815,
  "##worm": 1816,
  "##wr": 1817,
  "##written": 1818,
  "##ws": 1819,
  "##wyn": 1820,
  "##x": 1821,
  "##xed": 1822,
  "##xi": 1823,
  "##xide": 1824,
  "##xing": 1825,
  "##xious": 1826,
  "##xon": 1827,
  "##xy": 1828,
  "##y": 1829,
  "##ya": 1830,
  "##yana": 1831,
  "##yas": 1832,
  "##yen": 1833,
  "##ying": 1834,
  "##yk": 1835,
  "##yl": 1836,
  "##yle": 1837,
  "##yler": 1838,
  "##ylus": 1839,
  "##ym": 1840,
  "##yn": 1841,
  "##yo": 1842,
  "##yp": 1843,
  "##ype": 1844,
  "##ys": 1845,
  "##ysis": 1846,
  "##yst": 1847,
  "##yt": 1848,
  "##yu": 1849,
  "##ywood": 1850,
  "##z": 1851,
  "##za": 1852,
  "##ze": 1853,
  "##zed": 1854,
  "##zen": 1855,
  "##zer": 1856,
  "##zers": 1857,
  "##zes": 1858,
  "##zie": 1859,
  "##zing": 1860,
  "##zle": 1861,
  "##zo": 1862,
  "##zy": 1863,
  "##zz": 1864,
  "##zza": 1865,
  "##zzi": 1866,
  "##zzle": 1867,
  "##zzy": 1868,
  "##\u00a6": 1869,
  "##\u00a9": 1870,
  "##\u00b4": 1871,
  "##\u00bd": 1872,
  "$": 1873,
  "%": 1874,
  "&": 1875,
  "'": 1876,
  "(": 1877,
  ")": 1878,
  "*": 1879,
  "+": 1880,
  ",": 1881,
  "-": 1882,
  ".": 1883,
  "/": 1884,
  "0": 1885,
  "00": 1886,
  "000": 1887,
  "01": 1888,
  "03": 1889,
  "05": 1890,
  "06": 1891,
  "08": 1892,
  "1": 1893,
  "10": 1894,
  "100": 1895,
  "101": 1896,
  "109": 1897,
  "10th": 1898,
  "11": 1899,
  "110": 1900,
  "111": 1901,
  "12": 1902,
  "120": 1903,
  "123": 1904,
  "129": 1905,
  "12th": 1906,
  "13": 1907,
  "130": 1908,
  "14": 1909,
  "140": 1910,
  "15": 1911,
  "150": 1912,
  "151": 1913,
  "15th": 1914,
  "16": 1915,
  "165": 1916,
  "16th": 1917,
  "17": 1918,
  "17th": 1919,
  "18": 1920,
  "180": 1921,
  "1800": 1922,
  "185": 1923,
  "1890": 1924,
  "19": 1925,
  "1912": 1926,
  "1942": 1927,
  "1957": 1928,
  "1960": 1929,
  "1970": 1930,
  "1972": 1931,
  "1980": 1932,
  "1980s": 1933,
  "1983": 1934,
  "1984": 1935,
  "1999": 1936,
  "2": 1937,
  "20": 1938,
  "200": 1939,
  "2003": 1940,
  "2004": 1941,
  "2008": 1942,
  "201": 1943,
  "22": 1944,
  "220": 1945,
  "23": 1946,
  "24": 1947,
  "240": 1948,
  "244": 1949,
  "25": 1950,
  "250": 1951,
  "27": 1952,
  "270": 1953,
  "275": 1954,
  "28": 1955,
  "285": 1956,
  "29": 1957,
  "2nd": 1958,
  "3": 1959,
  "30": 1960,
  "300": 1961,
  "3000": 1962,
  "32": 1963,
  "325": 1964,
  "330": 1965,
  "34": 1966,
  "35": 1967,
  "350": 1968,
  "360": 1969,
  "37": 1970,
  "38": 1971,
  "3rd": 1972,
  "4": 1973,
  "40": 1974,
  "400": 1975,
  "41": 1976,
  "42": 1977,
  "425": 1978,
  "44": 1979,
  "45": 1980,
  "48": 1981,
  "4th": 1982,
  "5": 1983,
  "50": 1984,
  "500": 1985,
  "5000": 1986,
  "53": 1987,
  "54": 1988,
  "555": 1989,
  "56": 1990,
  "6": 1991,
  "60": 1992,
  "62": 1993,
  "65": 1994,
  "6th": 1995,
  "7": 1996,
  "70": 1997,
  "70s": 1998,
  "72": 1999,
  "720": 2000,
  "73": 2001,
  "75": 2002,
  "77": 2003,
  "7th": 2004,
  "8": 2005,
  "80": 2006,
  "800": 2007,
  "80s": 2008,
  "83": 2009,
  "85": 2010,
  "86": 2011,
  "87": 2012,
  "88": 2013,
  "8th": 2014,
  "9": 2015,
  "90": 2016,
  "90s": 2017,
  "93": 2018,
  "95": 2019,
  "99": 2020,
  ":": 2021,
  ";": 2022,
  "=": 2023,
  "?": 2024,
  "[": 2025,
  "]": 2026,
  "a": 2027,
  "aa": 2028,
  "aaron": 2029,
  "ab": 2030,
  "abandon": 2031,
  "abandoned": 2032,
  "abby": 2033,
  "abc": 2034,
  "abd": 2035,
  "abdomen": 2036,
  "abdominal": 2037,
  "abduction": 2038,
  "abe": 2039,
  "abilities": 2040,
  "ability": 2041,
  "able": 2042,
  "abnormal": 2043,
  "abnormalities": 2044,
  "abortion": 2045,
  "about": 2046,
  "above": 2047,
  "abs": 2048,
  "absence": 2049,
  "absolute": 2050,
  "absolutely": 2051,
  "absorb": 2052,
  "absorbing": 2053,
  "absorption": 2054,
  "abstract": 2055,
  "absurd": 2056,
  "abuse": 2057,
  "ac": 2058,
  "academic": 2059,
  "academy": 2060,
  "acc": 2061,
  "accelerate": 2062,
  "acceleration": 2063,
  "accent": 2064,
  "accents": 2065,
  "accept": 2066,
  "acceptable": 2067,
  "accepted": 2068,
  "accepting": 2069,
  "access": 2070,
  "accessed": 2071,
  "accessibility": 2072,
  "accessible": 2073,
  "accessories": 2074,
  "accessory": 2075,
  "accident": 2076,
  "accidentally": 2077,
  "accidents": 2078,
  "accommodate": 2079,
  "accomplish": 2080,
  "accomplishments": 2081,
  "according": 2082,
  "accordingly": 2083,
  "account": 2084,
  "accountant": 2085,
  "accountants": 2086,
  "accounting": 2087,
  "accounts": 2088,
  "accredited": 2089,
  "accumulate": 2090,
  "accumulated": 2091,
  "accumulation": 2092,
  "accuracy": 2093,
  "accurate": 2094,
  "accurately": 2095,
  "accustomed": 2096,
  "ace": 2097,
  "aces": 2098,
  "ache": 2099,
  "achieve": 2100,
  "achieved": 2101,
  "aching": 2102,
  "acid": 2103,
  "acids": 2104,
  "acoustic": 2105,
  "acquainted": 2106,
  "acquired": 2107,
  "acquisition": 2108,
  "acronym": 2109,
  "across": 2110,
  "act": 2111,
  "acted": 2112,
  "acting": 2113,
  "action": 2114,
  "actions": 2115,
  "activate": 2116,
  "activated": 2117,
  "active": 2118,
  "activities": 2119,
  "activity": 2120,
  "actor": 2121,
  "actors": 2122,
  "actress": 2123,
  "acts": 2124,
  "actual": 2125,
  "actually": 2126,
  "ad": 2127,
  "ada": 2128,
  "adam": 2129,
  "adams": 2130,
  "adapt": 2131,
  "adapted": 2132,
  "adaptive": 2133,
  "add": 2134,
  "added": 2135,
  "addicted": 2136,
  "adding": 2137,
  "addison": 2138,
  "addition": 2139,
  "additional": 2140,
  "additionally": 2141,
  "additive": 2142,
  "address": 2143,
  "addressed": 2144,
  "addresses": 2145,
  "addressing": 2146,
  "adds": 2147,
  "adequate": 2148,
  "adequately": 2149,
  "adhere": 2150,
  "adjective": 2151,
  "adjust": 2152,
  "adjustable": 2153,
  "adjusted": 2154,
  "adjusting": 2155,
  "adjustment": 2156,
  "adjustments": 2157,
  "administer": 2158,
  "administrative": 2159,
  "administrator": 2160,
  "admission": 2161,
  "admissions": 2162,
  "admit": 2163,
  "admitted": 2164,
  "adobe": 2165,
  "adopted": 2166,
  "adopting": 2167,
  "adoption": 2168,
  "adorable": 2169,
  "adrian": 2170,
  "ads": 2171,
  "adult": 2172,
  "adultery": 2173,
  "adults": 2174,
  "advance": 2175,
  "advanced": 2176,
  "advancement": 2177,
  "advances": 2178,
  "advancing": 2179,
  "advantage": 2180,
  "advantages": 2181,
  "adventure": 2182,
  "adventurer": 2183,
  "adventures": 2184,
  "adverse": 2185,
  "advertisement": 2186,
  "advertising": 2187,
  "advice": 2188,
  "advise": 2189,
  "advises": 2190,
  "advocate": 2191,
  "advocating": 2192,
  "ae": 2193,
  "aero": 2194,
  "aesthetic": 2195,
  "affect": 2196,
  "affected": 2197,
  "affecting": 2198,
  "affection": 2199,
  "affects": 2200,
  "affiliated": 2201,
  "affiliation": 2202,
  "afford": 2203,
  "affordable": 2204,
  "afraid": 2205,
  "africa": 2206,
  "african": 2207,
  "afro": 2208,
  "after": 2209,
  "afternoon": 2210,
  "afterwards": 2211,
  "ag": 2212,
  "again": 2213,
  "against": 2214,
  "age": 2215,
  "aged": 2216,
  "agencies": 2217,
  "agency": 2218,
  "agenda": 2219,
  "agent": 2220,
  "agents": 2221,
  "ages": 2222,
  "aggressive": 2223,
  "agile": 2224,
  "aging": 2225,
  "agitated": 2226,
  "ago": 2227,
  "agree": 2228,
  "agreed": 2229,
  "agreement": 2230,
  "ah": 2231,
  "ahead": 2232,
  "ai": 2233,
  "aid": 2234,
  "aide": 2235,
  "aids": 2236,
  "aim": 2237,
  "aimed": 2238,
  "aiming": 2239,
  "ain": 2240,
  "air": 2241,
  "aircraft": 2242,
  "airplane": 2243,
  "airplanes": 2244,
  "airport": 2245,
  "airports": 2246,
  "aisle": 2247,
  "al": 2248,
  "ala": 2249,
  "alan": 2250,
  "alarm": 2251,
  "alcohol": 2252,
  "alcoholic": 2253,
  "ale": 2254,
  "alex": 2255,
  "alexa": 2256,
  "alfa": 2257,
  "algae": 2258,
  "algebra": 2259,
  "ali": 2260,
  "alice": 2261,
  "alien": 2262,
  "aliens": 2263,
  "align": 2264,
  "aligned": 2265,
  "alignment": 2266,
  "alive": 2267,
  "all": 2268,
  "allan": 2269,
  "allen": 2270,
  "allergic": 2271,
  "alleviate": 2272,
  "alley": 2273,
  "alligator": 2274,
  "allison": 2275,
  "allow": 2276,
  "allowance": 2277,
  "allowed": 2278,
  "allowing": 2279,
  "allows": 2280,
  "alloy": 2281,
  "alloys": 2282,
  "ally": 2283,
  "almond": 2284,
  "almost": 2285,
  "alone": 2286,
  "along": 2287,
  "alongside": 2288,
  "alphabet": 2289,
  "alpine": 2290,
  "already": 2291,
  "alright": 2292,
  "also": 2293,
  "alt": 2294,
  "alter": 2295,
  "alterations": 2296,
  "altering": 2297,
  "alternate": 2298,
  "alternating": 2299,
  "alternative": 2300,
  "alternatively": 2301,
  "alternatives": 2302,
  "although": 2303,
  "altitude": 2304,
  "altitudes": 2305,
  "altogether": 2306,
  "aluminum": 2307,
  "alvin": 2308,
  "always": 2309,
  "am": 2310,
  "ama": 2311,
  "amanda": 2312,
  "amar": 2313,
  "amateur": 2314,
  "amazed": 2315,
  "amazing": 2316,
  "amc": 2317,
  "amelia": 2318,
  "america": 2319,
  "american": 2320,
  "americans": 2321,
  "ami": 2322,
  "amino": 2323,
  "ammonia": 2324,
  "ammunition": 2325,
  "among": 2326,
  "amongst": 2327,
  "amount": 2328,
  "amounts": 2329,
  "amp": 2330,
  "amplifier": 2331,
  "amtrak": 2332,
  "amused": 2333,
  "amy": 2334,
  "an": 2335,
  "anal": 2336,
  "analog": 2337,
  "analogy": 2338,
  "analysis": 2339,
  "analyze": 2340,
  "analyzing": 2341,
  "anatomy": 2342,
  "anchor": 2343,
  "anchored": 2344,
  "anchors": 2345,
  "ancient": 2346,
  "and": 2347,
  "andover": 2348,
  "andre": 2349,
  "andrews": 2350,
  "ang": 2351,
  "angel": 2352,
  "angeles": 2353,
  "anger": 2354,
  "angle": 2355,
  "angled": 2356,
  "angles": 2357,
  "angry": 2358,
  "animal": 2359,
  "animals": 2360,
  "ankle": 2361,
  "ankles": 2362,
  "ann": 2363,
  "anne": 2364,
  "announce": 2365,
  "announcements": 2366,
  "annoying": 2367,
  "annual": 2368,
  "annually": 2369,
  "anonymous": 2370,
  "another": 2371,
  "anson": 2372,
  "answer": 2373,
  "answering": 2374,
  "answers": 2375,
  "ant": 2376,
  "anthologies": 2377,
  "anthology": 2378,
  "anthony": 2379,
  "anti": 2380,
  "antibiotics": 2381,
  "antibodies": 2382,
  "antibody": 2383,
  "anticipating": 2384,
  "antics": 2385,
  "antique": 2386,
  "any": 2387,
  "anybody": 2388,
  "anymore": 2389,
  "anyone": 2390,
  "anything": 2391,
  "anytime": 2392,
  "anyway": 2393,
  "anywhere": 2394,
  "ap": 2395,
  "apart": 2396,
  "apartment": 2397,
  "aperture": 2398,
  "apex": 2399,
  "api": 2400,
  "apical": 2401,
  "apologize": 2402,
  "app": 2403,
  "appalachian": 2404,
  "apparatus": 2405,
  "apparent": 2406,
  "apparently": 2407,
  "appear": 2408,
  "appearance": 2409,
  "appearing": 2410,
  "appears": 2411,
  "appetite": 2412,
  "apple": 2413,
  "apples": 2414,
  "appliances": 2415,
  "applicable": 2416,
  "applicants": 2417,
  "application": 2418,
  "applications": 2419,
  "applied": 2420,
  "applies": 2421,
  "apply": 2422,
  "applying": 2423,
  "appointment": 2424,
  "appointments": 2425,
  "appreciate": 2426,
  "apprentice": 2427,
  "approach": 2428,
  "approaches": 2429,
  "approaching": 2430,
  "appropriate": 2431,
  "appropriately": 2432,
  "approve": 2433,
  "approved": 2434,
  "approximate": 2435,
  "approximately": 2436,
  "apr": 2437,
  "april": 2438,
  "apron": 2439,
  "apt": 2440,
  "aqua": 2441,
  "aquarium": 2442,
  "aquatic": 2443,
  "ar": 2444,
  "arab": 2445,
  "arabian": 2446,
  "arabic": 2447,
  "arbor": 2448,
  "arc": 2449,
  "arch": 2450,
  "archaeologist": 2451,
  "archaic": 2452,
  "arched": 2453,
  "archery": 2454,
  "arches": 2455,
  "arching": 2456,
  "architect": 2457,
  "architects": 2458,
  "architectural": 2459,
  "architecture": 2460,
  "are": 2461,
  "area": 2462,
  "areas": 2463,
  "aren": 2464,
  "arena": 2465,
  "argentina": 2466,
  "argue": 2467,
  "argument": 2468,
  "arguments": 2469,
  "ariel": 2470,
  "arise": 2471,
  "arizona": 2472,
  "ark": 2473,
  "arm": 2474,
  "armor": 2475,
  "arms": 2476,
  "army": 2477,
  "aroma": 2478,
  "aromatic": 2479,
  "around": 2480,
  "arrange": 2481,
  "arrangements": 2482,
  "arrest": 2483,
  "arrive": 2484,
  "arrives": 2485,
  "arriving": 2486,
  "arrow": 2487,
  "arrows": 2488,
  "art": 2489,
  "arte": 2490,
  "arterial": 2491,
  "artery": 2492,
  "arthritis": 2493,
  "arthur": 2494,
  "article": 2495,
  "articles": 2496,
  "artifact": 2497,
  "artifacts": 2498,
  "artificial": 2499,
  "artist": 2500,
  "artistic": 2501,
  "artists": 2502,
  "arts": 2503,
  "artwork": 2504,
  "as": 2505,
  "asa": 2506,
  "asbestos": 2507,
  "ascot": 2508,
  "ash": 2509,
  "ashes": 2510,
  "ashley": 2511,
  "asian": 2512,
  "aside": 2513,
  "ask": 2514,
  "asked": 2515,
  "asking": 2516,
  "asks": 2517,
  "asleep": 2518,
  "aspect": 2519,
  "aspects": 2520,
  "ass": 2521,
  "assemble": 2522,
  "assembled": 2523,
  "assemblies": 2524,
  "assembly": 2525,
  "assert": 2526,
  "assess": 2527,
  "assessing": 2528,
  "assessment": 2529,
  "asset": 2530,
  "assign": 2531,
  "assigned": 2532,
  "assignment": 2533,
  "assignments": 2534,
  "assist": 2535,
  "assistance": 2536,
  "assistant": 2537,
  "associated": 2538,
  "association": 2539,
  "associations": 2540,
  "assortment": 2541,
  "assume": 2542,
  "assure": 2543,
  "astro": 2544,
  "astronomy": 2545,
  "at": 2546,
  "athena": 2547,
  "athlete": 2548,
  "athletes": 2549,
  "athletic": 2550,
  "atlantic": 2551,
  "atlas": 2552,
  "atmosphere": 2553,
  "atoms": 2554,
  "attach": 2555,
  "attache": 2556,
  "attached": 2557,
  "attachment": 2558,
  "attack": 2559,
  "attacked": 2560,
  "attacker": 2561,
  "attacking": 2562,
  "attacks": 2563,
  "attain": 2564,
  "attaining": 2565,
  "attempt": 2566,
  "attempting": 2567,
  "attend": 2568,
  "attention": 2569,
  "attic": 2570,
  "attire": 2571,
  "attitude": 2572,
  "attorney": 2573,
  "attract": 2574,
  "attracted": 2575,
  "attracting": 2576,
  "attraction": 2577,
  "au": 2578,
  "auburn": 2579,
  "audience": 2580,
  "audio": 2581,
  "audition": 2582,
  "auditions": 2583,
  "auditory": 2584,
  "aug": 2585,
  "august": 2586,
  "aunt": 2587,
  "austin": 2588,
  "australia": 2589,
  "australian": 2590,
  "austrian": 2591,
  "authentic": 2592,
  "author": 2593,
  "authority": 2594,
  "authorized": 2595,
  "auto": 2596,
  "automatic": 2597,
  "automatically": 2598,
  "automobile": 2599,
  "automobiles": 2600,
  "automotive": 2601,
  "av": 2602,
  "availability": 2603,
  "available": 2604,
  "avatar": 2605,
  "avenue": 2606,
  "avenues": 2607,
  "average": 2608,
  "aviation": 2609,
  "avoid": 2610,
  "avoided": 2611,
  "avoiding": 2612,
  "avon": 2613,
  "award": 2614,
  "awarded": 2615,
  "awards": 2616,
  "aware": 2617,
  "awareness": 2618,
  "away": 2619,
  "awe": 2620,
  "awesome": 2621,
  "awful": 2622,
  "awhile": 2623,
  "axis": 2624,
  "axle": 2625,
  "aye": 2626,
  "b": 2627,
  "ba": 2628,
  "babies": 2629,
  "baby": 2630,
  "bachelor": 2631,
  "back": 2632,
  "backbone": 2633,
  "backdrop": 2634,
  "backed": 2635,
  "background": 2636,
  "backgrounds": 2637,
  "backing": 2638,
  "backpack": 2639,
  "backs": 2640,
  "backside": 2641,
  "backstroke": 2642,
  "backup": 2643,
  "backward": 2644,
  "backwards": 2645,
  "backyard": 2646,
  "bacon": 2647,
  "bacteria": 2648,
  "bacterial": 2649,
  "bad": 2650,
  "badge": 2651,
  "badly": 2652,
  "badminton": 2653,
  "bag": 2654,
  "bags": 2655,
  "bahamas": 2656,
  "bail": 2657,
  "bailey": 2658,
  "bait": 2659,
  "baked": 2660,
  "baker": 2661,
  "bakery": 2662,
  "baking": 2663,
  "bal": 2664,
  "balance": 2665,
  "balanced": 2666,
  "balancing": 2667,
  "balcony": 2668,
  "bald": 2669,
  "baldwin": 2670,
  "ball": 2671,
  "ballet": 2672,
  "balloon": 2673,
  "balloons": 2674,
  "ballroom": 2675,
  "balls": 2676,
  "bamboo": 2677,
  "ban": 2678,
  "banana": 2679,
  "bananas": 2680,
  "band": 2681,
  "banda": 2682,
  "bandage": 2683,
  "bands": 2684,
  "bang": 2685,
  "banging": 2686,
  "bank": 2687,
  "banks": 2688,
  "banned": 2689,
  "banners": 2690,
  "bar": 2691,
  "barbara": 2692,
  "barbecue": 2693,
  "barber": 2694,
  "barbie": 2695,
  "bare": 2696,
  "barefoot": 2697,
  "barely": 2698,
  "bargain": 2699,
  "bargaining": 2700,
  "bark": 2701,
  "barnes": 2702,
  "barney": 2703,
  "baroness": 2704,
  "barrage": 2705,
  "barrel": 2706,
  "barrels": 2707,
  "barrier": 2708,
  "barriers": 2709,
  "bars": 2710,
  "bart": 2711,
  "bartender": 2712,
  "bartlett": 2713,
  "barton": 2714,
  "bas": 2715,
  "base": 2716,
  "baseball": 2717,
  "based": 2718,
  "baseman": 2719,
  "basement": 2720,
  "bases": 2721,
  "bash": 2722,
  "basic": 2723,
  "basically": 2724,
  "basics": 2725,
  "basil": 2726,
  "basin": 2727,
  "basis": 2728,
  "basket": 2729,
  "basketball": 2730,
  "baskets": 2731,
  "basque": 2732,
  "bass": 2733,
  "bat": 2734,
  "batch": 2735,
  "bath": 2736,
  "bathed": 2737,
  "bathing": 2738,
  "bathroom": 2739,
  "bathrooms": 2740,
  "baths": 2741,
  "bats": 2742,
  "batter": 2743,
  "battered": 2744,
  "batteries": 2745,
  "battery": 2746,
  "batting": 2747,
  "battling": 2748,
  "bay": 2749,
  "be": 2750,
  "bea": 2751,
  "beach": 2752,
  "beads": 2753,
  "beak": 2754,
  "beam": 2755,
  "bean": 2756,
  "beans": 2757,
  "bear": 2758,
  "bearer": 2759,
  "bearing": 2760,
  "bearings": 2761,
  "bears": 2762,
  "beast": 2763,
  "beat": 2764,
  "beaten": 2765,
  "beating": 2766,
  "beats": 2767,
  "beau": 2768,
  "beautiful": 2769,
  "beautifully": 2770,
  "beauty": 2771,
  "became": 2772,
  "because": 2773,
  "becky": 2774,
  "become": 2775,
  "becomes": 2776,
  "becoming": 2777,
  "bed": 2778,
  "bedroom": 2779,
  "bedrooms": 2780,
  "beds": 2781,
  "bee": 2782,
  "beef": 2783,
  "been": 2784,
  "beer": 2785,
  "beers": 2786,
  "bees": 2787,
  "beetle": 2788,
  "before": 2789,
  "beforehand": 2790,
  "beg": 2791,
  "began": 2792,
  "begin": 2793,
  "beginning": 2794,
  "beginnings": 2795,
  "begins": 2796,
  "begun": 2797,
  "behalf": 2798,
  "behave": 2799,
  "behaved": 2800,
  "behavior": 2801,
  "behavioral": 2802,
  "behind": 2803,
  "beige": 2804,
  "being": 2805,
  "bel": 2806,
  "bela": 2807,
  "belgium": 2808,
  "beliefs": 2809,
  "believe": 2810,
  "believed": 2811,
  "believes": 2812,
  "bell": 2813,
  "bella": 2814,
  "bells": 2815,
  "belly": 2816,
  "belong": 2817,
  "belongings": 2818,
  "belongs": 2819,
  "below": 2820,
  "belt": 2821,
  "belts": 2822,
  "ben": 2823,
  "bench": 2824,
  "bend": 2825,
  "bending": 2826,
  "bends": 2827,
  "beneath": 2828,
  "beneficial": 2829,
  "benefit": 2830,
  "benefits": 2831,
  "benjamin": 2832,
  "bent": 2833,
  "benz": 2834,
  "berg": 2835,
  "berkeley": 2836,
  "bern": 2837,
  "berries": 2838,
  "beside": 2839,
  "besides": 2840,
  "best": 2841,
  "bet": 2842,
  "beta": 2843,
  "bets": 2844,
  "better": 2845,
  "betting": 2846,
  "between": 2847,
  "beverage": 2848,
  "beyond": 2849,
  "bi": 2850,
  "bias": 2851,
  "bible": 2852,
  "bibliography": 2853,
  "biceps": 2854,
  "bicycle": 2855,
  "bicycles": 2856,
  "bid": 2857,
  "bidding": 2858,
  "bids": 2859,
  "big": 2860,
  "bigger": 2861,
  "biggest": 2862,
  "bike": 2863,
  "bikes": 2864,
  "bikini": 2865,
  "bilateral": 2866,
  "bill": 2867,
  "billboard": 2868,
  "billed": 2869,
  "bills": 2870,
  "billy": 2871,
  "bin": 2872,
  "bind": 2873,
  "binding": 2874,
  "bing": 2875,
  "binoculars": 2876,
  "bio": 2877,
  "biography": 2878,
  "biological": 2879,
  "bird": 2880,
  "birds": 2881,
  "birth": 2882,
  "birthday": 2883,
  "bis": 2884,
  "bit": 2885,
  "bite": 2886,
  "bites": 2887,
  "biting": 2888,
  "bits": 2889,
  "bitten": 2890,
  "bitter": 2891,
  "bitterness": 2892,
  "bk": 2893,
  "black": 2894,
  "blackened": 2895,
  "blacks": 2896,
  "blackwell": 2897,
  "bladder": 2898,
  "blade": 2899,
  "bladed": 2900,
  "blades": 2901,
  "blah": 2902,
  "blame": 2903,
  "bland": 2904,
  "blank": 2905,
  "blanket": 2906,
  "blankets": 2907,
  "blast": 2908,
  "blaze": 2909,
  "blazers": 2910,
  "bleed": 2911,
  "bleeding": 2912,
  "blend": 2913,
  "blended": 2914,
  "blending": 2915,
  "blew": 2916,
  "blind": 2917,
  "blinded": 2918,
  "blinding": 2919,
  "blink": 2920,
  "blinking": 2921,
  "block": 2922,
  "blocked": 2923,
  "blocking": 2924,
  "blocks": 2925,
  "blog": 2926,
  "blogger": 2927,
  "blond": 2928,
  "blonde": 2929,
  "blood": 2930,
  "bloody": 2931,
  "bloom": 2932,
  "blooms": 2933,
  "blossom": 2934,
  "blow": 2935,
  "blowing": 2936,
  "blown": 2937,
  "blows": 2938,
  "blu": 2939,
  "blue": 2940,
  "blues": 2941,
  "blunt": 2942,
  "blur": 2943,
  "blush": 2944,
  "bo": 2945,
  "boar": 2946,
  "board": 2947,
  "boards": 2948,
  "boat": 2949,
  "boats": 2950,
  "bob": 2951,
  "bobby": 2952,
  "bodied": 2953,
  "bodies": 2954,
  "body": 2955,
  "bog": 2956,
  "bohemian": 2957,
  "boil": 2958,
  "boiled": 2959,
  "boiler": 2960,
  "boiling": 2961,
  "bold": 2962,
  "bolt": 2963,
  "bolts": 2964,
  "bomb": 2965,
  "bombed": 2966,
  "bon": 2967,
  "bond": 2968,
  "bonded": 2969,
  "bonding": 2970,
  "bonds": 2971,
  "bone": 2972,
  "bones": 2973,
  "bono": 2974,
  "bonus": 2975,
  "bony": 2976,
  "book": 2977,
  "booked": 2978,
  "booking": 2979,
  "booklet": 2980,
  "books": 2981,
  "bookstore": 2982,
  "boom": 2983,
  "boon": 2984,
  "boost": 2985,
  "booster": 2986,
  "boot": 2987,
  "booth": 2988,
  "boots": 2989,
  "bop": 2990,
  "border": 2991,
  "bore": 2992,
  "bored": 2993,
  "boredom": 2994,
  "boring": 2995,
  "born": 2996,
  "borrow": 2997,
  "boss": 2998,
  "bosses": 2999,
  "boston": 3000,
  "bot": 3001,
  "botanical": 3002,
  "both": 3003,
  "bother": 3004,
  "bothering": 3005,
  "bottle": 3006,
  "bottles": 3007,
  "bottom": 3008,
  "bottoms": 3009,
  "bought": 3010,
  "boulders": 3011,
  "boulevard": 3012,
  "bounce": 3013,
  "bounced": 3014,
  "bouncing": 3015,
  "bound": 3016,
  "boundaries": 3017,
  "boundary": 3018,
  "bounds": 3019,
  "bouquet": 3020,
  "bout": 3021,
  "bouts": 3022,
  "bow": 3023,
  "bowl": 3024,
  "bowler": 3025,
  "bowling": 3026,
  "bowls": 3027,
  "box": 3028,
  "boxer": 3029,
  "boxers": 3030,
  "boxes": 3031,
  "boxing": 3032,
  "boy": 3033,
  "boyd": 3034,
  "boyfriend": 3035,
  "boys": 3036,
  "br": 3037,
  "bra": 3038,
  "brace": 3039,
  "braced": 3040,
  "bracelet": 3041,
  "bracket": 3042,
  "brackets": 3043,
  "brad": 3044,
  "bradley": 3045,
  "bragg": 3046,
  "braid": 3047,
  "brain": 3048,
  "brains": 3049,
  "brake": 3050,
  "brakes": 3051,
  "braking": 3052,
  "bran": 3053,
  "branch": 3054,
  "branched": 3055,
  "branches": 3056,
  "brand": 3057,
  "brandon": 3058,
  "brands": 3059,
  "brandy": 3060,
  "brass": 3061,
  "braun": 3062,
  "brave": 3063,
  "bray": 3064,
  "brazilian": 3065,
  "bread": 3066,
  "break": 3067,
  "breakdown": 3068,
  "breaker": 3069,
  "breakers": 3070,
  "breakfast": 3071,
  "breaking": 3072,
  "breakout": 3073,
  "breaks": 3074,
  "breakup": 3075,
  "breast": 3076,
  "breasts": 3077,
  "breath": 3078,
  "breathe": 3079,
  "breathing": 3080,
  "breaths": 3081,
  "breed": 3082,
  "breeders": 3083,
  "breeding": 3084,
  "breeds": 3085,
  "breeze": 3086,
  "brenda": 3087,
  "brew": 3088,
  "brewer": 3089,
  "brewing": 3090,
  "brian": 3091,
  "bricks": 3092,
  "bride": 3093,
  "bridge": 3094,
  "brief": 3095,
  "briefly": 3096,
  "brig": 3097,
  "bright": 3098,
  "brighter": 3099,
  "brightly": 3100,
  "brightness": 3101,
  "brilliant": 3102,
  "bring": 3103,
  "bringing": 3104,
  "brings": 3105,
  "brisk": 3106,
  "british": 3107,
  "brittle": 3108,
  "bro": 3109,
  "broad": 3110,
  "broadcast": 3111,
  "broadcasting": 3112,
  "broadway": 3113,
  "broke": 3114,
  "broken": 3115,
  "broker": 3116,
  "broncos": 3117,
  "bronze": 3118,
  "brood": 3119,
  "brook": 3120,
  "broom": 3121,
  "brother": 3122,
  "brought": 3123,
  "brow": 3124,
  "brown": 3125,
  "browne": 3126,
  "browning": 3127,
  "brownish": 3128,
  "browns": 3129,
  "brows": 3130,
  "bruce": 3131,
  "bruised": 3132,
  "bruises": 3133,
  "brunette": 3134,
  "brush": 3135,
  "brushed": 3136,
  "brushes": 3137,
  "brushing": 3138,
  "bryan": 3139,
  "bt": 3140,
  "bu": 3141,
  "bubble": 3142,
  "bubbles": 3143,
  "bubbling": 3144,
  "buck": 3145,
  "bucket": 3146,
  "buckle": 3147,
  "buckley": 3148,
  "bucks": 3149,
  "budapest": 3150,
  "buddha": 3151,
  "buddhism": 3152,
  "buddies": 3153,
  "buddy": 3154,
  "budget": 3155,
  "budgets": 3156,
  "buds": 3157,
  "buenos": 3158,
  "buff": 3159,
  "buffalo": 3160,
  "buffer": 3161,
  "buffet": 3162,
  "bug": 3163,
  "bugs": 3164,
  "buick": 3165,
  "build": 3166,
  "building": 3167,
  "builds": 3168,
  "built": 3169,
  "bulb": 3170,
  "bulbs": 3171,
  "bulgaria": 3172,
  "bulk": 3173,
  "bulky": 3174,
  "bull": 3175,
  "bullet": 3176,
  "bullets": 3177,
  "bulls": 3178,
  "bump": 3179,
  "bumped": 3180,
  "bumper": 3181,
  "bumps": 3182,
  "bun": 3183,
  "bunch": 3184,
  "bundle": 3185,
  "bunker": 3186,
  "bunny": 3187,
  "bureau": 3188,
  "burger": 3189,
  "burgundy": 3190,
  "buried": 3191,
  "burn": 3192,
  "burned": 3193,
  "burning": 3194,
  "burns": 3195,
  "burnt": 3196,
  "burr": 3197,
  "burrows": 3198,
  "burst": 3199,
  "burton": 3200,
  "bury": 3201,
  "bus": 3202,
  "bush": 3203,
  "bushes": 3204,
  "business": 3205,
  "businesses": 3206,
  "bust": 3207,
  "busy": 3208,
  "but": 3209,
  "butcher": 3210,
  "butt": 3211,
  "butter": 3212,
  "butterflies": 3213,
  "butterfly": 3214,
  "button": 3215,
  "buttons": 3216,
  "buy": 3217,
  "buyer": 3218,
  "buying": 3219,
  "buys": 3220,
  "buzzing": 3221,
  "by": 3222,
  "bye": 3223,
  "bypass": 3224,
  "c": 3225,
  "c1": 3226,
  "ca": 3227,
  "cab": 3228,
  "cabaret": 3229,
  "cabbage": 3230,
  "cabin": 3231,
  "cabinet": 3232,
  "cabinets": 3233,
  "cable": 3234,
  "cables": 3235,
  "cactus": 3236,
  "cad": 3237,
  "caf": 3238,
  "cafe": 3239,
  "cage": 3240,
  "cages": 3241,
  "cai": 3242,
  "caine": 3243,
  "cake": 3244,
  "cakes": 3245,
  "cal": 3246,
  "calcium": 3247,
  "calculate": 3248,
  "calculating": 3249,
  "calcutta": 3250,
  "caleb": 3251,
  "calendar": 3252,
  "calf": 3253,
  "caliber": 3254,
  "california": 3255,
  "call": 3256,
  "called": 3257,
  "caller": 3258,
  "calling": 3259,
  "calls": 3260,
  "calm": 3261,
  "calming": 3262,
  "calves": 3263,
  "cam": 3264,
  "came": 3265,
  "camel": 3266,
  "camera": 3267,
  "cameras": 3268,
  "camouflage": 3269,
  "camp": 3270,
  "camping": 3271,
  "camps": 3272,
  "campus": 3273,
  "campuses": 3274,
  "can": 3275,
  "canada": 3276,
  "canadian": 3277,
  "canal": 3278,
  "cancer": 3279,
  "candi": 3280,
  "candidate": 3281,
  "candidates": 3282,
  "candle": 3283,
  "candles": 3284,
  "candy": 3285,
  "cane": 3286,
  "canine": 3287,
  "canned": 3288,
  "cannon": 3289,
  "cannot": 3290,
  "canoe": 3291,
  "canon": 3292,
  "canopy": 3293,
  "cans": 3294,
  "canvas": 3295,
  "cap": 3296,
  "capabilities": 3297,
  "capability": 3298,
  "capable": 3299,
  "capacity": 3300,
  "cape": 3301,
  "capital": 3302,
  "capitals": 3303,
  "caps": 3304,
  "capsule": 3305,
  "capt": 3306,
  "captain": 3307,
  "captains": 3308,
  "captive": 3309,
  "capture": 3310,
  "car": 3311,
  "carbon": 3312,
  "carbonate": 3313,
  "card": 3314,
  "cardboard": 3315,
  "cardiac": 3316,
  "cardiovascular": 3317,
  "cards": 3318,
  "care": 3319,
  "cared": 3320,
  "career": 3321,
  "careful": 3322,
  "carefully": 3323,
  "cares": 3324,
  "caretaker": 3325,
  "carey": 3326,
  "cargo": 3327,
  "caribbean": 3328,
  "carl": 3329,
  "carmine": 3330,
  "carol": 3331,
  "carolina": 3332,
  "caroline": 3333,
  "carp": 3334,
  "carpenter": 3335,
  "carpet": 3336,
  "carriage": 3337,
  "carrie": 3338,
  "carried": 3339,
  "carrier": 3340,
  "carriers": 3341,
  "carrot": 3342,
  "carry": 3343,
  "carrying": 3344,
  "cars": 3345,
  "cart": 3346,
  "carter": 3347,
  "cartoon": 3348,
  "cartoons": 3349,
  "cartridge": 3350,
  "carved": 3351,
  "carving": 3352,
  "cas": 3353,
  "cascade": 3354,
  "case": 3355,
  "cases": 3356,
  "casey": 3357,
  "cash": 3358,
  "casino": 3359,
  "casper": 3360,
  "cass": 3361,
  "cassette": 3362,
  "cast": 3363,
  "castillo": 3364,
  "casting": 3365,
  "castle": 3366,
  "casts": 3367,
  "casual": 3368,
  "cat": 3369,
  "catalyst": 3370,
  "catch": 3371,
  "catcher": 3372,
  "catches": 3373,
  "catching": 3374,
  "categories": 3375,
  "categorized": 3376,
  "category": 3377,
  "cater": 3378,
  "catering": 3379,
  "catfish": 3380,
  "cats": 3381,
  "caucasian": 3382,
  "caught": 3383,
  "cause": 3384,
  "caused": 3385,
  "causes": 3386,
  "causing": 3387,
  "caution": 3388,
  "cautious": 3389,
  "cave": 3390,
  "caves": 3391,
  "cavity": 3392,
  "cd": 3393,
  "cds": 3394,
  "ce": 3395,
  "ceased": 3396,
  "ceded": 3397,
  "ceiling": 3398,
  "ceilings": 3399,
  "celebrate": 3400,
  "celebrating": 3401,
  "celebration": 3402,
  "celebrity": 3403,
  "cell": 3404,
  "cells": 3405,
  "cement": 3406,
  "cent": 3407,
  "center": 3408,
  "centered": 3409,
  "centers": 3410,
  "centimeters": 3411,
  "central": 3412,
  "cents": 3413,
  "centuries": 3414,
  "century": 3415,
  "ceo": 3416,
  "ceramic": 3417,
  "cereal": 3418,
  "ceremony": 3419,
  "certain": 3420,
  "certainly": 3421,
  "certificate": 3422,
  "certification": 3423,
  "certified": 3424,
  "cervical": 3425,
  "ch": 3426,
  "cha": 3427,
  "chad": 3428,
  "chain": 3429,
  "chains": 3430,
  "chair": 3431,
  "chairman": 3432,
  "chairperson": 3433,
  "chairs": 3434,
  "chalk": 3435,
  "challenge": 3436,
  "challenges": 3437,
  "challenging": 3438,
  "chamber": 3439,
  "champ": 3440,
  "champagne": 3441,
  "championship": 3442,
  "champs": 3443,
  "chan": 3444,
  "chance": 3445,
  "chances": 3446,
  "chandler": 3447,
  "change": 3448,
  "changed": 3449,
  "changes": 3450,
  "changing": 3451,
  "channel": 3452,
  "channels": 3453,
  "chants": 3454,
  "chaos": 3455,
  "chapel": 3456,
  "chapter": 3457,
  "char": 3458,
  "character": 3459,
  "characteristic": 3460,
  "characteristics": 3461,
  "characterized": 3462,
  "characters": 3463,
  "charcoal": 3464,
  "charge": 3465,
  "charged": 3466,
  "chargers": 3467,
  "charging": 3468,
  "charity": 3469,
  "charles": 3470,
  "charlotte": 3471,
  "charm": 3472,
  "charms": 3473,
  "chart": 3474,
  "charts": 3475,
  "chase": 3476,
  "chassis": 3477,
  "chat": 3478,
  "chatter": 3479,
  "chatting": 3480,
  "che": 3481,
  "cheap": 3482,
  "cheaper": 3483,
  "cheat": 3484,
  "cheating": 3485,
  "check": 3486,
  "checked": 3487,
  "checking": 3488,
  "cheek": 3489,
  "cheekbones": 3490,
  "cheeks": 3491,
  "cheer": 3492,
  "cheerleading": 3493,
  "cheers": 3494,
  "cheese": 3495,
  "chef": 3496,
  "chefs": 3497,
  "chemical": 3498,
  "chemicals": 3499,
  "chemist": 3500,
  "chemistry": 3501,
  "cherry": 3502,
  "chess": 3503,
  "chest": 3504,
  "chestnut": 3505,
  "chests": 3506,
  "chew": 3507,
  "chewing": 3508,
  "chi": 3509,
  "chiang": 3510,
  "chicago": 3511,
  "chick": 3512,
  "chicken": 3513,
  "chickens": 3514,
  "chicks": 3515,
  "chico": 3516,
  "chief": 3517,
  "chihuahua": 3518,
  "child": 3519,
  "children": 3520,
  "chile": 3521,
  "chili": 3522,
  "chill": 3523,
  "chilled": 3524,
  "chin": 3525,
  "china": 3526,
  "chinese": 3527,
  "chip": 3528,
  "cho": 3529,
  "chocolate": 3530,
  "choice": 3531,
  "choices": 3532,
  "choke": 3533,
  "choked": 3534,
  "choking": 3535,
  "choose": 3536,
  "chooses": 3537,
  "choosing": 3538,
  "chop": 3539,
  "chopin": 3540,
  "chopped": 3541,
  "chord": 3542,
  "chords": 3543,
  "choreography": 3544,
  "chores": 3545,
  "chorus": 3546,
  "chose": 3547,
  "chosen": 3548,
  "chow": 3549,
  "chris": 3550,
  "christian": 3551,
  "christine": 3552,
  "christmas": 3553,
  "christopher": 3554,
  "chrome": 3555,
  "chronic": 3556,
  "chronicle": 3557,
  "chu": 3558,
  "chuck": 3559,
  "chun": 3560,
  "chunk": 3561,
  "chunks": 3562,
  "church": 3563,
  "ci": 3564,
  "cid": 3565,
  "cigarettes": 3566,
  "cindy": 3567,
  "cinema": 3568,
  "cinnamon": 3569,
  "circle": 3570,
  "circles": 3571,
  "circling": 3572,
  "circuit": 3573,
  "circular": 3574,
  "circulation": 3575,
  "circumstances": 3576,
  "circus": 3577,
  "cities": 3578,
  "citizens": 3579,
  "citrus": 3580,
  "city": 3581,
  "civilization": 3582,
  "civilized": 3583,
  "cl": 3584,
  "claim": 3585,
  "claims": 3586,
  "claire": 3587,
  "clamped": 3588,
  "clancy": 3589,
  "clap": 3590,
  "clapping": 3591,
  "clarify": 3592,
  "clarity": 3593,
  "clark": 3594,
  "clarke": 3595,
  "clash": 3596,
  "clasp": 3597,
  "clasped": 3598,
  "class": 3599,
  "classes": 3600,
  "classic": 3601,
  "classical": 3602,
  "classics": 3603,
  "classmate": 3604,
  "classmates": 3605,
  "classroom": 3606,
  "claw": 3607,
  "clay": 3608,
  "clean": 3609,
  "cleaned": 3610,
  "cleaner": 3611,
  "cleaning": 3612,
  "cleansing": 3613,
  "cleanup": 3614,
  "clear": 3615,
  "clearance": 3616,
  "cleared": 3617,
  "clearing": 3618,
  "clearly": 3619,
  "clears": 3620,
  "cleavage": 3621,
  "cleopatra": 3622,
  "clerk": 3623,
  "clever": 3624,
  "click": 3625,
  "clicked": 3626,
  "clicking": 3627,
  "clicks": 3628,
  "client": 3629,
  "clients": 3630,
  "cliff": 3631,
  "climate": 3632,
  "climates": 3633,
  "climax": 3634,
  "climb": 3635,
  "climbing": 3636,
  "climbs": 3637,
  "clinched": 3638,
  "clinic": 3639,
  "clinical": 3640,
  "clinics": 3641,
  "clip": 3642,
  "clipped": 3643,
  "clips": 3644,
  "clock": 3645,
  "clocks": 3646,
  "clockwise": 3647,
  "clone": 3648,
  "close": 3649,
  "closed": 3650,
  "closely": 3651,
  "closeness": 3652,
  "closer": 3653,
  "closes": 3654,
  "closest": 3655,
  "closet": 3656,
  "closing": 3657,
  "closure": 3658,
  "cloth": 3659,
  "clothed": 3660,
  "clothes": 3661,
  "clothing": 3662,
  "cloud": 3663,
  "clouds": 3664,
  "cloudy": 3665,
  "clown": 3666,
  "club": 3667,
  "clubhouse": 3668,
  "clubs": 3669,
  "clue": 3670,
  "clues": 3671,
  "clutch": 3672,
  "co": 3673,
  "coa": 3674,
  "coach": 3675,
  "coaches": 3676,
  "coaching": 3677,
  "coarse": 3678,
  "coast": 3679,
  "coaster": 3680,
  "coat": 3681,
  "coated": 3682,
  "coating": 3683,
  "coats": 3684,
  "cock": 3685,
  "cockpit": 3686,
  "cocktail": 3687,
  "coco": 3688,
  "coconut": 3689,
  "cod": 3690,
  "code": 3691,
  "coded": 3692,
  "coffee": 3693,
  "coffin": 3694,
  "cognition": 3695,
  "cognitive": 3696,
  "cohen": 3697,
  "coil": 3698,
  "coiled": 3699,
  "coin": 3700,
  "coincide": 3701,
  "coincidence": 3702,
  "coins": 3703,
  "col": 3704,
  "cola": 3705,
  "colby": 3706,
  "cold": 3707,
  "cole": 3708,
  "coli": 3709,
  "colin": 3710,
  "collapse": 3711,
  "collapsed": 3712,
  "collar": 3713,
  "collect": 3714,
  "collecting": 3715,
  "collection": 3716,
  "collections": 3717,
  "collector": 3718,
  "collectors": 3719,
  "college": 3720,
  "cologne": 3721,
  "colon": 3722,
  "colonial": 3723,
  "colony": 3724,
  "color": 3725,
  "colorado": 3726,
  "coloration": 3727,
  "colored": 3728,
  "colorful": 3729,
  "coloring": 3730,
  "colors": 3731,
  "column": 3732,
  "columns": 3733,
  "com": 3734,
  "comb": 3735,
  "combat": 3736,
  "combination": 3737,
  "combinations": 3738,
  "combine": 3739,
  "combined": 3740,
  "combining": 3741,
  "combo": 3742,
  "come": 3743,
  "comedian": 3744,
  "comedians": 3745,
  "comedic": 3746,
  "comedy": 3747,
  "comes": 3748,
  "comfort": 3749,
  "comfortable": 3750,
  "comfortably": 3751,
  "comforting": 3752,
  "comic": 3753,
  "comics": 3754,
  "coming": 3755,
  "command": 3756,
  "commander": 3757,
  "commands": 3758,
  "commercial": 3759,
  "commercially": 3760,
  "commercials": 3761,
  "commission": 3762,
  "commit": 3763,
  "commitment": 3764,
  "committed": 3765,
  "common": 3766,
  "commonly": 3767,
  "communicate": 3768,
  "communicating": 3769,
  "communication": 3770,
  "communities": 3771,
  "community": 3772,
  "compact": 3773,
  "companies": 3774,
  "companion": 3775,
  "companions": 3776,
  "company": 3777,
  "comparable": 3778,
  "comparatively": 3779,
  "compare": 3780,
  "compared": 3781,
  "comparing": 3782,
  "comparison": 3783,
  "compartment": 3784,
  "compartments": 3785,
  "compass": 3786,
  "compassionate": 3787,
  "compete": 3788,
  "competent": 3789,
  "competing": 3790,
  "competition": 3791,
  "competitions": 3792,
  "competitive": 3793,
  "competitors": 3794,
  "complain": 3795,
  "complaint": 3796,
  "complete": 3797,
  "completed": 3798,
  "completely": 3799,
  "completes": 3800,
  "completing": 3801,
  "completion": 3802,
  "complex": 3803,
  "complexion": 3804,
  "complicated": 3805,
  "complications": 3806,
  "compliment": 3807,
  "complimented": 3808,
  "component": 3809,
  "components": 3810,
  "compose": 3811,
  "composition": 3812,
  "compositions": 3813,
  "compound": 3814,
  "comprehensive": 3815,
  "compression": 3816,
  "comprised": 3817,
  "compromise": 3818,
  "compromised": 3819,
  "computer": 3820,
  "computers": 3821,
  "computing": 3822,
  "con": 3823,
  "conceal": 3824,
  "concealed": 3825,
  "concentrate": 3826,
  "concentrated": 3827,
  "concentrating": 3828,
  "concentration": 3829,
  "concept": 3830,
  "concepts": 3831,
  "concern": 3832,
  "concerned": 3833,
  "concerns": 3834,
  "conclude": 3835,
  "concludes": 3836,
  "conclusion": 3837,
  "conclusions": 3838,
  "concrete": 3839,
  "conde": 3840,
  "condition": 3841,
  "conditioning": 3842,
  "conditions": 3843,
  "conduct": 3844,
  "conducted": 3845,
  "conducting": 3846,
  "conductor": 3847,
  "cone": 3848,
  "cones": 3849,
  "confidence": 3850,
  "confident": 3851,
  "confidential": 3852,
  "configuration": 3853,
  "configurations": 3854,
  "confines": 3855,
  "confirmation": 3856,
  "conflict": 3857,
  "conflicting": 3858,
  "conflicts": 3859,
  "conform": 3860,
  "confront": 3861,
  "confrontation": 3862,
  "confronted": 3863,
  "confronting": 3864,
  "confuse": 3865,
  "confused": 3866,
  "confusing": 3867,
  "confusion": 3868,
  "congestion": 3869,
  "congratulations": 3870,
  "conjunction": 3871,
  "connect": 3872,
  "connected": 3873,
  "connecting": 3874,
  "connection": 3875,
  "connections": 3876,
  "connector": 3877,
  "connects": 3878,
  "connell": 3879,
  "connolly": 3880,
  "conrad": 3881,
  "conscience": 3882,
  "conscious": 3883,
  "consecutive": 3884,
  "conservative": 3885,
  "consider": 3886,
  "considerable": 3887,
  "considerably": 3888,
  "consideration": 3889,
  "considerations": 3890,
  "considered": 3891,
  "considering": 3892,
  "consist": 3893,
  "consistency": 3894,
  "consistent": 3895,
  "consistently": 3896,
  "consists": 3897,
  "constant": 3898,
  "constantly": 3899,
  "constitute": 3900,
  "constraints": 3901,
  "construct": 3902,
  "constructed": 3903,
  "construction": 3904,
  "constructions": 3905,
  "consult": 3906,
  "consultant": 3907,
  "consultation": 3908,
  "consulting": 3909,
  "consume": 3910,
  "consumed": 3911,
  "consumer": 3912,
  "consumers": 3913,
  "consuming": 3914,
  "contact": 3915,
  "contacts": 3916,
  "contain": 3917,
  "contained": 3918,
  "container": 3919,
  "containers": 3920,
  "contains": 3921,
  "contaminated": 3922,
  "contemplating": 3923,
  "contemporary": 3924,
  "content": 3925,
  "contentious": 3926,
  "contents": 3927,
  "context": 3928,
  "continually": 3929,
  "continuation": 3930,
  "continue": 3931,
  "continued": 3932,
  "continues": 3933,
  "continuing": 3934,
  "continuous": 3935,
  "continuously": 3936,
  "contra": 3937,
  "contract": 3938,
  "contracting": 3939,
  "contraction": 3940,
  "contractors": 3941,
  "contracts": 3942,
  "contrast": 3943,
  "contrasted": 3944,
  "contrasting": 3945,
  "contrasts": 3946,
  "contribute": 3947,
  "contributed": 3948,
  "contributes": 3949,
  "control": 3950,
  "controlled": 3951,
  "controller": 3952,
  "controllers": 3953,
  "controlling": 3954,
  "controls": 3955,
  "convenience": 3956,
  "convenient": 3957,
  "conventional": 3958,
  "conversation": 3959,
  "conversations": 3960,
  "conversely": 3961,
  "convert": 3962,
  "converted": 3963,
  "convertible": 3964,
  "converting": 3965,
  "convey": 3966,
  "cook": 3967,
  "cooke": 3968,
  "cooked": 3969,
  "cookie": 3970,
  "cookies": 3971,
  "cooking": 3972,
  "cooks": 3973,
  "cool": 3974,
  "cooled": 3975,
  "cooler": 3976,
  "cooling": 3977,
  "cooper": 3978,
  "cooperation": 3979,
  "cooperative": 3980,
  "coordinate": 3981,
  "coordinates": 3982,
  "coordination": 3983,
  "coordinator": 3984,
  "copied": 3985,
  "copies": 3986,
  "copper": 3987,
  "copy": 3988,
  "copyright": 3989,
  "cora": 3990,
  "coral": 3991,
  "cord": 3992,
  "cords": 3993,
  "core": 3994,
  "cork": 3995,
  "corn": 3996,
  "corner": 3997,
  "corners": 3998,
  "corona": 3999,
  "corp": 4000,
  "corporate": 4001,
  "corporation": 4002,
  "corpse": 4003,
  "correct": 4004,
  "correction": 4005,
  "correctly": 4006,
  "correspond": 4007,
  "corresponds": 4008,
  "corrosion": 4009,
  "corrugated": 4010,
  "corruption": 4011,
  "cosmetics": 4012,
  "cost": 4013,
  "costa": 4014,
  "costly": 4015,
  "costs": 4016,
  "costume": 4017,
  "costumes": 4018,
  "cot": 4019,
  "cotton": 4020,
  "couch": 4021,
  "could": 4022,
  "couldn": 4023,
  "counseling": 4024,
  "counselor": 4025,
  "count": 4026,
  "countdown": 4027,
  "counter": 4028,
  "counterpart": 4029,
  "counters": 4030,
  "counting": 4031,
  "countries": 4032,
  "country": 4033,
  "counts": 4034,
  "county": 4035,
  "couple": 4036,
  "couples": 4037,
  "course": 4038,
  "courses": 4039,
  "court": 4040,
  "courtroom": 4041,
  "courts": 4042,
  "courtyard": 4043,
  "cousin": 4044,
  "cover": 4045,
  "coverage": 4046,
  "covered": 4047,
  "covering": 4048,
  "covers": 4049,
  "cow": 4050,
  "cowboy": 4051,
  "cowboys": 4052,
  "cows": 4053,
  "cox": 4054,
  "coyote": 4055,
  "cp": 4056,
  "cr": 4057,
  "crab": 4058,
  "crabs": 4059,
  "crack": 4060,
  "cracked": 4061,
  "cracking": 4062,
  "cracks": 4063,
  "cradle": 4064,
  "craft": 4065,
  "crafted": 4066,
  "crafts": 4067,
  "crane": 4068,
  "crank": 4069,
  "crap": 4070,
  "crash": 4071,
  "crashing": 4072,
  "crawl": 4073,
  "crawling": 4074,
  "crazy": 4075,
  "cream": 4076,
  "creamy": 4077,
  "create": 4078,
  "created": 4079,
  "creates": 4080,
  "creating": 4081,
  "creation": 4082,
  "creations": 4083,
  "creative": 4084,
  "creativity": 4085,
  "creators": 4086,
  "creature": 4087,
  "creatures": 4088,
  "credit": 4089,
  "creek": 4090,
  "creeks": 4091,
  "creep": 4092,
  "creeping": 4093,
  "creepy": 4094,
  "creole": 4095,
  "crescent": 4096,
  "crest": 4097,
  "crew": 4098,
  "cricket": 4099,
  "crime": 4100,
  "crisp": 4101,
  "critical": 4102,
  "criticism": 4103,
  "critique": 4104,
  "crocodile": 4105,
  "crooked": 4106,
  "crop": 4107,
  "crops": 4108,
  "cross": 4109,
  "crossed": 4110,
  "crosses": 4111,
  "crossing": 4112,
  "crowd": 4113,
  "crown": 4114,
  "crows": 4115,
  "crucial": 4116,
  "cruel": 4117,
  "cruise": 4118,
  "cruising": 4119,
  "crumbling": 4120,
  "crumpled": 4121,
  "crunch": 4122,
  "crusade": 4123,
  "crush": 4124,
  "crushed": 4125,
  "crushing": 4126,
  "crust": 4127,
  "cry": 4128,
  "crystal": 4129,
  "crystals": 4130,
  "cs": 4131,
  "cu": 4132,
  "cuban": 4133,
  "cube": 4134,
  "cubs": 4135,
  "cue": 4136,
  "cues": 4137,
  "cuff": 4138,
  "cuffs": 4139,
  "cuisine": 4140,
  "culinary": 4141,
  "cultural": 4142,
  "culture": 4143,
  "cultures": 4144,
  "cum": 4145,
  "cumulative": 4146,
  "cup": 4147,
  "cupped": 4148,
  "cups": 4149,
  "curb": 4150,
  "cure": 4151,
  "curious": 4152,
  "curl": 4153,
  "curled": 4154,
  "curling": 4155,
  "curls": 4156,
  "curly": 4157,
  "currency": 4158,
  "current": 4159,
  "currently": 4160,
  "curriculum": 4161,
  "curry": 4162,
  "curtis": 4163,
  "curvature": 4164,
  "curve": 4165,
  "curved": 4166,
  "curves": 4167,
  "curving": 4168,
  "cushion": 4169,
  "custom": 4170,
  "customer": 4171,
  "customers": 4172,
  "customized": 4173,
  "cut": 4174,
  "cute": 4175,
  "cuts": 4176,
  "cutter": 4177,
  "cutting": 4178,
  "cy": 4179,
  "cycle": 4180,
  "cycles": 4181,
  "cyclist": 4182,
  "cylinder": 4183,
  "cylindrical": 4184,
  "d": 4185,
  "da": 4186,
  "dad": 4187,
  "daddy": 4188,
  "dagger": 4189,
  "daily": 4190,
  "dairy": 4191,
  "daisy": 4192,
  "dakota": 4193,
  "dal": 4194,
  "dallas": 4195,
  "dam": 4196,
  "damage": 4197,
  "damaged": 4198,
  "damages": 4199,
  "damaging": 4200,
  "dame": 4201,
  "damp": 4202,
  "dan": 4203,
  "dance": 4204,
  "dancer": 4205,
  "dancers": 4206,
  "dances": 4207,
  "dancing": 4208,
  "danger": 4209,
  "dangerous": 4210,
  "dangers": 4211,
  "dangling": 4212,
  "daniel": 4213,
  "dar": 4214,
  "dark": 4215,
  "darkened": 4216,
  "darker": 4217,
  "darren": 4218,
  "dart": 4219,
  "dash": 4220,
  "dashed": 4221,
  "data": 4222,
  "database": 4223,
  "date": 4224,
  "dated": 4225,
  "dates": 4226,
  "dating": 4227,
  "daughter": 4228,
  "dave": 4229,
  "david": 4230,
  "davidson": 4231,
  "davis": 4232,
  "day": 4233,
  "daylight": 4234,
  "days": 4235,
  "daytime": 4236,
  "dc": 4237,
  "dd": 4238,
  "de": 4239,
  "deacon": 4240,
  "dead": 4241,
  "deadline": 4242,
  "deal": 4243,
  "dealer": 4244,
  "dealers": 4245,
  "dealing": 4246,
  "deals": 4247,
  "dealt": 4248,
  "dean": 4249,
  "dear": 4250,
  "death": 4251,
  "debate": 4252,
  "debris": 4253,
  "dec": 4254,
  "decade": 4255,
  "decades": 4256,
  "decay": 4257,
  "deceased": 4258,
  "decent": 4259,
  "decide": 4260,
  "decided": 4261,
  "deciding": 4262,
  "decision": 4263,
  "decisions": 4264,
  "deck": 4265,
  "decks": 4266,
  "declare": 4267,
  "deco": 4268,
  "decor": 4269,
  "decorate": 4270,
  "decorated": 4271,
  "decoration": 4272,
  "decorations": 4273,
  "decorative": 4274,
  "decrease": 4275,
  "decreasing": 4276,
  "dedicated": 4277,
  "dedication": 4278,
  "dee": 4279,
  "deep": 4280,
  "deeper": 4281,
  "deeply": 4282,
  "def": 4283,
  "default": 4284,
  "defeat": 4285,
  "defeating": 4286,
  "defects": 4287,
  "defend": 4288,
  "defender": 4289,
  "defenders": 4290,
  "defending": 4291,
  "defense": 4292,
  "defensive": 4293,
  "deficiency": 4294,
  "define": 4295,
  "defined": 4296,
  "defining": 4297,
  "definite": 4298,
  "definitely": 4299,
  "definition": 4300,
  "degree": 4301,
  "degrees": 4302,
  "del": 4303,
  "delay": 4304,
  "delayed": 4305,
  "deliberately": 4306,
  "delicate": 4307,
  "delicious": 4308,
  "delighted": 4309,
  "deliver": 4310,
  "delivered": 4311,
  "delivering": 4312,
  "delivers": 4313,
  "dell": 4314,
  "delta": 4315,
  "deluxe": 4316,
  "dem": 4317,
  "demand": 4318,
  "dementia": 4319,
  "demo": 4320,
  "democrat": 4321,
  "democrats": 4322,
  "demons": 4323,
  "demonstrate": 4324,
  "demonstrated": 4325,
  "demonstrates": 4326,
  "demonstrating": 4327,
  "demonstration": 4328,
  "den": 4329,
  "denial": 4330,
  "denim": 4331,
  "denoted": 4332,
  "density": 4333,
  "dent": 4334,
  "dental": 4335,
  "dentist": 4336,
  "denver": 4337,
  "deny": 4338,
  "department": 4339,
  "departments": 4340,
  "departure": 4341,
  "depend": 4342,
  "dependent": 4343,
  "depending": 4344,
  "depends": 4345,
  "depict": 4346,
  "depicted": 4347,
  "depleted": 4348,
  "deploy": 4349,
  "deposit": 4350,
  "deposited": 4351,
  "deposits": 4352,
  "depot": 4353,
  "depressed": 4354,
  "depression": 4355,
  "depth": 4356,
  "depths": 4357,
  "derek": 4358,
  "derivatives": 4359,
  "derived": 4360,
  "des": 4361,
  "descend": 4362,
  "descends": 4363,
  "descent": 4364,
  "describe": 4365,
  "described": 4366,
  "describing": 4367,
  "description": 4368,
  "descriptions": 4369,
  "desert": 4370,
  "deserts": 4371,
  "deserves": 4372,
  "design": 4373,
  "designate": 4374,
  "designated": 4375,
  "designed": 4376,
  "designer": 4377,
  "designers": 4378,
  "designing": 4379,
  "designs": 4380,
  "desire": 4381,
  "desired": 4382,
  "desires": 4383,
  "desk": 4384,
  "desktop": 4385,
  "desperate": 4386,
  "despite": 4387,
  "dessert": 4388,
  "destination": 4389,
  "destined": 4390,
  "destiny": 4391,
  "destroy": 4392,
  "destroyed": 4393,
  "destroying": 4394,
  "destruction": 4395,
  "det": 4396,
  "detail": 4397,
  "detailed": 4398,
  "detailing": 4399,
  "details": 4400,
  "detect": 4401,
  "detected": 4402,
  "detection": 4403,
  "detective": 4404,
  "detector": 4405,
  "detectors": 4406,
  "deter": 4407,
  "determination": 4408,
  "determine": 4409,
  "determined": 4410,
  "determines": 4411,
  "determining": 4412,
  "detrimental": 4413,
  "detroit": 4414,
  "develop": 4415,
  "developed": 4416,
  "developer": 4417,
  "developers": 4418,
  "developing": 4419,
  "development": 4420,
  "developments": 4421,
  "develops": 4422,
  "device": 4423,
  "devices": 4424,
  "devil": 4425,
  "devoted": 4426,
  "dew": 4427,
  "dexter": 4428,
  "dh": 4429,
  "di": 4430,
  "dia": 4431,
  "diabetes": 4432,
  "diagnosed": 4433,
  "diagnostic": 4434,
  "diagonal": 4435,
  "diagram": 4436,
  "diagrams": 4437,
  "dial": 4438,
  "dialed": 4439,
  "dialogue": 4440,
  "diameter": 4441,
  "diamond": 4442,
  "diamonds": 4443,
  "diana": 4444,
  "diane": 4445,
  "dice": 4446,
  "dictated": 4447,
  "did": 4448,
  "didn": 4449,
  "die": 4450,
  "died": 4451,
  "dies": 4452,
  "diesel": 4453,
  "diet": 4454,
  "dietary": 4455,
  "differ": 4456,
  "difference": 4457,
  "differences": 4458,
  "different": 4459,
  "differential": 4460,
  "differently": 4461,
  "difficult": 4462,
  "difficulties": 4463,
  "difficulty": 4464,
  "diffuse": 4465,
  "dig": 4466,
  "digest": 4467,
  "digging": 4468,
  "digit": 4469,
  "digital": 4470,
  "digits": 4471,
  "dil": 4472,
  "dim": 4473,
  "dimension": 4474,
  "dimensional": 4475,
  "dimensions": 4476,
  "diminished": 4477,
  "din": 4478,
  "ding": 4479,
  "dining": 4480,
  "dinner": 4481,
  "dinosaur": 4482,
  "dinosaurs": 4483,
  "dip": 4484,
  "diploma": 4485,
  "dipped": 4486,
  "dipping": 4487,
  "direct": 4488,
  "directed": 4489,
  "direction": 4490,
  "directional": 4491,
  "directions": 4492,
  "directive": 4493,
  "directly": 4494,
  "director": 4495,
  "directors": 4496,
  "dirt": 4497,
  "dirty": 4498,
  "disabilities": 4499,
  "disability": 4500,
  "disadvantage": 4501,
  "disadvantaged": 4502,
  "disagree": 4503,
  "disappear": 4504,
  "disappeared": 4505,
  "disappears": 4506,
  "disaster": 4507,
  "disc": 4508,
  "discharge": 4509,
  "discipline": 4510,
  "disclose": 4511,
  "disclosure": 4512,
  "disco": 4513,
  "discomfort": 4514,
  "disconnected": 4515,
  "discount": 4516,
  "discourage": 4517,
  "discouraged": 4518,
  "discover": 4519,
  "discovered": 4520,
  "discoveries": 4521,
  "discovering": 4522,
  "discovers": 4523,
  "discreet": 4524,
  "discuss": 4525,
  "discussed": 4526,
  "discussing": 4527,
  "discussion": 4528,
  "disease": 4529,
  "diseases": 4530,
  "disguise": 4531,
  "disgusting": 4532,
  "dish": 4533,
  "dishes": 4534,
  "disk": 4535,
  "disks": 4536,
  "dislike": 4537,
  "disorder": 4538,
  "disperse": 4539,
  "display": 4540,
  "displayed": 4541,
  "displaying": 4542,
  "disposal": 4543,
  "dispose": 4544,
  "disposition": 4545,
  "dispute": 4546,
  "disrupt": 4547,
  "dissatisfaction": 4548,
  "dissolve": 4549,
  "dissolved": 4550,
  "distance": 4551,
  "distances": 4552,
  "distinct": 4553,
  "distinction": 4554,
  "distinctive": 4555,
  "distinctly": 4556,
  "distinguish": 4557,
  "distinguished": 4558,
  "distorted": 4559,
  "distract": 4560,
  "distracted": 4561,
  "distracting": 4562,
  "distraction": 4563,
  "distress": 4564,
  "distribute": 4565,
  "distribution": 4566,
  "distributor": 4567,
  "distributors": 4568,
  "disturbed": 4569,
  "disturbing": 4570,
  "ditch": 4571,
  "diva": 4572,
  "dive": 4573,
  "divers": 4574,
  "diverse": 4575,
  "divide": 4576,
  "divided": 4577,
  "divine": 4578,
  "diving": 4579,
  "division": 4580,
  "divisions": 4581,
  "divorce": 4582,
  "dixie": 4583,
  "dixon": 4584,
  "dizzy": 4585,
  "dj": 4586,
  "djs": 4587,
  "dna": 4588,
  "do": 4589,
  "dobson": 4590,
  "dock": 4591,
  "doctor": 4592,
  "doctorate": 4593,
  "doctors": 4594,
  "document": 4595,
  "documentary": 4596,
  "documenting": 4597,
  "dodge": 4598,
  "doe": 4599,
  "does": 4600,
  "doesn": 4601,
  "dog": 4602,
  "dogs": 4603,
  "doing": 4604,
  "doll": 4605,
  "dollar": 4606,
  "dollars": 4607,
  "dolls": 4608,
  "dolly": 4609,
  "dome": 4610,
  "domestic": 4611,
  "dominance": 4612,
  "dominant": 4613,
  "dominate": 4614,
  "don": 4615,
  "dona": 4616,
  "donated": 4617,
  "done": 4618,
  "dong": 4619,
  "donna": 4620,
  "donnell": 4621,
  "doo": 4622,
  "door": 4623,
  "doors": 4624,
  "dorm": 4625,
  "dorsal": 4626,
  "dos": 4627,
  "dose": 4628,
  "dot": 4629,
  "dots": 4630,
  "dotted": 4631,
  "double": 4632,
  "doubled": 4633,
  "doubles": 4634,
  "doubling": 4635,
  "doubt": 4636,
  "doug": 4637,
  "dough": 4638,
  "dow": 4639,
  "down": 4640,
  "downhill": 4641,
  "downing": 4642,
  "download": 4643,
  "downloaded": 4644,
  "downs": 4645,
  "downstairs": 4646,
  "downtown": 4647,
  "downward": 4648,
  "dozen": 4649,
  "dr": 4650,
  "draft": 4651,
  "drafting": 4652,
  "drafts": 4653,
  "drag": 4654,
  "dragging": 4655,
  "dragon": 4656,
  "dragons": 4657,
  "drain": 4658,
  "drainage": 4659,
  "drained": 4660,
  "drama": 4661,
  "dramas": 4662,
  "dramatic": 4663,
  "dramatically": 4664,
  "drank": 4665,
  "draped": 4666,
  "drastically": 4667,
  "draw": 4668,
  "drawer": 4669,
  "drawers": 4670,
  "drawing": 4671,
  "drawings": 4672,
  "drawn": 4673,
  "draws": 4674,
  "dread": 4675,
  "dream": 4676,
  "dreams": 4677,
  "dress": 4678,
  "dressed": 4679,
  "dresser": 4680,
  "dresses": 4681,
  "dressing": 4682,
  "drew": 4683,
  "dried": 4684,
  "drift": 4685,
  "drill": 4686,
  "drilled": 4687,
  "drilling": 4688,
  "drills": 4689,
  "drink": 4690,
  "drinking": 4691,
  "drinks": 4692,
  "drip": 4693,
  "dripped": 4694,
  "dripping": 4695,
  "drive": 4696,
  "driven": 4697,
  "driver": 4698,
  "drivers": 4699,
  "drives": 4700,
  "driveway": 4701,
  "driving": 4702,
  "drop": 4703,
  "dropped": 4704,
  "dropping": 4705,
  "drops": 4706,
  "drought": 4707,
  "drove": 4708,
  "drown": 4709,
  "drowned": 4710,
  "drowning": 4711,
  "drug": 4712,
  "drugs": 4713,
  "drum": 4714,
  "drummer": 4715,
  "drums": 4716,
  "drunk": 4717,
  "dry": 4718,
  "drying": 4719,
  "du": 4720,
  "dual": 4721,
  "dub": 4722,
  "duck": 4723,
  "ducks": 4724,
  "duct": 4725,
  "dude": 4726,
  "due": 4727,
  "dug": 4728,
  "duke": 4729,
  "dull": 4730,
  "dumb": 4731,
  "dummy": 4732,
  "dump": 4733,
  "dun": 4734,
  "durable": 4735,
  "duration": 4736,
  "during": 4737,
  "dust": 4738,
  "dustin": 4739,
  "dusty": 4740,
  "dutch": 4741,
  "duty": 4742,
  "dvd": 4743,
  "dvds": 4744,
  "dwelling": 4745,
  "dye": 4746,
  "dyed": 4747,
  "dyer": 4748,
  "dynamic": 4749,
  "e": 4750,
  "ea": 4751,
  "each": 4752,
  "eager": 4753,
  "eagle": 4754,
  "ear": 4755,
  "earlier": 4756,
  "early": 4757,
  "earned": 4758,
  "earning": 4759,
  "earrings": 4760,
  "ears": 4761,
  "earth": 4762,
  "ease": 4763,
  "easier": 4764,
  "easiest": 4765,
  "easily": 4766,
  "easing": 4767,
  "east": 4768,
  "easter": 4769,
  "eastern": 4770,
  "easy": 4771,
  "eat": 4772,
  "eaten": 4773,
  "eater": 4774,
  "eating": 4775,
  "eats": 4776,
  "echo": 4777,
  "eclectic": 4778,
  "economical": 4779,
  "economy": 4780,
  "ed": 4781,
  "eddie": 4782,
  "edge": 4783,
  "edged": 4784,
  "edges": 4785,
  "edible": 4786,
  "edit": 4787,
  "edited": 4788,
  "editing": 4789,
  "edition": 4790,
  "editor": 4791,
  "editors": 4792,
  "edmund": 4793,
  "educate": 4794,
  "educated": 4795,
  "educating": 4796,
  "education": 4797,
  "educational": 4798,
  "educators": 4799,
  "eel": 4800,
  "effect": 4801,
  "effective": 4802,
  "effectively": 4803,
  "effectiveness": 4804,
  "effects": 4805,
  "efficiency": 4806,
  "efficient": 4807,
  "efficiently": 4808,
  "effort": 4809,
  "effortlessly": 4810,
  "efforts": 4811,
  "egg": 4812,
  "eggs": 4813,
  "ego": 4814,
  "egypt": 4815,
  "egyptian": 4816,
  "eh": 4817,
  "eight": 4818,
  "eighteen": 4819,
  "eighth": 4820,
  "eighties": 4821,
  "eighty": 4822,
  "either": 4823,
  "el": 4824,
  "elaborate": 4825,
  "elastic": 4826,
  "elbow": 4827,
  "elbows": 4828,
  "elderly": 4829,
  "electric": 4830,
  "electrical": 4831,
  "electricity": 4832,
  "electro": 4833,
  "electromagnetic": 4834,
  "electronic": 4835,
  "electronics": 4836,
  "electrons": 4837,
  "elegance": 4838,
  "elegant": 4839,
  "element": 4840,
  "elementary": 4841,
  "elements": 4842,
  "elephant": 4843,
  "elevated": 4844,
  "elevation": 4845,
  "elevations": 4846,
  "elevator": 4847,
  "eleven": 4848,
  "elf": 4849,
  "eliminate": 4850,
  "eliminating": 4851,
  "elimination": 4852,
  "elizabeth": 4853,
  "ellen": 4854,
  "elliot": 4855,
  "elliptical": 4856,
  "elmer": 4857,
  "elongated": 4858,
  "else": 4859,
  "elsewhere": 4860,
  "em": 4861,
  "email": 4862,
  "emails": 4863,
  "embroidery": 4864,
  "emerald": 4865,
  "emerge": 4866,
  "emergence": 4867,
  "emergency": 4868,
  "emery": 4869,
  "emi": 4870,
  "emil": 4871,
  "emily": 4872,
  "emotion": 4873,
  "emotional": 4874,
  "emotions": 4875,
  "emphasis": 4876,
  "emphasize": 4877,
  "emphasized": 4878,
  "emphasizing": 4879,
  "employee": 4880,
  "employees": 4881,
  "employer": 4882,
  "employers": 4883,
  "empty": 4884,
  "en": 4885,
  "enable": 4886,
  "enables": 4887,
  "enamel": 4888,
  "enclosed": 4889,
  "enclosure": 4890,
  "encompass": 4891,
  "encore": 4892,
  "encounter": 4893,
  "encourage": 4894,
  "encourages": 4895,
  "encouraging": 4896,
  "end": 4897,
  "ended": 4898,
  "ending": 4899,
  "endless": 4900,
  "ends": 4901,
  "endurance": 4902,
  "enemies": 4903,
  "enemy": 4904,
  "energetic": 4905,
  "energies": 4906,
  "energy": 4907,
  "enforcement": 4908,
  "eng": 4909,
  "engage": 4910,
  "engaged": 4911,
  "engages": 4912,
  "engaging": 4913,
  "engine": 4914,
  "engineering": 4915,
  "engines": 4916,
  "england": 4917,
  "english": 4918,
  "engraved": 4919,
  "enhance": 4920,
  "enhanced": 4921,
  "enjoy": 4922,
  "enjoyable": 4923,
  "enjoyed": 4924,
  "enjoying": 4925,
  "enjoys": 4926,
  "enlist": 4927,
  "enormous": 4928,
  "enough": 4929,
  "enroll": 4930,
  "ensemble": 4931,
  "ensure": 4932,
  "ensures": 4933,
  "enter": 4934,
  "entered": 4935,
  "entering": 4936,
  "enters": 4937,
  "entertain": 4938,
  "entertaining": 4939,
  "entertainment": 4940,
  "enthusiastic": 4941,
  "entire": 4942,
  "entirely": 4943,
  "entitled": 4944,
  "entity": 4945,
  "entrance": 4946,
  "entries": 4947,
  "entry": 4948,
  "envelope": 4949,
  "environment": 4950,
  "environmental": 4951,
  "environmentally": 4952,
  "enzyme": 4953,
  "enzymes": 4954,
  "ep": 4955,
  "epic": 4956,
  "epidemic": 4957,
  "episode": 4958,
  "eps": 4959,
  "equal": 4960,
  "equally": 4961,
  "equals": 4962,
  "equipment": 4963,
  "equipped": 4964,
  "equity": 4965,
  "equivalent": 4966,
  "er": 4967,
  "era": 4968,
  "eras": 4969,
  "erase": 4970,
  "erection": 4971,
  "eric": 4972,
  "erica": 4973,
  "erik": 4974,
  "eroded": 4975,
  "erratic": 4976,
  "error": 4977,
  "errors": 4978,
  "erupted": 4979,
  "es": 4980,
  "escape": 4981,
  "escaping": 4982,
  "especially": 4983,
  "esq": 4984,
  "essay": 4985,
  "essays": 4986,
  "essen": 4987,
  "essence": 4988,
  "essential": 4989,
  "essentially": 4990,
  "est": 4991,
  "establish": 4992,
  "established": 4993,
  "establishing": 4994,
  "establishment": 4995,
  "estate": 4996,
  "esteem": 4997,
  "estimated": 4998,
  "estimates": 4999,
  "et": 5000,
  "etc": 5001,
  "etched": 5002,
  "eternal": 5003,
  "ethnic": 5004,
  "ethnicity": 5005,
  "eu": 5006,
  "eugene": 5007,
  "euro": 5008,
  "europe": 5009,
  "european": 5010,
  "ev": 5011,
  "eva": 5012,
  "evacuation": 5013,
  "evaluate": 5014,
  "evaluating": 5015,
  "evaluation": 5016,
  "evan": 5017,
  "eve": 5018,
  "even": 5019,
  "evening": 5020,
  "evenly": 5021,
  "event": 5022,
  "events": 5023,
  "eventually": 5024,
  "ever": 5025,
  "every": 5026,
  "everybody": 5027,
  "everyday": 5028,
  "everyone": 5029,
  "everything": 5030,
  "everywhere": 5031,
  "evidence": 5032,
  "evil": 5033,
  "evolution": 5034,
  "ex": 5035,
  "exact": 5036,
  "exactly": 5037,
  "exaggerated": 5038,
  "exam": 5039,
  "examination": 5040,
  "examine": 5041,
  "example": 5042,
  "examples": 5043,
  "excel": 5044,
  "excellent": 5045,
  "except": 5046,
  "exception": 5047,
  "exceptionally": 5048,
  "excess": 5049,
  "excessive": 5050,
  "exchange": 5051,
  "excited": 5052,
  "excitement": 5053,
  "exciting": 5054,
  "exclusive": 5055,
  "excuse": 5056,
  "excuses": 5057,
  "execute": 5058,
  "executed": 5059,
  "execution": 5060,
  "executive": 5061,
  "exercise": 5062,
  "exercises": 5063,
  "exercising": 5064,
  "exist": 5065,
  "existence": 5066,
  "existing": 5067,
  "exit": 5068,
  "exits": 5069,
  "expand": 5070,
  "expanded": 5071,
  "expanding": 5072,
  "expands": 5073,
  "expansion": 5074,
  "expect": 5075,
  "expectation": 5076,
  "expectations": 5077,
  "expected": 5078,
  "expecting": 5079,
  "expenditures": 5080,
  "expense": 5081,
  "expenses": 5082,
  "expensive": 5083,
  "experience": 5084,
  "experienced": 5085,
  "experiences": 5086,
  "experiencing": 5087,
  "experiment": 5088,
  "experimented": 5089,
  "experimenting": 5090,
  "experiments": 5091,
  "expert": 5092,
  "expertise": 5093,
  "expired": 5094,
  "explain": 5095,
  "explained": 5096,
  "explaining": 5097,
  "explains": 5098,
  "explanation": 5099,
  "explode": 5100,
  "exploded": 5101,
  "explodes": 5102,
  "exploding": 5103,
  "exploit": 5104,
  "exploitation": 5105,
  "explore": 5106,
  "explorer": 5107,
  "explorers": 5108,
  "explosion": 5109,
  "explosions": 5110,
  "export": 5111,
  "exports": 5112,
  "expose": 5113,
  "exposed": 5114,
  "exposing": 5115,
  "exposure": 5116,
  "express": 5117,
  "expressing": 5118,
  "expression": 5119,
  "expressions": 5120,
  "expressive": 5121,
  "extend": 5122,
  "extended": 5123,
  "extending": 5124,
  "extends": 5125,
  "extension": 5126,
  "extensions": 5127,
  "extensive": 5128,
  "exterior": 5129,
  "external": 5130,
  "externally": 5131,
  "extra": 5132,
  "extracted": 5133,
  "extraction": 5134,
  "extras": 5135,
  "extravagant": 5136,
  "extreme": 5137,
  "extremely": 5138,
  "eye": 5139,
  "eyebrow": 5140,
  "eyebrows": 5141,
  "eyed": 5142,
  "eyelashes": 5143,
  "eyes": 5144,
  "f": 5145,
  "f1": 5146,
  "fa": 5147,
  "fabric": 5148,
  "fabrication": 5149,
  "fabrics": 5150,
  "fabulous": 5151,
  "face": 5152,
  "facebook": 5153,
  "faced": 5154,
  "faces": 5155,
  "facial": 5156,
  "facilitate": 5157,
  "facilitated": 5158,
  "facilities": 5159,
  "facility": 5160,
  "facing": 5161,
  "fact": 5162,
  "factor": 5163,
  "factors": 5164,
  "factory": 5165,
  "facts": 5166,
  "fade": 5167,
  "faded": 5168,
  "fades": 5169,
  "fail": 5170,
  "fails": 5171,
  "failure": 5172,
  "failures": 5173,
  "fair": 5174,
  "fairly": 5175,
  "fairy": 5176,
  "faith": 5177,
  "fake": 5178,
  "fall": 5179,
  "fallen": 5180,
  "falling": 5181,
  "falls": 5182,
  "false": 5183,
  "familiar": 5184,
  "families": 5185,
  "family": 5186,
  "famous": 5187,
  "fan": 5188,
  "fancy": 5189,
  "fangs": 5190,
  "fans": 5191,
  "fantasia": 5192,
  "fantasies": 5193,
  "fantastic": 5194,
  "fantasy": 5195,
  "far": 5196,
  "fare": 5197,
  "farm": 5198,
  "farmers": 5199,
  "farms": 5200,
  "farther": 5201,
  "fascinated": 5202,
  "fascinating": 5203,
  "fashion": 5204,
  "fashionable": 5205,
  "fashioned": 5206,
  "fast": 5207,
  "fastened": 5208,
  "faster": 5209,
  "fastest": 5210,
  "fat": 5211,
  "fatal": 5212,
  "fate": 5213,
  "father": 5214,
  "fatigue": 5215,
  "fatty": 5216,
  "fault": 5217,
  "faults": 5218,
  "favor": 5219,
  "favorite": 5220,
  "favorites": 5221,
  "favors": 5222,
  "fe": 5223,
  "fear": 5224,
  "fearful": 5225,
  "fears": 5226,
  "feasible": 5227,
  "feather": 5228,
  "feathers": 5229,
  "feature": 5230,
  "features": 5231,
  "february": 5232,
  "fed": 5233,
  "federal": 5234,
  "federation": 5235,
  "fee": 5236,
  "feed": 5237,
  "feedback": 5238,
  "feeder": 5239,
  "feeding": 5240,
  "feel": 5241,
  "feeling": 5242,
  "feelings": 5243,
  "feels": 5244,
  "fees": 5245,
  "feet": 5246,
  "fei": 5247,
  "felicia": 5248,
  "fell": 5249,
  "fellow": 5250,
  "felt": 5251,
  "female": 5252,
  "females": 5253,
  "feminine": 5254,
  "fence": 5255,
  "fencing": 5256,
  "fender": 5257,
  "feng": 5258,
  "feral": 5259,
  "fertile": 5260,
  "fest": 5261,
  "festival": 5262,
  "festivals": 5263,
  "fetch": 5264,
  "fever": 5265,
  "few": 5266,
  "fewer": 5267,
  "fi": 5268,
  "fiber": 5269,
  "fibers": 5270,
  "field": 5271,
  "fielding": 5272,
  "fields": 5273,
  "fiesta": 5274,
  "fifteen": 5275,
  "fifth": 5276,
  "fifty": 5277,
  "fig": 5278,
  "fight": 5279,
  "fighter": 5280,
  "fighters": 5281,
  "fighting": 5282,
  "fights": 5283,
  "figure": 5284,
  "figures": 5285,
  "figuring": 5286,
  "file": 5287,
  "files": 5288,
  "filing": 5289,
  "fill": 5290,
  "filled": 5291,
  "filling": 5292,
  "fills": 5293,
  "film": 5294,
  "filming": 5295,
  "films": 5296,
  "filter": 5297,
  "filtered": 5298,
  "filtering": 5299,
  "filters": 5300,
  "fin": 5301,
  "final": 5302,
  "finally": 5303,
  "finances": 5304,
  "financial": 5305,
  "financing": 5306,
  "finch": 5307,
  "find": 5308,
  "finding": 5309,
  "findings": 5310,
  "finds": 5311,
  "fine": 5312,
  "finely": 5313,
  "finer": 5314,
  "fines": 5315,
  "finger": 5316,
  "fingernails": 5317,
  "fingerprints": 5318,
  "fingers": 5319,
  "fingertips": 5320,
  "finish": 5321,
  "finished": 5322,
  "finishing": 5323,
  "finite": 5324,
  "fins": 5325,
  "fire": 5326,
  "fired": 5327,
  "fireplace": 5328,
  "fires": 5329,
  "fireworks": 5330,
  "firing": 5331,
  "firm": 5332,
  "firmly": 5333,
  "first": 5334,
  "fish": 5335,
  "fished": 5336,
  "fisher": 5337,
  "fisherman": 5338,
  "fishermen": 5339,
  "fishes": 5340,
  "fishing": 5341,
  "fist": 5342,
  "fit": 5343,
  "fitness": 5344,
  "fits": 5345,
  "fitted": 5346,
  "fitting": 5347,
  "fitzpatrick": 5348,
  "five": 5349,
  "fix": 5350,
  "fixed": 5351,
  "fixing": 5352,
  "fixtures": 5353,
  "fl": 5354,
  "flag": 5355,
  "flags": 5356,
  "flame": 5357,
  "flames": 5358,
  "flaming": 5359,
  "flanked": 5360,
  "flap": 5361,
  "flare": 5362,
  "flared": 5363,
  "flash": 5364,
  "flat": 5365,
  "flats": 5366,
  "flattened": 5367,
  "flavor": 5368,
  "flavors": 5369,
  "flawless": 5370,
  "flea": 5371,
  "flee": 5372,
  "flesh": 5373,
  "flew": 5374,
  "flex": 5375,
  "flexed": 5376,
  "flexibility": 5377,
  "flexible": 5378,
  "flick": 5379,
  "flicking": 5380,
  "flies": 5381,
  "flight": 5382,
  "flinch": 5383,
  "flint": 5384,
  "flip": 5385,
  "flipped": 5386,
  "flipping": 5387,
  "float": 5388,
  "floating": 5389,
  "floats": 5390,
  "flock": 5391,
  "floor": 5392,
  "floors": 5393,
  "flop": 5394,
  "floral": 5395,
  "flores": 5396,
  "florida": 5397,
  "flour": 5398,
  "flourish": 5399,
  "flow": 5400,
  "flower": 5401,
  "flowering": 5402,
  "flowers": 5403,
  "flowing": 5404,
  "flown": 5405,
  "flows": 5406,
  "floyd": 5407,
  "flu": 5408,
  "fluffy": 5409,
  "fluid": 5410,
  "fluids": 5411,
  "fluorescent": 5412,
  "flush": 5413,
  "flushed": 5414,
  "flushing": 5415,
  "flute": 5416,
  "flutes": 5417,
  "flutter": 5418,
  "fluttering": 5419,
  "flux": 5420,
  "fly": 5421,
  "flyer": 5422,
  "flyers": 5423,
  "flying": 5424,
  "flynn": 5425,
  "fm": 5426,
  "foam": 5427,
  "focal": 5428,
  "focus": 5429,
  "focused": 5430,
  "focuses": 5431,
  "focusing": 5432,
  "foil": 5433,
  "fold": 5434,
  "folded": 5435,
  "folder": 5436,
  "folding": 5437,
  "folds": 5438,
  "foliage": 5439,
  "folk": 5440,
  "folks": 5441,
  "follow": 5442,
  "followed": 5443,
  "follower": 5444,
  "following": 5445,
  "follows": 5446,
  "fond": 5447,
  "font": 5448,
  "food": 5449,
  "foods": 5450,
  "fool": 5451,
  "fooled": 5452,
  "foolish": 5453,
  "foot": 5454,
  "footage": 5455,
  "football": 5456,
  "footed": 5457,
  "footing": 5458,
  "footprint": 5459,
  "footprints": 5460,
  "for": 5461,
  "foraging": 5462,
  "forbid": 5463,
  "force": 5464,
  "forced": 5465,
  "forceful": 5466,
  "forces": 5467,
  "forcing": 5468,
  "ford": 5469,
  "fore": 5470,
  "forearm": 5471,
  "forearms": 5472,
  "forehead": 5473,
  "foreign": 5474,
  "foreman": 5475,
  "foremost": 5476,
  "forest": 5477,
  "forests": 5478,
  "forever": 5479,
  "forget": 5480,
  "forgetting": 5481,
  "forgot": 5482,
  "forgotten": 5483,
  "fork": 5484,
  "forks": 5485,
  "form": 5486,
  "formal": 5487,
  "format": 5488,
  "formation": 5489,
  "formations": 5490,
  "formats": 5491,
  "formed": 5492,
  "forming": 5493,
  "forms": 5494,
  "formulated": 5495,
  "fort": 5496,
  "forte": 5497,
  "forth": 5498,
  "fortunate": 5499,
  "fortunately": 5500,
  "forty": 5501,
  "forward": 5502,
  "forwards": 5503,
  "foul": 5504,
  "found": 5505,
  "foundation": 5506,
  "foundations": 5507,
  "founders": 5508,
  "foundry": 5509,
  "fountains": 5510,
  "four": 5511,
  "fours": 5512,
  "fourteen": 5513,
  "fourth": 5514,
  "fr": 5515,
  "fra": 5516,
  "fraction": 5517,
  "fragile": 5518,
  "fragrance": 5519,
  "frame": 5520,
  "frames": 5521,
  "framework": 5522,
  "framing": 5523,
  "fran": 5524,
  "france": 5525,
  "franchise": 5526,
  "francisco": 5527,
  "franklin": 5528,
  "frantic": 5529,
  "fraud": 5530,
  "fray": 5531,
  "freak": 5532,
  "fred": 5533,
  "free": 5534,
  "freedom": 5535,
  "freelance": 5536,
  "freely": 5537,
  "freestyle": 5538,
  "freeze": 5539,
  "freezing": 5540,
  "french": 5541,
  "frequencies": 5542,
  "frequency": 5543,
  "frequently": 5544,
  "fresh": 5545,
  "freshly": 5546,
  "freshwater": 5547,
  "frey": 5548,
  "friction": 5549,
  "friday": 5550,
  "fridays": 5551,
  "fridge": 5552,
  "fried": 5553,
  "friend": 5554,
  "friendly": 5555,
  "friends": 5556,
  "friendship": 5557,
  "fries": 5558,
  "fright": 5559,
  "frightening": 5560,
  "fringe": 5561,
  "frog": 5562,
  "frogs": 5563,
  "from": 5564,
  "front": 5565,
  "frontal": 5566,
  "fronts": 5567,
  "frost": 5568,
  "frown": 5569,
  "frowning": 5570,
  "frozen": 5571,
  "fruit": 5572,
  "fruits": 5573,
  "frustrated": 5574,
  "frustrating": 5575,
  "frustration": 5576,
  "fry": 5577,
  "ft": 5578,
  "fu": 5579,
  "fuel": 5580,
  "fuels": 5581,
  "full": 5582,
  "fullback": 5583,
  "fuller": 5584,
  "fully": 5585,
  "fumble": 5586,
  "fun": 5587,
  "function": 5588,
  "functional": 5589,
  "functionality": 5590,
  "functions": 5591,
  "fundamental": 5592,
  "funds": 5593,
  "fungal": 5594,
  "fungus": 5595,
  "funky": 5596,
  "funnel": 5597,
  "funny": 5598,
  "fur": 5599,
  "furniture": 5600,
  "furry": 5601,
  "further": 5602,
  "fuse": 5603,
  "fused": 5604,
  "fusion": 5605,
  "fuss": 5606,
  "future": 5607,
  "fuzzy": 5608,
  "g": 5609,
  "ga": 5610,
  "gables": 5611,
  "gabriel": 5612,
  "gag": 5613,
  "gage": 5614,
  "gain": 5615,
  "gaining": 5616,
  "gains": 5617,
  "gal": 5618,
  "galileo": 5619,
  "gall": 5620,
  "gallery": 5621,
  "gallon": 5622,
  "game": 5623,
  "games": 5624,
  "gan": 5625,
  "gangster": 5626,
  "gap": 5627,
  "gaps": 5628,
  "garage": 5629,
  "garbage": 5630,
  "garcia": 5631,
  "garden": 5632,
  "gardener": 5633,
  "gardening": 5634,
  "gardens": 5635,
  "garlic": 5636,
  "garment": 5637,
  "garments": 5638,
  "gary": 5639,
  "gas": 5640,
  "gases": 5641,
  "gasoline": 5642,
  "gates": 5643,
  "gather": 5644,
  "gathering": 5645,
  "gauge": 5646,
  "gave": 5647,
  "gaze": 5648,
  "ge": 5649,
  "gear": 5650,
  "geared": 5651,
  "gears": 5652,
  "gee": 5653,
  "gel": 5654,
  "gemini": 5655,
  "gems": 5656,
  "gen": 5657,
  "gender": 5658,
  "general": 5659,
  "generally": 5660,
  "generals": 5661,
  "generate": 5662,
  "generates": 5663,
  "generating": 5664,
  "generation": 5665,
  "generators": 5666,
  "generic": 5667,
  "generosity": 5668,
  "genes": 5669,
  "genetic": 5670,
  "genetics": 5671,
  "genie": 5672,
  "genius": 5673,
  "genre": 5674,
  "genres": 5675,
  "gentle": 5676,
  "gentleman": 5677,
  "gentlemen": 5678,
  "gently": 5679,
  "geographical": 5680,
  "geography": 5681,
  "geological": 5682,
  "geology": 5683,
  "geometric": 5684,
  "geometry": 5685,
  "george": 5686,
  "german": 5687,
  "germany": 5688,
  "gesture": 5689,
  "gestures": 5690,
  "gesturing": 5691,
  "get": 5692,
  "gets": 5693,
  "getting": 5694,
  "ghost": 5695,
  "gi": 5696,
  "giant": 5697,
  "gibson": 5698,
  "gift": 5699,
  "gifts": 5700,
  "gill": 5701,
  "gills": 5702,
  "gin": 5703,
  "gina": 5704,
  "ginger": 5705,
  "gingerly": 5706,
  "girl": 5707,
  "girlfriend": 5708,
  "girlfriends": 5709,
  "girls": 5710,
  "give": 5711,
  "given": 5712,
  "gives": 5713,
  "giving": 5714,
  "glad": 5715,
  "glamour": 5716,
  "glance": 5717,
  "glancing": 5718,
  "glands": 5719,
  "glare": 5720,
  "glaring": 5721,
  "glass": 5722,
  "glasses": 5723,
  "glazed": 5724,
  "glide": 5725,
  "glider": 5726,
  "gliding": 5727,
  "glitter": 5728,
  "globe": 5729,
  "gloom": 5730,
  "gloss": 5731,
  "glossy": 5732,
  "glove": 5733,
  "gloves": 5734,
  "glow": 5735,
  "glowing": 5736,
  "glue": 5737,
  "glued": 5738,
  "gma": 5739,
  "go": 5740,
  "goal": 5741,
  "goals": 5742,
  "goat": 5743,
  "god": 5744,
  "goddess": 5745,
  "goes": 5746,
  "goin": 5747,
  "going": 5748,
  "gold": 5749,
  "golden": 5750,
  "golf": 5751,
  "golfer": 5752,
  "gomez": 5753,
  "gone": 5754,
  "gong": 5755,
  "gonna": 5756,
  "goo": 5757,
  "good": 5758,
  "goodbye": 5759,
  "goodman": 5760,
  "goodness": 5761,
  "goods": 5762,
  "goodwin": 5763,
  "goofy": 5764,
  "google": 5765,
  "goose": 5766,
  "gorgeous": 5767,
  "gorilla": 5768,
  "gossip": 5769,
  "got": 5770,
  "goth": 5771,
  "gotta": 5772,
  "gotten": 5773,
  "gov": 5774,
  "government": 5775,
  "gown": 5776,
  "gp": 5777,
  "gr": 5778,
  "grab": 5779,
  "grabbed": 5780,
  "grabbing": 5781,
  "grabs": 5782,
  "grace": 5783,
  "graceful": 5784,
  "grade": 5785,
  "graded": 5786,
  "grades": 5787,
  "grading": 5788,
  "gradual": 5789,
  "gradually": 5790,
  "graduate": 5791,
  "graduating": 5792,
  "graduation": 5793,
  "grady": 5794,
  "graham": 5795,
  "grain": 5796,
  "grains": 5797,
  "gram": 5798,
  "grams": 5799,
  "gran": 5800,
  "grand": 5801,
  "grandma": 5802,
  "grandmother": 5803,
  "grandparents": 5804,
  "granted": 5805,
  "grape": 5806,
  "grapes": 5807,
  "graph": 5808,
  "graphic": 5809,
  "graphics": 5810,
  "grasp": 5811,
  "grasping": 5812,
  "grass": 5813,
  "grassy": 5814,
  "gravel": 5815,
  "graveyard": 5816,
  "gravity": 5817,
  "gray": 5818,
  "graz": 5819,
  "grease": 5820,
  "greasy": 5821,
  "great": 5822,
  "greater": 5823,
  "greatest": 5824,
  "greatly": 5825,
  "greed": 5826,
  "greedy": 5827,
  "greek": 5828,
  "green": 5829,
  "greene": 5830,
  "greenish": 5831,
  "greens": 5832,
  "greenwich": 5833,
  "greet": 5834,
  "greeted": 5835,
  "greeting": 5836,
  "greg": 5837,
  "gregg": 5838,
  "gregory": 5839,
  "gretchen": 5840,
  "grew": 5841,
  "grey": 5842,
  "grid": 5843,
  "grief": 5844,
  "griffin": 5845,
  "grill": 5846,
  "grille": 5847,
  "grim": 5848,
  "grind": 5849,
  "grinding": 5850,
  "grip": 5851,
  "gripping": 5852,
  "grips": 5853,
  "grit": 5854,
  "groan": 5855,
  "grocery": 5856,
  "groin": 5857,
  "groom": 5858,
  "groove": 5859,
  "grooves": 5860,
  "gross": 5861,
  "ground": 5862,
  "grounded": 5863,
  "grounds": 5864,
  "group": 5865,
  "groups": 5866,
  "grove": 5867,
  "grow": 5868,
  "growing": 5869,
  "growl": 5870,
  "grown": 5871,
  "grows": 5872,
  "growth": 5873,
  "grunt": 5874,
  "gu": 5875,
  "guarantee": 5876,
  "guaranteed": 5877,
  "guard": 5878,
  "guarding": 5879,
  "guards": 5880,
  "guess": 5881,
  "guessing": 5882,
  "guest": 5883,
  "guests": 5884,
  "gui": 5885,
  "guidance": 5886,
  "guide": 5887,
  "guidelines": 5888,
  "guides": 5889,
  "guiding": 5890,
  "guild": 5891,
  "guillermo": 5892,
  "guinness": 5893,
  "guitar": 5894,
  "guitars": 5895,
  "gulf": 5896,
  "gum": 5897,
  "gun": 5898,
  "guru": 5899,
  "gus": 5900,
  "gust": 5901,
  "gut": 5902,
  "gutierrez": 5903,
  "guts": 5904,
  "guy": 5905,
  "guys": 5906,
  "gym": 5907,
  "gymnast": 5908,
  "gymnastics": 5909,
  "h": 5910,
  "ha": 5911,
  "habit": 5912,
  "habitat": 5913,
  "habits": 5914,
  "had": 5915,
  "hadn": 5916,
  "hair": 5917,
  "haired": 5918,
  "hairs": 5919,
  "hairy": 5920,
  "hal": 5921,
  "hale": 5922,
  "half": 5923,
  "halfway": 5924,
  "halloween": 5925,
  "halls": 5926,
  "hallway": 5927,
  "hallways": 5928,
  "halo": 5929,
  "halt": 5930,
  "halves": 5931,
  "ham": 5932,
  "hammer": 5933,
  "hammering": 5934,
  "hampshire": 5935,
  "han": 5936,
  "hand": 5937,
  "handed": 5938,
  "handful": 5939,
  "handicap": 5940,
  "handkerchief": 5941,
  "handle": 5942,
  "handled": 5943,
  "handler": 5944,
  "handles": 5945,
  "handling": 5946,
  "hands": 5947,
  "handwriting": 5948,
  "handy": 5949,
  "hang": 5950,
  "hanging": 5951,
  "hangs": 5952,
  "hannah": 5953,
  "happen": 5954,
  "happened": 5955,
  "happening": 5956,
  "happens": 5957,
  "happier": 5958,
  "happy": 5959,
  "harbor": 5960,
  "hard": 5961,
  "hardcore": 5962,
  "harden": 5963,
  "hardened": 5964,
  "harder": 5965,
  "hardest": 5966,
  "hardly": 5967,
  "hardness": 5968,
  "hardware": 5969,
  "hardwood": 5970,
  "hardy": 5971,
  "harley": 5972,
  "harm": 5973,
  "harmed": 5974,
  "harmful": 5975,
  "harmless": 5976,
  "harmon": 5977,
  "harness": 5978,
  "harsh": 5979,
  "hart": 5980,
  "harvest": 5981,
  "harvested": 5982,
  "has": 5983,
  "hasn": 5984,
  "haste": 5985,
  "hat": 5986,
  "hatch": 5987,
  "hate": 5988,
  "hated": 5989,
  "hats": 5990,
  "haul": 5991,
  "haunt": 5992,
  "haunted": 5993,
  "havana": 5994,
  "have": 5995,
  "haven": 5996,
  "having": 5997,
  "havoc": 5998,
  "hawaiian": 5999,
  "hay": 6000,
  "hazard": 6001,
  "hazardous": 6002,
  "hazards": 6003,
  "haze": 6004,
  "hazel": 6005,
  "he": 6006,
  "head": 6007,
  "headache": 6008,
  "headed": 6009,
  "heading": 6010,
  "headlights": 6011,
  "headline": 6012,
  "heads": 6013,
  "heal": 6014,
  "healed": 6015,
  "healer": 6016,
  "healing": 6017,
  "health": 6018,
  "healthy": 6019,
  "heap": 6020,
  "hear": 6021,
  "heard": 6022,
  "hearing": 6023,
  "hears": 6024,
  "heart": 6025,
  "heartbeat": 6026,
  "hearts": 6027,
  "heat": 6028,
  "heated": 6029,
  "heather": 6030,
  "heating": 6031,
  "heats": 6032,
  "heaven": 6033,
  "heavier": 6034,
  "heaviest": 6035,
  "heavily": 6036,
  "heavy": 6037,
  "heck": 6038,
  "hedge": 6039,
  "heel": 6040,
  "heels": 6041,
  "height": 6042,
  "heights": 6043,
  "held": 6044,
  "hello": 6045,
  "helmet": 6046,
  "helmets": 6047,
  "help": 6048,
  "helped": 6049,
  "helpful": 6050,
  "helping": 6051,
  "helps": 6052,
  "hem": 6053,
  "hemisphere": 6054,
  "hen": 6055,
  "hence": 6056,
  "henry": 6057,
  "her": 6058,
  "herb": 6059,
  "herbal": 6060,
  "herbs": 6061,
  "herd": 6062,
  "here": 6063,
  "hermit": 6064,
  "hero": 6065,
  "heroes": 6066,
  "herr": 6067,
  "hers": 6068,
  "herself": 6069,
  "hesitate": 6070,
  "hey": 6071,
  "hi": 6072,
  "hickory": 6073,
  "hidden": 6074,
  "hide": 6075,
  "hideous": 6076,
  "hides": 6077,
  "hiding": 6078,
  "high": 6079,
  "higher": 6080,
  "highest": 6081,
  "highlight": 6082,
  "highlighted": 6083,
  "highlighting": 6084,
  "highlights": 6085,
  "highly": 6086,
  "highs": 6087,
  "highway": 6088,
  "hike": 6089,
  "hiking": 6090,
  "hill": 6091,
  "hills": 6092,
  "hillside": 6093,
  "hilltop": 6094,
  "hilt": 6095,
  "him": 6096,
  "himself": 6097,
  "hind": 6098,
  "hinges": 6099,
  "hint": 6100,
  "hip": 6101,
  "hips": 6102,
  "hire": 6103,
  "hired": 6104,
  "hires": 6105,
  "hiring": 6106,
  "his": 6107,
  "historical": 6108,
  "history": 6109,
  "hit": 6110,
  "hitch": 6111,
  "hits": 6112,
  "hitter": 6113,
  "hitting": 6114,
  "hive": 6115,
  "hmm": 6116,
  "ho": 6117,
  "hobby": 6118,
  "hoc": 6119,
  "hockey": 6120,
  "hoisted": 6121,
  "hold": 6122,
  "holder": 6123,
  "holders": 6124,
  "holding": 6125,
  "holds": 6126,
  "hole": 6127,
  "holes": 6128,
  "holiday": 6129,
  "holidays": 6130,
  "hollow": 6131,
  "hollywood": 6132,
  "home": 6133,
  "homemade": 6134,
  "homes": 6135,
  "homework": 6136,
  "homo": 6137,
  "hon": 6138,
  "honda": 6139,
  "honest": 6140,
  "honestly": 6141,
  "honesty": 6142,
  "honey": 6143,
  "honor": 6144,
  "hood": 6145,
  "hook": 6146,
  "hooked": 6147,
  "hooks": 6148,
  "hoop": 6149,
  "hop": 6150,
  "hope": 6151,
  "hopefully": 6152,
  "hoping": 6153,
  "hopper": 6154,
  "hopping": 6155,
  "horizon": 6156,
  "horizons": 6157,
  "horizontal": 6158,
  "horizontally": 6159,
  "hormone": 6160,
  "hormones": 6161,
  "horn": 6162,
  "horns": 6163,
  "horrible": 6164,
  "horribly": 6165,
  "horse": 6166,
  "horseback": 6167,
  "horses": 6168,
  "hose": 6169,
  "hospital": 6170,
  "hospitals": 6171,
  "host": 6172,
  "hosted": 6173,
  "hostile": 6174,
  "hot": 6175,
  "hotel": 6176,
  "hotels": 6177,
  "hotter": 6178,
  "hour": 6179,
  "hours": 6180,
  "house": 6181,
  "household": 6182,
  "houses": 6183,
  "housing": 6184,
  "hovering": 6185,
  "how": 6186,
  "howe": 6187,
  "however": 6188,
  "howl": 6189,
  "hp": 6190,
  "hr": 6191,
  "html": 6192,
  "hu": 6193,
  "hue": 6194,
  "hug": 6195,
  "huge": 6196,
  "hugged": 6197,
  "hugging": 6198,
  "huh": 6199,
  "hulk": 6200,
  "hull": 6201,
  "hum": 6202,
  "human": 6203,
  "humane": 6204,
  "humanity": 6205,
  "humans": 6206,
  "humid": 6207,
  "humidity": 6208,
  "humming": 6209,
  "humor": 6210,
  "humorous": 6211,
  "hundred": 6212,
  "hundreds": 6213,
  "hung": 6214,
  "hungry": 6215,
  "hunt": 6216,
  "hunter": 6217,
  "hunters": 6218,
  "hunting": 6219,
  "hurdle": 6220,
  "hurricane": 6221,
  "hurricanes": 6222,
  "hurry": 6223,
  "hurt": 6224,
  "hurting": 6225,
  "hurts": 6226,
  "husband": 6227,
  "husbands": 6228,
  "hydra": 6229,
  "hydraulic": 6230,
  "hydro": 6231,
  "hydrogen": 6232,
  "hyper": 6233,
  "hypnotic": 6234,
  "i": 6235,
  "ia": 6236,
  "ian": 6237,
  "ib": 6238,
  "ic": 6239,
  "ice": 6240,
  "iced": 6241,
  "icon": 6242,
  "icons": 6243,
  "id": 6244,
  "idea": 6245,
  "ideal": 6246,
  "ideally": 6247,
  "ideas": 6248,
  "identical": 6249,
  "identification": 6250,
  "identified": 6251,
  "identifies": 6252,
  "identify": 6253,
  "identifying": 6254,
  "identity": 6255,
  "idiot": 6256,
  "idle": 6257,
  "if": 6258,
  "ign": 6259,
  "ignore": 6260,
  "ii": 6261,
  "ike": 6262,
  "il": 6263,
  "ill": 6264,
  "illegal": 6265,
  "illness": 6266,
  "illnesses": 6267,
  "illuminated": 6268,
  "illumination": 6269,
  "illusion": 6270,
  "illustrate": 6271,
  "illustrates": 6272,
  "illustrator": 6273,
  "im": 6274,
  "image": 6275,
  "imagery": 6276,
  "images": 6277,
  "imaginary": 6278,
  "imagination": 6279,
  "imagine": 6280,
  "imagined": 6281,
  "imitation": 6282,
  "immaculate": 6283,
  "immediate": 6284,
  "immediately": 6285,
  "immune": 6286,
  "imp": 6287,
  "impact": 6288,
  "impairment": 6289,
  "imperative": 6290,
  "imperfect": 6291,
  "implement": 6292,
  "implementation": 6293,
  "implemented": 6294,
  "implements": 6295,
  "implies": 6296,
  "import": 6297,
  "importance": 6298,
  "important": 6299,
  "importantly": 6300,
  "imported": 6301,
  "imports": 6302,
  "impose": 6303,
  "imposing": 6304,
  "impossible": 6305,
  "impress": 6306,
  "impressed": 6307,
  "impression": 6308,
  "impressions": 6309,
  "impressive": 6310,
  "impromptu": 6311,
  "improper": 6312,
  "improve": 6313,
  "improved": 6314,
  "improvement": 6315,
  "improvements": 6316,
  "improves": 6317,
  "improving": 6318,
  "improvisation": 6319,
  "impulse": 6320,
  "in": 6321,
  "inaccurate": 6322,
  "inactive": 6323,
  "inadvertently": 6324,
  "inc": 6325,
  "incense": 6326,
  "inch": 6327,
  "inches": 6328,
  "incidence": 6329,
  "incident": 6330,
  "incline": 6331,
  "include": 6332,
  "included": 6333,
  "includes": 6334,
  "including": 6335,
  "income": 6336,
  "inconsistent": 6337,
  "incorporate": 6338,
  "incorporated": 6339,
  "incorporates": 6340,
  "incorporating": 6341,
  "increase": 6342,
  "increased": 6343,
  "increases": 6344,
  "increasing": 6345,
  "incredible": 6346,
  "incredibly": 6347,
  "incurred": 6348,
  "ind": 6349,
  "indeed": 6350,
  "indefinitely": 6351,
  "independence": 6352,
  "independent": 6353,
  "independently": 6354,
  "index": 6355,
  "india": 6356,
  "indian": 6357,
  "indians": 6358,
  "indicate": 6359,
  "indicated": 6360,
  "indicates": 6361,
  "indication": 6362,
  "indicator": 6363,
  "indies": 6364,
  "indirect": 6365,
  "indirectly": 6366,
  "individual": 6367,
  "individually": 6368,
  "individuals": 6369,
  "indoor": 6370,
  "indoors": 6371,
  "induce": 6372,
  "industrial": 6373,
  "industries": 6374,
  "industry": 6375,
  "ineffective": 6376,
  "inexpensive": 6377,
  "infant": 6378,
  "infected": 6379,
  "infection": 6380,
  "infections": 6381,
  "inferior": 6382,
  "inflammation": 6383,
  "inflation": 6384,
  "influence": 6385,
  "influenced": 6386,
  "influences": 6387,
  "inform": 6388,
  "informal": 6389,
  "information": 6390,
  "infrared": 6391,
  "infrastructure": 6392,
  "ing": 6393,
  "ingredient": 6394,
  "ingredients": 6395,
  "inherently": 6396,
  "inherit": 6397,
  "inhuman": 6398,
  "initial": 6399,
  "initially": 6400,
  "initiate": 6401,
  "initiated": 6402,
  "initiating": 6403,
  "initiation": 6404,
  "initiative": 6405,
  "injected": 6406,
  "injection": 6407,
  "injured": 6408,
  "injuries": 6409,
  "injury": 6410,
  "ink": 6411,
  "inn": 6412,
  "inner": 6413,
  "innings": 6414,
  "innovative": 6415,
  "input": 6416,
  "inputs": 6417,
  "ins": 6418,
  "inscription": 6419,
  "insect": 6420,
  "insects": 6421,
  "insert": 6422,
  "inserted": 6423,
  "insertion": 6424,
  "inside": 6425,
  "insides": 6426,
  "insight": 6427,
  "insignia": 6428,
  "inspect": 6429,
  "inspected": 6430,
  "inspecting": 6431,
  "inspection": 6432,
  "inspections": 6433,
  "inspiration": 6434,
  "inspire": 6435,
  "inspired": 6436,
  "instability": 6437,
  "install": 6438,
  "installation": 6439,
  "installed": 6440,
  "installing": 6441,
  "instance": 6442,
  "instances": 6443,
  "instant": 6444,
  "instead": 6445,
  "institution": 6446,
  "institutions": 6447,
  "instruction": 6448,
  "instructions": 6449,
  "instructor": 6450,
  "instrument": 6451,
  "instrumental": 6452,
  "instruments": 6453,
  "insulation": 6454,
  "insulin": 6455,
  "insurance": 6456,
  "int": 6457,
  "intake": 6458,
  "integrate": 6459,
  "integrated": 6460,
  "integrating": 6461,
  "integrity": 6462,
  "intellect": 6463,
  "intelligence": 6464,
  "intelligent": 6465,
  "intend": 6466,
  "intended": 6467,
  "intense": 6468,
  "intensely": 6469,
  "intensity": 6470,
  "intensive": 6471,
  "intent": 6472,
  "intention": 6473,
  "inter": 6474,
  "interact": 6475,
  "interaction": 6476,
  "interactions": 6477,
  "interactive": 6478,
  "intercept": 6479,
  "interception": 6480,
  "interceptions": 6481,
  "interchange": 6482,
  "interest": 6483,
  "interested": 6484,
  "interesting": 6485,
  "interests": 6486,
  "interfere": 6487,
  "interference": 6488,
  "interior": 6489,
  "interiors": 6490,
  "intermediate": 6491,
  "internal": 6492,
  "internally": 6493,
  "international": 6494,
  "internet": 6495,
  "internship": 6496,
  "interpret": 6497,
  "interpretation": 6498,
  "interpreting": 6499,
  "interrupt": 6500,
  "interrupting": 6501,
  "interstate": 6502,
  "interval": 6503,
  "intervals": 6504,
  "intervention": 6505,
  "interview": 6506,
  "interviews": 6507,
  "intimacy": 6508,
  "intimidated": 6509,
  "intimidating": 6510,
  "into": 6511,
  "intricate": 6512,
  "intrinsic": 6513,
  "intro": 6514,
  "introduce": 6515,
  "introduced": 6516,
  "introducing": 6517,
  "introduction": 6518,
  "introductions": 6519,
  "introductory": 6520,
  "intuitive": 6521,
  "invariably": 6522,
  "invented": 6523,
  "invention": 6524,
  "inventory": 6525,
  "inverse": 6526,
  "inverted": 6527,
  "invest": 6528,
  "investment": 6529,
  "invisible": 6530,
  "invitations": 6531,
  "invite": 6532,
  "involve": 6533,
  "involved": 6534,
  "involves": 6535,
  "involving": 6536,
  "inward": 6537,
  "io": 6538,
  "ipod": 6539,
  "ir": 6540,
  "ira": 6541,
  "iris": 6542,
  "irish": 6543,
  "iron": 6544,
  "irregular": 6545,
  "irrelevant": 6546,
  "irrigation": 6547,
  "irritated": 6548,
  "irritating": 6549,
  "irritation": 6550,
  "is": 6551,
  "island": 6552,
  "islands": 6553,
  "isle": 6554,
  "isn": 6555,
  "iso": 6556,
  "isolate": 6557,
  "isolated": 6558,
  "isolation": 6559,
  "israeli": 6560,
  "issue": 6561,
  "issues": 6562,
  "it": 6563,
  "italian": 6564,
  "italy": 6565,
  "item": 6566,
  "items": 6567,
  "its": 6568,
  "itself": 6569,
  "iv": 6570,
  "ivan": 6571,
  "j": 6572,
  "ja": 6573,
  "jack": 6574,
  "jacket": 6575,
  "jackets": 6576,
  "jackie": 6577,
  "jackson": 6578,
  "jacobs": 6579,
  "jade": 6580,
  "jagged": 6581,
  "jail": 6582,
  "jam": 6583,
  "james": 6584,
  "jammed": 6585,
  "jan": 6586,
  "jane": 6587,
  "janet": 6588,
  "janice": 6589,
  "january": 6590,
  "japan": 6591,
  "japanese": 6592,
  "jar": 6593,
  "jared": 6594,
  "jarrett": 6595,
  "jars": 6596,
  "jasmine": 6597,
  "jason": 6598,
  "jaw": 6599,
  "jay": 6600,
  "jazz": 6601,
  "je": 6602,
  "jean": 6603,
  "jeans": 6604,
  "jeff": 6605,
  "jelly": 6606,
  "jen": 6607,
  "jenkins": 6608,
  "jennifer": 6609,
  "jeremy": 6610,
  "jerk": 6611,
  "jerry": 6612,
  "jersey": 6613,
  "jessica": 6614,
  "jesus": 6615,
  "jet": 6616,
  "jets": 6617,
  "jewel": 6618,
  "jewelry": 6619,
  "jewels": 6620,
  "ji": 6621,
  "jill": 6622,
  "jim": 6623,
  "jingle": 6624,
  "jo": 6625,
  "job": 6626,
  "jobs": 6627,
  "joe": 6628,
  "jogging": 6629,
  "johanna": 6630,
  "john": 6631,
  "johnny": 6632,
  "johnson": 6633,
  "johnstone": 6634,
  "join": 6635,
  "joining": 6636,
  "joint": 6637,
  "joints": 6638,
  "joke": 6639,
  "joker": 6640,
  "jokes": 6641,
  "jon": 6642,
  "jones": 6643,
  "jordan": 6644,
  "jose": 6645,
  "joseph": 6646,
  "journal": 6647,
  "journalism": 6648,
  "journals": 6649,
  "journey": 6650,
  "joy": 6651,
  "jr": 6652,
  "ju": 6653,
  "juan": 6654,
  "judge": 6655,
  "judges": 6656,
  "judging": 6657,
  "judgment": 6658,
  "judicial": 6659,
  "judy": 6660,
  "jug": 6661,
  "juice": 6662,
  "juicy": 6663,
  "julie": 6664,
  "julio": 6665,
  "july": 6666,
  "jump": 6667,
  "jumped": 6668,
  "jumping": 6669,
  "jumps": 6670,
  "june": 6671,
  "jung": 6672,
  "jungle": 6673,
  "juniors": 6674,
  "junk": 6675,
  "jurisdiction": 6676,
  "jurisdictions": 6677,
  "jury": 6678,
  "just": 6679,
  "justified": 6680,
  "justify": 6681,
  "k": 6682,
  "ka": 6683,
  "kai": 6684,
  "kangaroo": 6685,
  "kara": 6686,
  "karate": 6687,
  "karen": 6688,
  "kari": 6689,
  "kashmir": 6690,
  "kathy": 6691,
  "katie": 6692,
  "kay": 6693,
  "ke": 6694,
  "keel": 6695,
  "keen": 6696,
  "keep": 6697,
  "keeper": 6698,
  "keepers": 6699,
  "keeping": 6700,
  "keeps": 6701,
  "keith": 6702,
  "kelly": 6703,
  "ken": 6704,
  "kennedy": 6705,
  "kenny": 6706,
  "kentucky": 6707,
  "kenyan": 6708,
  "kept": 6709,
  "kernel": 6710,
  "kerr": 6711,
  "kerry": 6712,
  "kettle": 6713,
  "key": 6714,
  "keyboard": 6715,
  "keys": 6716,
  "kgb": 6717,
  "ki": 6718,
  "kick": 6719,
  "kicked": 6720,
  "kicker": 6721,
  "kicking": 6722,
  "kicks": 6723,
  "kid": 6724,
  "kidding": 6725,
  "kidney": 6726,
  "kids": 6727,
  "kill": 6728,
  "killed": 6729,
  "killer": 6730,
  "killing": 6731,
  "kills": 6732,
  "kim": 6733,
  "kin": 6734,
  "kind": 6735,
  "kinda": 6736,
  "kindergarten": 6737,
  "kindly": 6738,
  "kindness": 6739,
  "kinds": 6740,
  "king": 6741,
  "kings": 6742,
  "kirk": 6743,
  "kiss": 6744,
  "kissed": 6745,
  "kissing": 6746,
  "kit": 6747,
  "kitchen": 6748,
  "kitchens": 6749,
  "kite": 6750,
  "kits": 6751,
  "kitten": 6752,
  "kitty": 6753,
  "klein": 6754,
  "kn": 6755,
  "knee": 6756,
  "kneeling": 6757,
  "knees": 6758,
  "knew": 6759,
  "knife": 6760,
  "knight": 6761,
  "knights": 6762,
  "knit": 6763,
  "knitting": 6764,
  "knives": 6765,
  "knob": 6766,
  "knock": 6767,
  "knocking": 6768,
  "knockout": 6769,
  "knot": 6770,
  "knots": 6771,
  "knotted": 6772,
  "know": 6773,
  "knowing": 6774,
  "knowledge": 6775,
  "known": 6776,
  "knows": 6777,
  "knuckles": 6778,
  "ko": 6779,
  "korea": 6780,
  "korean": 6781,
  "kraft": 6782,
  "kris": 6783,
  "ku": 6784,
  "kung": 6785,
  "kurt": 6786,
  "kw": 6787,
  "kyle": 6788,
  "l": 6789,
  "la": 6790,
  "lab": 6791,
  "label": 6792,
  "labeled": 6793,
  "labels": 6794,
  "labor": 6795,
  "laboratory": 6796,
  "lac": 6797,
  "lace": 6798,
  "lack": 6799,
  "lacking": 6800,
  "lacks": 6801,
  "lad": 6802,
  "ladder": 6803,
  "ladies": 6804,
  "lady": 6805,
  "laid": 6806,
  "lake": 6807,
  "lakes": 6808,
  "lam": 6809,
  "lame": 6810,
  "lamp": 6811,
  "lamps": 6812,
  "lan": 6813,
  "lance": 6814,
  "land": 6815,
  "landed": 6816,
  "landing": 6817,
  "landings": 6818,
  "landlord": 6819,
  "lands": 6820,
  "landscape": 6821,
  "landscapes": 6822,
  "lane": 6823,
  "lanes": 6824,
  "lange": 6825,
  "language": 6826,
  "lanka": 6827,
  "lap": 6828,
  "laptop": 6829,
  "large": 6830,
  "largely": 6831,
  "larger": 6832,
  "largest": 6833,
  "larry": 6834,
  "lars": 6835,
  "larvae": 6836,
  "las": 6837,
  "laser": 6838,
  "lash": 6839,
  "lashes": 6840,
  "lass": 6841,
  "last": 6842,
  "lasting": 6843,
  "lastly": 6844,
  "lasts": 6845,
  "latch": 6846,
  "late": 6847,
  "lately": 6848,
  "later": 6849,
  "lateral": 6850,
  "latest": 6851,
  "latitude": 6852,
  "laugh": 6853,
  "laughing": 6854,
  "laughs": 6855,
  "laughter": 6856,
  "launches": 6857,
  "laundry": 6858,
  "laura": 6859,
  "lauren": 6860,
  "lava": 6861,
  "lavender": 6862,
  "law": 6863,
  "lawn": 6864,
  "lawrence": 6865,
  "lawsuit": 6866,
  "lawyer": 6867,
  "lay": 6868,
  "layer": 6869,
  "layered": 6870,
  "layers": 6871,
  "laying": 6872,
  "layout": 6873,
  "lays": 6874,
  "lazy": 6875,
  "lb": 6876,
  "lbs": 6877,
  "leach": 6878,
  "lead": 6879,
  "leader": 6880,
  "leaders": 6881,
  "leading": 6882,
  "leads": 6883,
  "leaf": 6884,
  "leafs": 6885,
  "league": 6886,
  "leagues": 6887,
  "leak": 6888,
  "leaks": 6889,
  "lean": 6890,
  "leaned": 6891,
  "leaning": 6892,
  "leans": 6893,
  "leap": 6894,
  "learn": 6895,
  "learned": 6896,
  "learning": 6897,
  "learns": 6898,
  "lease": 6899,
  "leases": 6900,
  "leash": 6901,
  "least": 6902,
  "leather": 6903,
  "leave": 6904,
  "leaves": 6905,
  "leaving": 6906,
  "lebanon": 6907,
  "lectures": 6908,
  "led": 6909,
  "ledge": 6910,
  "lee": 6911,
  "left": 6912,
  "leg": 6913,
  "legal": 6914,
  "legally": 6915,
  "legend": 6916,
  "legends": 6917,
  "legged": 6918,
  "legislation": 6919,
  "legitimate": 6920,
  "legs": 6921,
  "lemon": 6922,
  "lend": 6923,
  "lending": 6924,
  "length": 6925,
  "lengths": 6926,
  "lengthy": 6927,
  "lens": 6928,
  "lenses": 6929,
  "lent": 6930,
  "leopard": 6931,
  "les": 6932,
  "leslie": 6933,
  "less": 6934,
  "lesson": 6935,
  "lessons": 6936,
  "let": 6937,
  "lets": 6938,
  "letter": 6939,
  "lettering": 6940,
  "letters": 6941,
  "letting": 6942,
  "level": 6943,
  "leveled": 6944,
  "levels": 6945,
  "lever": 6946,
  "leverage": 6947,
  "lew": 6948,
  "lewis": 6949,
  "lex": 6950,
  "li": 6951,
  "liability": 6952,
  "liberal": 6953,
  "library": 6954,
  "license": 6955,
  "licensed": 6956,
  "lick": 6957,
  "licking": 6958,
  "lid": 6959,
  "lids": 6960,
  "lie": 6961,
  "lies": 6962,
  "life": 6963,
  "lifetime": 6964,
  "lift": 6965,
  "lifted": 6966,
  "lifting": 6967,
  "lifts": 6968,
  "ligament": 6969,
  "light": 6970,
  "lighted": 6971,
  "lighter": 6972,
  "lighting": 6973,
  "lightly": 6974,
  "lightning": 6975,
  "lights": 6976,
  "lightweight": 6977,
  "like": 6978,
  "liked": 6979,
  "likelihood": 6980,
  "likely": 6981,
  "likeness": 6982,
  "likes": 6983,
  "likewise": 6984,
  "liking": 6985,
  "lil": 6986,
  "lila": 6987,
  "lily": 6988,
  "limb": 6989,
  "limbs": 6990,
  "lime": 6991,
  "limit": 6992,
  "limited": 6993,
  "limits": 6994,
  "limo": 6995,
  "limp": 6996,
  "lin": 6997,
  "lincoln": 6998,
  "linda": 6999,
  "lindsay": 7000,
  "line": 7001,
  "linear": 7002,
  "linebacker": 7003,
  "lined": 7004,
  "linen": 7005,
  "liner": 7006,
  "lines": 7007,
  "ling": 7008,
  "linger": 7009,
  "lining": 7010,
  "link": 7011,
  "linked": 7012,
  "links": 7013,
  "linux": 7014,
  "lip": 7015,
  "lips": 7016,
  "lipstick": 7017,
  "liquid": 7018,
  "liquids": 7019,
  "liquor": 7020,
  "lisa": 7021,
  "list": 7022,
  "listed": 7023,
  "listen": 7024,
  "listener": 7025,
  "listening": 7026,
  "listing": 7027,
  "lit": 7028,
  "liter": 7029,
  "literacy": 7030,
  "literally": 7031,
  "literary": 7032,
  "literature": 7033,
  "litter": 7034,
  "little": 7035,
  "live": 7036,
  "lively": 7037,
  "liver": 7038,
  "lives": 7039,
  "livestock": 7040,
  "living": 7041,
  "liz": 7042,
  "lizard": 7043,
  "lizards": 7044,
  "ll": 7045,
  "lo": 7046,
  "load": 7047,
  "loaded": 7048,
  "loading": 7049,
  "loads": 7050,
  "loan": 7051,
  "lobe": 7052,
  "lobster": 7053,
  "local": 7054,
  "locally": 7055,
  "locate": 7056,
  "located": 7057,
  "locating": 7058,
  "location": 7059,
  "locations": 7060,
  "lock": 7061,
  "locked": 7062,
  "locker": 7063,
  "locking": 7064,
  "locks": 7065,
  "loft": 7066,
  "log": 7067,
  "logged": 7068,
  "logging": 7069,
  "logic": 7070,
  "logo": 7071,
  "logos": 7072,
  "logs": 7073,
  "lonely": 7074,
  "long": 7075,
  "longer": 7076,
  "longest": 7077,
  "longevity": 7078,
  "longitudinal": 7079,
  "look": 7080,
  "looked": 7081,
  "looking": 7082,
  "lookout": 7083,
  "looks": 7084,
  "loop": 7085,
  "loops": 7086,
  "loose": 7087,
  "loosely": 7088,
  "loosen": 7089,
  "loosened": 7090,
  "lopez": 7091,
  "lori": 7092,
  "los": 7093,
  "lose": 7094,
  "loses": 7095,
  "losing": 7096,
  "loss": 7097,
  "lost": 7098,
  "lot": 7099,
  "lots": 7100,
  "lotus": 7101,
  "lou": 7102,
  "loud": 7103,
  "loudly": 7104,
  "louis": 7105,
  "lounge": 7106,
  "love": 7107,
  "loved": 7108,
  "lovely": 7109,
  "lovers": 7110,
  "loves": 7111,
  "loving": 7112,
  "low": 7113,
  "lowe": 7114,
  "lower": 7115,
  "lowered": 7116,
  "lowering": 7117,
  "lowers": 7118,
  "lowest": 7119,
  "loyal": 7120,
  "loyalty": 7121,
  "lu": 7122,
  "lucifer": 7123,
  "luck": 7124,
  "luckily": 7125,
  "lucky": 7126,
  "lucy": 7127,
  "luis": 7128,
  "luke": 7129,
  "lump": 7130,
  "lunch": 7131,
  "lung": 7132,
  "lungs": 7133,
  "lure": 7134,
  "lust": 7135,
  "lux": 7136,
  "luxury": 7137,
  "lying": 7138,
  "lyndon": 7139,
  "m": 7140,
  "ma": 7141,
  "mac": 7142,
  "mach": 7143,
  "machine": 7144,
  "machines": 7145,
  "mack": 7146,
  "macro": 7147,
  "mad": 7148,
  "madagascar": 7149,
  "made": 7150,
  "madness": 7151,
  "madonna": 7152,
  "mag": 7153,
  "magazine": 7154,
  "magazines": 7155,
  "magic": 7156,
  "magical": 7157,
  "magician": 7158,
  "magnet": 7159,
  "magnetic": 7160,
  "magnificent": 7161,
  "magnitude": 7162,
  "magnum": 7163,
  "mail": 7164,
  "main": 7165,
  "mainland": 7166,
  "mainly": 7167,
  "mainstream": 7168,
  "maintain": 7169,
  "maintained": 7170,
  "maintaining": 7171,
  "maintains": 7172,
  "maintenance": 7173,
  "major": 7174,
  "majority": 7175,
  "make": 7176,
  "maker": 7177,
  "makers": 7178,
  "makes": 7179,
  "makeup": 7180,
  "making": 7181,
  "mal": 7182,
  "male": 7183,
  "males": 7184,
  "malibu": 7185,
  "malicious": 7186,
  "mall": 7187,
  "malone": 7188,
  "mama": 7189,
  "mammals": 7190,
  "man": 7191,
  "mana": 7192,
  "manage": 7193,
  "managed": 7194,
  "management": 7195,
  "manager": 7196,
  "manages": 7197,
  "managing": 7198,
  "mandarin": 7199,
  "maneuver": 7200,
  "maneuvers": 7201,
  "mango": 7202,
  "manhattan": 7203,
  "mani": 7204,
  "manifold": 7205,
  "manipulate": 7206,
  "manipulated": 7207,
  "manipulating": 7208,
  "mann": 7209,
  "manner": 7210,
  "manners": 7211,
  "manual": 7212,
  "manually": 7213,
  "manufacture": 7214,
  "manufactured": 7215,
  "manufacturer": 7216,
  "manufacturers": 7217,
  "manufacturing": 7218,
  "manuscripts": 7219,
  "many": 7220,
  "map": 7221,
  "maple": 7222,
  "mapping": 7223,
  "maps": 7224,
  "mar": 7225,
  "mara": 7226,
  "marathon": 7227,
  "marble": 7228,
  "marcel": 7229,
  "margins": 7230,
  "maria": 7231,
  "marina": 7232,
  "marine": 7233,
  "mark": 7234,
  "marked": 7235,
  "marker": 7236,
  "markers": 7237,
  "market": 7238,
  "marketing": 7239,
  "markets": 7240,
  "marking": 7241,
  "markings": 7242,
  "marks": 7243,
  "marquette": 7244,
  "marriage": 7245,
  "married": 7246,
  "mars": 7247,
  "marsh": 7248,
  "mart": 7249,
  "martha": 7250,
  "martial": 7251,
  "martin": 7252,
  "martini": 7253,
  "marvel": 7254,
  "mary": 7255,
  "mas": 7256,
  "mascara": 7257,
  "mask": 7258,
  "masks": 7259,
  "mason": 7260,
  "mass": 7261,
  "massachusetts": 7262,
  "massage": 7263,
  "masses": 7264,
  "massey": 7265,
  "massive": 7266,
  "mast": 7267,
  "master": 7268,
  "mastered": 7269,
  "mastering": 7270,
  "masters": 7271,
  "mat": 7272,
  "match": 7273,
  "matched": 7274,
  "matches": 7275,
  "matching": 7276,
  "mate": 7277,
  "material": 7278,
  "materials": 7279,
  "maternity": 7280,
  "math": 7281,
  "mathematical": 7282,
  "mathematics": 7283,
  "mating": 7284,
  "mats": 7285,
  "matt": 7286,
  "matter": 7287,
  "matters": 7288,
  "mattress": 7289,
  "mature": 7290,
  "max": 7291,
  "maximum": 7292,
  "may": 7293,
  "maybe": 7294,
  "mayor": 7295,
  "mc": 7296,
  "mca": 7297,
  "mcc": 7298,
  "mccormick": 7299,
  "mcdonald": 7300,
  "mclean": 7301,
  "md": 7302,
  "me": 7303,
  "meal": 7304,
  "meals": 7305,
  "mean": 7306,
  "meaning": 7307,
  "meanings": 7308,
  "means": 7309,
  "meant": 7310,
  "meantime": 7311,
  "meanwhile": 7312,
  "measure": 7313,
  "measured": 7314,
  "measurement": 7315,
  "measurements": 7316,
  "measures": 7317,
  "measuring": 7318,
  "meat": 7319,
  "mechanic": 7320,
  "mechanical": 7321,
  "mechanically": 7322,
  "mechanics": 7323,
  "mechanism": 7324,
  "mechanisms": 7325,
  "med": 7326,
  "medal": 7327,
  "medallion": 7328,
  "media": 7329,
  "medial": 7330,
  "median": 7331,
  "mediated": 7332,
  "medical": 7333,
  "medication": 7334,
  "medications": 7335,
  "medicine": 7336,
  "medicines": 7337,
  "meditation": 7338,
  "mediterranean": 7339,
  "medium": 7340,
  "meet": 7341,
  "meeting": 7342,
  "meetings": 7343,
  "mega": 7344,
  "megan": 7345,
  "mei": 7346,
  "mel": 7347,
  "melissa": 7348,
  "melody": 7349,
  "melt": 7350,
  "melted": 7351,
  "melting": 7352,
  "member": 7353,
  "members": 7354,
  "membrane": 7355,
  "memo": 7356,
  "memorial": 7357,
  "memory": 7358,
  "men": 7359,
  "mental": 7360,
  "mentally": 7361,
  "mention": 7362,
  "mentioned": 7363,
  "mentor": 7364,
  "menu": 7365,
  "mer": 7366,
  "merchant": 7367,
  "merchants": 7368,
  "mere": 7369,
  "merely": 7370,
  "meridian": 7371,
  "merits": 7372,
  "mermaid": 7373,
  "mesh": 7374,
  "mess": 7375,
  "message": 7376,
  "messages": 7377,
  "messed": 7378,
  "messing": 7379,
  "messy": 7380,
  "met": 7381,
  "meta": 7382,
  "metabolism": 7383,
  "metal": 7384,
  "metaphor": 7385,
  "meter": 7386,
  "meters": 7387,
  "method": 7388,
  "methods": 7389,
  "metric": 7390,
  "metropolitan": 7391,
  "mexico": 7392,
  "miami": 7393,
  "mic": 7394,
  "mice": 7395,
  "michael": 7396,
  "michelle": 7397,
  "mick": 7398,
  "micro": 7399,
  "microphone": 7400,
  "microsoft": 7401,
  "microwave": 7402,
  "mid": 7403,
  "middle": 7404,
  "middleweight": 7405,
  "midi": 7406,
  "midway": 7407,
  "midwest": 7408,
  "might": 7409,
  "migration": 7410,
  "mike": 7411,
  "mil": 7412,
  "mild": 7413,
  "mile": 7414,
  "miles": 7415,
  "military": 7416,
  "milk": 7417,
  "milky": 7418,
  "mill": 7419,
  "million": 7420,
  "millions": 7421,
  "mills": 7422,
  "mimic": 7423,
  "min": 7424,
  "mind": 7425,
  "minds": 7426,
  "mine": 7427,
  "mineral": 7428,
  "minerals": 7429,
  "mini": 7430,
  "miniature": 7431,
  "minimal": 7432,
  "minimize": 7433,
  "minimum": 7434,
  "minor": 7435,
  "mint": 7436,
  "minus": 7437,
  "minute": 7438,
  "minutes": 7439,
  "mir": 7440,
  "miracle": 7441,
  "mirror": 7442,
  "mirrors": 7443,
  "mis": 7444,
  "miscellaneous": 7445,
  "miserable": 7446,
  "miss": 7447,
  "missed": 7448,
  "misses": 7449,
  "missing": 7450,
  "mission": 7451,
  "missouri": 7452,
  "mist": 7453,
  "mistake": 7454,
  "mistaken": 7455,
  "mistakes": 7456,
  "mistress": 7457,
  "misty": 7458,
  "mit": 7459,
  "mix": 7460,
  "mixed": 7461,
  "mixer": 7462,
  "mixes": 7463,
  "mixing": 7464,
  "mixture": 7465,
  "ml": 7466,
  "mm": 7467,
  "mo": 7468,
  "mob": 7469,
  "mobile": 7470,
  "mobility": 7471,
  "mod": 7472,
  "mode": 7473,
  "model": 7474,
  "modeling": 7475,
  "models": 7476,
  "moderate": 7477,
  "moderately": 7478,
  "modern": 7479,
  "modernization": 7480,
  "modes": 7481,
  "modifications": 7482,
  "modified": 7483,
  "modify": 7484,
  "modifying": 7485,
  "module": 7486,
  "moist": 7487,
  "moisture": 7488,
  "mold": 7489,
  "molded": 7490,
  "mole": 7491,
  "molecules": 7492,
  "molly": 7493,
  "mom": 7494,
  "moment": 7495,
  "momentarily": 7496,
  "moments": 7497,
  "momentum": 7498,
  "momma": 7499,
  "mommy": 7500,
  "monarchs": 7501,
  "monday": 7502,
  "mondays": 7503,
  "money": 7504,
  "monique": 7505,
  "monitor": 7506,
  "monitoring": 7507,
  "monitors": 7508,
  "monkey": 7509,
  "monkeys": 7510,
  "mono": 7511,
  "monopoly": 7512,
  "mons": 7513,
  "monster": 7514,
  "monstrous": 7515,
  "mont": 7516,
  "montana": 7517,
  "month": 7518,
  "monthly": 7519,
  "months": 7520,
  "mood": 7521,
  "moods": 7522,
  "moon": 7523,
  "moons": 7524,
  "moore": 7525,
  "mora": 7526,
  "more": 7527,
  "moreno": 7528,
  "morgan": 7529,
  "morning": 7530,
  "moroccan": 7531,
  "morris": 7532,
  "morse": 7533,
  "mortgage": 7534,
  "mosaic": 7535,
  "mosquito": 7536,
  "moss": 7537,
  "most": 7538,
  "mostly": 7539,
  "moth": 7540,
  "mother": 7541,
  "motif": 7542,
  "motion": 7543,
  "motions": 7544,
  "motivated": 7545,
  "motivation": 7546,
  "motor": 7547,
  "motorcycle": 7548,
  "motorcycles": 7549,
  "motors": 7550,
  "mound": 7551,
  "mounds": 7552,
  "mount": 7553,
  "mountain": 7554,
  "mountainous": 7555,
  "mountains": 7556,
  "mounted": 7557,
  "mounting": 7558,
  "mounts": 7559,
  "mouse": 7560,
  "mouth": 7561,
  "mouths": 7562,
  "move": 7563,
  "moved": 7564,
  "movement": 7565,
  "movements": 7566,
  "moves": 7567,
  "movie": 7568,
  "movies": 7569,
  "moving": 7570,
  "mp3": 7571,
  "mr": 7572,
  "mrs": 7573,
  "ms": 7574,
  "mt": 7575,
  "mu": 7576,
  "much": 7577,
  "mud": 7578,
  "muddy": 7579,
  "mug": 7580,
  "muller": 7581,
  "multi": 7582,
  "multimedia": 7583,
  "multiple": 7584,
  "multiplied": 7585,
  "multitude": 7586,
  "mummy": 7587,
  "municipality": 7588,
  "munro": 7589,
  "mural": 7590,
  "murals": 7591,
  "murder": 7592,
  "murderer": 7593,
  "murphy": 7594,
  "murray": 7595,
  "muscle": 7596,
  "muscles": 7597,
  "muscular": 7598,
  "mushroom": 7599,
  "mushrooms": 7600,
  "music": 7601,
  "musical": 7602,
  "musically": 7603,
  "musician": 7604,
  "musicians": 7605,
  "must": 7606,
  "mustard": 7607,
  "muster": 7608,
  "muted": 7609,
  "muzzle": 7610,
  "my": 7611,
  "myra": 7612,
  "myself": 7613,
  "myspace": 7614,
  "mystical": 7615,
  "myth": 7616,
  "mythological": 7617,
  "n": 7618,
  "na": 7619,
  "nail": 7620,
  "nails": 7621,
  "naked": 7622,
  "name": 7623,
  "named": 7624,
  "names": 7625,
  "nancy": 7626,
  "nap": 7627,
  "nape": 7628,
  "napkin": 7629,
  "narrative": 7630,
  "narrow": 7631,
  "narrower": 7632,
  "narrows": 7633,
  "nas": 7634,
  "nasal": 7635,
  "nasty": 7636,
  "nat": 7637,
  "natalie": 7638,
  "nate": 7639,
  "nathan": 7640,
  "nation": 7641,
  "national": 7642,
  "nationally": 7643,
  "nationals": 7644,
  "native": 7645,
  "natives": 7646,
  "nato": 7647,
  "natural": 7648,
  "naturally": 7649,
  "nature": 7650,
  "naughty": 7651,
  "naval": 7652,
  "nave": 7653,
  "navigate": 7654,
  "navigation": 7655,
  "navy": 7656,
  "ne": 7657,
  "near": 7658,
  "nearby": 7659,
  "nearest": 7660,
  "nearly": 7661,
  "neat": 7662,
  "neatly": 7663,
  "necessarily": 7664,
  "necessary": 7665,
  "neck": 7666,
  "necklace": 7667,
  "necks": 7668,
  "nee": 7669,
  "need": 7670,
  "needed": 7671,
  "needing": 7672,
  "needle": 7673,
  "needles": 7674,
  "needs": 7675,
  "needy": 7676,
  "negative": 7677,
  "neglect": 7678,
  "negotiate": 7679,
  "negotiating": 7680,
  "negotiation": 7681,
  "negotiations": 7682,
  "neighbor": 7683,
  "neighborhood": 7684,
  "neighbors": 7685,
  "neither": 7686,
  "neo": 7687,
  "neon": 7688,
  "nerve": 7689,
  "nerves": 7690,
  "nervous": 7691,
  "nes": 7692,
  "nest": 7693,
  "nesting": 7694,
  "net": 7695,
  "network": 7696,
  "networking": 7697,
  "networks": 7698,
  "neutral": 7699,
  "never": 7700,
  "new": 7701,
  "newark": 7702,
  "newborn": 7703,
  "newer": 7704,
  "newly": 7705,
  "news": 7706,
  "newspaper": 7707,
  "newspapers": 7708,
  "newton": 7709,
  "next": 7710,
  "ni": 7711,
  "niagara": 7712,
  "nic": 7713,
  "nice": 7714,
  "nicely": 7715,
  "nick": 7716,
  "nickel": 7717,
  "nicky": 7718,
  "nicole": 7719,
  "nielsen": 7720,
  "nigel": 7721,
  "night": 7722,
  "nightmare": 7723,
  "nightmares": 7724,
  "nights": 7725,
  "nighttime": 7726,
  "nikki": 7727,
  "nine": 7728,
  "nineteen": 7729,
  "ninety": 7730,
  "ninja": 7731,
  "nipples": 7732,
  "nitrogen": 7733,
  "no": 7734,
  "nobility": 7735,
  "nobody": 7736,
  "nodding": 7737,
  "noise": 7738,
  "noises": 7739,
  "noisy": 7740,
  "non": 7741,
  "none": 7742,
  "nonetheless": 7743,
  "nonsense": 7744,
  "noodles": 7745,
  "noon": 7746,
  "nope": 7747,
  "nor": 7748,
  "nordic": 7749,
  "norm": 7750,
  "normal": 7751,
  "normally": 7752,
  "norms": 7753,
  "north": 7754,
  "northern": 7755,
  "northwest": 7756,
  "norton": 7757,
  "norway": 7758,
  "nos": 7759,
  "nose": 7760,
  "nosed": 7761,
  "noses": 7762,
  "not": 7763,
  "notable": 7764,
  "notation": 7765,
  "notch": 7766,
  "note": 7767,
  "notebook": 7768,
  "noted": 7769,
  "notes": 7770,
  "nothing": 7771,
  "notice": 7772,
  "noticeable": 7773,
  "noticed": 7774,
  "notices": 7775,
  "noticing": 7776,
  "noting": 7777,
  "notre": 7778,
  "nova": 7779,
  "novel": 7780,
  "novi": 7781,
  "novice": 7782,
  "now": 7783,
  "nowadays": 7784,
  "nowhere": 7785,
  "np": 7786,
  "nu": 7787,
  "nude": 7788,
  "null": 7789,
  "numb": 7790,
  "number": 7791,
  "numbered": 7792,
  "numbers": 7793,
  "numerical": 7794,
  "numerous": 7795,
  "nun": 7796,
  "nurse": 7797,
  "nursery": 7798,
  "nurses": 7799,
  "nut": 7800,
  "nutrient": 7801,
  "nutrients": 7802,
  "nutrition": 7803,
  "nuts": 7804,
  "ny": 7805,
  "nyc": 7806,
  "nylon": 7807,
  "o": 7808,
  "oak": 7809,
  "oaks": 7810,
  "oasis": 7811,
  "ob": 7812,
  "obe": 7813,
  "obedience": 7814,
  "obesity": 7815,
  "obey": 7816,
  "object": 7817,
  "objective": 7818,
  "objectives": 7819,
  "objects": 7820,
  "oblique": 7821,
  "observation": 7822,
  "observations": 7823,
  "observe": 7824,
  "observer": 7825,
  "observing": 7826,
  "obstacle": 7827,
  "obstacles": 7828,
  "obstruction": 7829,
  "obtain": 7830,
  "obvious": 7831,
  "obviously": 7832,
  "occasion": 7833,
  "occasional": 7834,
  "occasionally": 7835,
  "occasions": 7836,
  "occupation": 7837,
  "occupied": 7838,
  "occur": 7839,
  "occurred": 7840,
  "occurring": 7841,
  "occurs": 7842,
  "ocean": 7843,
  "oct": 7844,
  "octave": 7845,
  "october": 7846,
  "odd": 7847,
  "oddly": 7848,
  "odds": 7849,
  "odor": 7850,
  "of": 7851,
  "off": 7852,
  "offense": 7853,
  "offenses": 7854,
  "offensive": 7855,
  "offer": 7856,
  "offering": 7857,
  "offers": 7858,
  "office": 7859,
  "officer": 7860,
  "officers": 7861,
  "offices": 7862,
  "offs": 7863,
  "offset": 7864,
  "often": 7865,
  "og": 7866,
  "oh": 7867,
  "ohio": 7868,
  "oil": 7869,
  "oils": 7870,
  "ok": 7871,
  "okay": 7872,
  "ol": 7873,
  "old": 7874,
  "older": 7875,
  "oldest": 7876,
  "olds": 7877,
  "olive": 7878,
  "ollie": 7879,
  "olympic": 7880,
  "olympics": 7881,
  "om": 7882,
  "omaha": 7883,
  "omega": 7884,
  "on": 7885,
  "once": 7886,
  "one": 7887,
  "ones": 7888,
  "oneself": 7889,
  "onion": 7890,
  "onions": 7891,
  "online": 7892,
  "only": 7893,
  "onto": 7894,
  "op": 7895,
  "opaque": 7896,
  "open": 7897,
  "opened": 7898,
  "opener": 7899,
  "opening": 7900,
  "opens": 7901,
  "operate": 7902,
  "operated": 7903,
  "operates": 7904,
  "operating": 7905,
  "operation": 7906,
  "operations": 7907,
  "operator": 7908,
  "opinion": 7909,
  "opinions": 7910,
  "opponent": 7911,
  "opponents": 7912,
  "opportunities": 7913,
  "opportunity": 7914,
  "oppose": 7915,
  "opposed": 7916,
  "opposing": 7917,
  "opposite": 7918,
  "opposition": 7919,
  "optic": 7920,
  "optical": 7921,
  "optimal": 7922,
  "option": 7923,
  "optional": 7924,
  "options": 7925,
  "or": 7926,
  "oral": 7927,
  "orange": 7928,
  "orbit": 7929,
  "orbital": 7930,
  "orbits": 7931,
  "orchid": 7932,
  "order": 7933,
  "ordering": 7934,
  "orders": 7935,
  "ordinary": 7936,
  "ore": 7937,
  "oregon": 7938,
  "org": 7939,
  "organ": 7940,
  "organic": 7941,
  "organism": 7942,
  "organization": 7943,
  "organizational": 7944,
  "organizations": 7945,
  "organize": 7946,
  "organized": 7947,
  "organizer": 7948,
  "organizing": 7949,
  "organs": 7950,
  "orientation": 7951,
  "oriented": 7952,
  "origin": 7953,
  "original": 7954,
  "originally": 7955,
  "originate": 7956,
  "originated": 7957,
  "origins": 7958,
  "orlando": 7959,
  "orleans": 7960,
  "ornamental": 7961,
  "ornaments": 7962,
  "ornate": 7963,
  "ortega": 7964,
  "os": 7965,
  "oscar": 7966,
  "ot": 7967,
  "other": 7968,
  "others": 7969,
  "otherwise": 7970,
  "otis": 7971,
  "ought": 7972,
  "ounce": 7973,
  "our": 7974,
  "ours": 7975,
  "ourselves": 7976,
  "out": 7977,
  "outcome": 7978,
  "outdated": 7979,
  "outdoor": 7980,
  "outdoors": 7981,
  "outer": 7982,
  "outfielder": 7983,
  "outfit": 7984,
  "outfits": 7985,
  "outing": 7986,
  "outlet": 7987,
  "outlets": 7988,
  "outline": 7989,
  "outlook": 7990,
  "outreach": 7991,
  "outs": 7992,
  "outside": 7993,
  "outsider": 7994,
  "outstanding": 7995,
  "outward": 7996,
  "oval": 7997,
  "oven": 7998,
  "over": 7999,
  "overall": 8000,
  "overboard": 8001,
  "overcome": 8002,
  "overcoming": 8003,
  "overhead": 8004,
  "overlap": 8005,
  "overlapping": 8006,
  "overlook": 8007,
  "overly": 8008,
  "overnight": 8009,
  "overs": 8010,
  "overseas": 8011,
  "overtime": 8012,
  "overview": 8013,
  "overwhelmed": 8014,
  "overwhelming": 8015,
  "owe": 8016,
  "own": 8017,
  "owned": 8018,
  "owner": 8019,
  "owning": 8020,
  "ox": 8021,
  "oxford": 8022,
  "oxygen": 8023,
  "oyster": 8024,
  "oz": 8025,
  "p": 8026,
  "pa": 8027,
  "pac": 8028,
  "pace": 8029,
  "paced": 8030,
  "paces": 8031,
  "pacific": 8032,
  "pacing": 8033,
  "pack": 8034,
  "package": 8035,
  "packages": 8036,
  "packaging": 8037,
  "packed": 8038,
  "packet": 8039,
  "packets": 8040,
  "packing": 8041,
  "packs": 8042,
  "pad": 8043,
  "padded": 8044,
  "paddle": 8045,
  "pads": 8046,
  "page": 8047,
  "pageant": 8048,
  "pages": 8049,
  "paid": 8050,
  "pain": 8051,
  "painful": 8052,
  "pains": 8053,
  "paint": 8054,
  "painted": 8055,
  "painter": 8056,
  "painters": 8057,
  "painting": 8058,
  "paintings": 8059,
  "paints": 8060,
  "pair": 8061,
  "paired": 8062,
  "pairing": 8063,
  "pairs": 8064,
  "pajamas": 8065,
  "pal": 8066,
  "pale": 8067,
  "palette": 8068,
  "palm": 8069,
  "palms": 8070,
  "pam": 8071,
  "pan": 8072,
  "panda": 8073,
  "panel": 8074,
  "panels": 8075,
  "panic": 8076,
  "panting": 8077,
  "pants": 8078,
  "papa": 8079,
  "paper": 8080,
  "papers": 8081,
  "par": 8082,
  "para": 8083,
  "paradigm": 8084,
  "paradox": 8085,
  "paragraph": 8086,
  "parallel": 8087,
  "parasites": 8088,
  "parasitic": 8089,
  "parent": 8090,
  "parents": 8091,
  "paris": 8092,
  "park": 8093,
  "parker": 8094,
  "parking": 8095,
  "parlor": 8096,
  "parrot": 8097,
  "parry": 8098,
  "parsons": 8099,
  "part": 8100,
  "parted": 8101,
  "partial": 8102,
  "partially": 8103,
  "participant": 8104,
  "participants": 8105,
  "participate": 8106,
  "particles": 8107,
  "particular": 8108,
  "particularly": 8109,
  "parties": 8110,
  "parting": 8111,
  "partly": 8112,
  "partner": 8113,
  "partnering": 8114,
  "partners": 8115,
  "partnership": 8116,
  "parts": 8117,
  "party": 8118,
  "pass": 8119,
  "passages": 8120,
  "passed": 8121,
  "passenger": 8122,
  "passes": 8123,
  "passing": 8124,
  "passion": 8125,
  "passionate": 8126,
  "password": 8127,
  "past": 8128,
  "pasta": 8129,
  "paste": 8130,
  "pastry": 8131,
  "pat": 8132,
  "patch": 8133,
  "patches": 8134,
  "patent": 8135,
  "path": 8136,
  "pathogen": 8137,
  "paths": 8138,
  "pathway": 8139,
  "pathways": 8140,
  "patience": 8141,
  "patient": 8142,
  "patients": 8143,
  "patio": 8144,
  "patricia": 8145,
  "patrick": 8146,
  "patriotic": 8147,
  "patrol": 8148,
  "pattern": 8149,
  "patterned": 8150,
  "patterns": 8151,
  "patterson": 8152,
  "patti": 8153,
  "patting": 8154,
  "patty": 8155,
  "paul": 8156,
  "pause": 8157,
  "pavement": 8158,
  "pay": 8159,
  "paying": 8160,
  "pays": 8161,
  "pe": 8162,
  "peace": 8163,
  "peaceful": 8164,
  "peach": 8165,
  "peacock": 8166,
  "peak": 8167,
  "peaking": 8168,
  "peaks": 8169,
  "peanut": 8170,
  "peanuts": 8171,
  "pear": 8172,
  "pearl": 8173,
  "pearls": 8174,
  "peas": 8175,
  "peat": 8176,
  "pebbles": 8177,
  "peck": 8178,
  "pedal": 8179,
  "pedestal": 8180,
  "pedestrian": 8181,
  "pediatric": 8182,
  "pee": 8183,
  "peek": 8184,
  "peel": 8185,
  "peeled": 8186,
  "peeling": 8187,
  "peers": 8188,
  "peg": 8189,
  "pen": 8190,
  "penalties": 8191,
  "penalty": 8192,
  "pencil": 8193,
  "pendant": 8194,
  "pendulum": 8195,
  "penetrate": 8196,
  "penetrating": 8197,
  "penetration": 8198,
  "pennant": 8199,
  "pennsylvania": 8200,
  "penny": 8201,
  "pens": 8202,
  "people": 8203,
  "peoples": 8204,
  "pepper": 8205,
  "peppers": 8206,
  "per": 8207,
  "percent": 8208,
  "perception": 8209,
  "perch": 8210,
  "perennial": 8211,
  "perfect": 8212,
  "perfection": 8213,
  "perfectly": 8214,
  "perform": 8215,
  "performance": 8216,
  "performed": 8217,
  "performer": 8218,
  "performing": 8219,
  "performs": 8220,
  "perfume": 8221,
  "perhaps": 8222,
  "perimeter": 8223,
  "period": 8224,
  "periodic": 8225,
  "periodically": 8226,
  "periodicals": 8227,
  "periods": 8228,
  "peripheral": 8229,
  "permanent": 8230,
  "permanently": 8231,
  "permission": 8232,
  "permits": 8233,
  "permitted": 8234,
  "perpendicular": 8235,
  "perpetual": 8236,
  "person": 8237,
  "persona": 8238,
  "personal": 8239,
  "personalities": 8240,
  "personality": 8241,
  "personally": 8242,
  "personnel": 8243,
  "persons": 8244,
  "perspective": 8245,
  "peruvian": 8246,
  "pest": 8247,
  "pet": 8248,
  "petals": 8249,
  "pete": 8250,
  "peter": 8251,
  "petersburg": 8252,
  "peterson": 8253,
  "petite": 8254,
  "petition": 8255,
  "petroleum": 8256,
  "pets": 8257,
  "pew": 8258,
  "ph": 8259,
  "pharmaceuticals": 8260,
  "phase": 8261,
  "phases": 8262,
  "phd": 8263,
  "phil": 8264,
  "philip": 8265,
  "phillip": 8266,
  "philosophy": 8267,
  "phone": 8268,
  "phones": 8269,
  "phonetic": 8270,
  "photo": 8271,
  "photograph": 8272,
  "photographer": 8273,
  "photographers": 8274,
  "photographic": 8275,
  "photographs": 8276,
  "photography": 8277,
  "photos": 8278,
  "phrase": 8279,
  "phrases": 8280,
  "physical": 8281,
  "physically": 8282,
  "physician": 8283,
  "physics": 8284,
  "physiological": 8285,
  "pi": 8286,
  "piano": 8287,
  "pic": 8288,
  "pick": 8289,
  "picked": 8290,
  "picket": 8291,
  "picking": 8292,
  "picks": 8293,
  "pickup": 8294,
  "picnic": 8295,
  "picture": 8296,
  "pictures": 8297,
  "pie": 8298,
  "piece": 8299,
  "pieces": 8300,
  "pier": 8301,
  "pierce": 8302,
  "piercing": 8303,
  "pig": 8304,
  "pigeon": 8305,
  "pigment": 8306,
  "pigs": 8307,
  "pike": 8308,
  "pile": 8309,
  "piled": 8310,
  "pill": 8311,
  "pillars": 8312,
  "pillow": 8313,
  "pillows": 8314,
  "pilot": 8315,
  "pilots": 8316,
  "pin": 8317,
  "pinch": 8318,
  "pinched": 8319,
  "pine": 8320,
  "ping": 8321,
  "pink": 8322,
  "pinnacle": 8323,
  "pinned": 8324,
  "pinning": 8325,
  "pins": 8326,
  "pinto": 8327,
  "pioneering": 8328,
  "pipe": 8329,
  "piper": 8330,
  "pipes": 8331,
  "pistol": 8332,
  "pistols": 8333,
  "piston": 8334,
  "pistons": 8335,
  "pit": 8336,
  "pitch": 8337,
  "pitcher": 8338,
  "pitchers": 8339,
  "pitches": 8340,
  "pitching": 8341,
  "pits": 8342,
  "pittsburgh": 8343,
  "pixels": 8344,
  "pizza": 8345,
  "pl": 8346,
  "place": 8347,
  "placed": 8348,
  "placement": 8349,
  "places": 8350,
  "placing": 8351,
  "plaid": 8352,
  "plain": 8353,
  "plan": 8354,
  "plane": 8355,
  "planet": 8356,
  "planetary": 8357,
  "planets": 8358,
  "plank": 8359,
  "planned": 8360,
  "planner": 8361,
  "planning": 8362,
  "plans": 8363,
  "plant": 8364,
  "planted": 8365,
  "planting": 8366,
  "plants": 8367,
  "plaque": 8368,
  "plaques": 8369,
  "plaster": 8370,
  "plastic": 8371,
  "plate": 8372,
  "plates": 8373,
  "platform": 8374,
  "platt": 8375,
  "play": 8376,
  "playback": 8377,
  "played": 8378,
  "player": 8379,
  "players": 8380,
  "playful": 8381,
  "playground": 8382,
  "playing": 8383,
  "plays": 8384,
  "playwright": 8385,
  "plea": 8386,
  "pleas": 8387,
  "pleasant": 8388,
  "please": 8389,
  "pleased": 8390,
  "pleasing": 8391,
  "plenty": 8392,
  "plot": 8393,
  "plug": 8394,
  "plum": 8395,
  "plumage": 8396,
  "plumbing": 8397,
  "plump": 8398,
  "plunge": 8399,
  "plus": 8400,
  "pneumonia": 8401,
  "po": 8402,
  "pocket": 8403,
  "pockets": 8404,
  "pod": 8405,
  "podium": 8406,
  "poet": 8407,
  "poetry": 8408,
  "point": 8409,
  "pointed": 8410,
  "pointer": 8411,
  "pointing": 8412,
  "points": 8413,
  "poison": 8414,
  "poke": 8415,
  "pokemon": 8416,
  "poker": 8417,
  "poking": 8418,
  "pol": 8419,
  "poland": 8420,
  "polar": 8421,
  "pole": 8422,
  "poles": 8423,
  "police": 8424,
  "policy": 8425,
  "polish": 8426,
  "polished": 8427,
  "polite": 8428,
  "political": 8429,
  "politics": 8430,
  "poll": 8431,
  "pollen": 8432,
  "poly": 8433,
  "polymer": 8434,
  "polymers": 8435,
  "pond": 8436,
  "ponder": 8437,
  "pony": 8438,
  "pool": 8439,
  "pools": 8440,
  "poor": 8441,
  "poorer": 8442,
  "poorly": 8443,
  "pop": 8444,
  "popcorn": 8445,
  "popped": 8446,
  "popping": 8447,
  "pops": 8448,
  "popular": 8449,
  "popularity": 8450,
  "population": 8451,
  "populations": 8452,
  "por": 8453,
  "porcelain": 8454,
  "porch": 8455,
  "pork": 8456,
  "port": 8457,
  "portable": 8458,
  "portal": 8459,
  "portals": 8460,
  "porter": 8461,
  "portion": 8462,
  "portions": 8463,
  "portland": 8464,
  "portrait": 8465,
  "portraits": 8466,
  "portray": 8467,
  "portuguese": 8468,
  "pose": 8469,
  "poses": 8470,
  "posing": 8471,
  "position": 8472,
  "positioned": 8473,
  "positioning": 8474,
  "positions": 8475,
  "positive": 8476,
  "possess": 8477,
  "possibilities": 8478,
  "possibility": 8479,
  "possible": 8480,
  "possibly": 8481,
  "post": 8482,
  "posted": 8483,
  "poster": 8484,
  "posterior": 8485,
  "posters": 8486,
  "posts": 8487,
  "posture": 8488,
  "pot": 8489,
  "potassium": 8490,
  "potato": 8491,
  "potatoes": 8492,
  "potent": 8493,
  "potential": 8494,
  "potentially": 8495,
  "pots": 8496,
  "potter": 8497,
  "pouch": 8498,
  "pound": 8499,
  "pounding": 8500,
  "pounds": 8501,
  "pour": 8502,
  "poured": 8503,
  "pouring": 8504,
  "poverty": 8505,
  "powder": 8506,
  "power": 8507,
  "powered": 8508,
  "powerful": 8509,
  "powers": 8510,
  "pp": 8511,
  "pr": 8512,
  "practical": 8513,
  "practically": 8514,
  "practice": 8515,
  "practiced": 8516,
  "practices": 8517,
  "practicing": 8518,
  "practitioner": 8519,
  "practitioners": 8520,
  "praise": 8521,
  "prayer": 8522,
  "pre": 8523,
  "preaching": 8524,
  "precautions": 8525,
  "precious": 8526,
  "precipitation": 8527,
  "precise": 8528,
  "precisely": 8529,
  "predators": 8530,
  "predictable": 8531,
  "prefer": 8532,
  "preference": 8533,
  "preferences": 8534,
  "preferred": 8535,
  "prefers": 8536,
  "pregnancy": 8537,
  "pregnant": 8538,
  "preliminary": 8539,
  "prematurely": 8540,
  "premier": 8541,
  "premise": 8542,
  "premium": 8543,
  "prep": 8544,
  "preparation": 8545,
  "prepare": 8546,
  "prepared": 8547,
  "prepares": 8548,
  "preparing": 8549,
  "prescribed": 8550,
  "prescription": 8551,
  "presence": 8552,
  "present": 8553,
  "presentation": 8554,
  "presentations": 8555,
  "presented": 8556,
  "presents": 8557,
  "preservation": 8558,
  "preserve": 8559,
  "preserving": 8560,
  "president": 8561,
  "presidential": 8562,
  "press": 8563,
  "pressed": 8564,
  "presses": 8565,
  "pressing": 8566,
  "pressure": 8567,
  "pressures": 8568,
  "pretend": 8569,
  "pretending": 8570,
  "pretty": 8571,
  "prevalent": 8572,
  "prevent": 8573,
  "prevented": 8574,
  "preventing": 8575,
  "prevention": 8576,
  "prevents": 8577,
  "preview": 8578,
  "previous": 8579,
  "previously": 8580,
  "prey": 8581,
  "pri": 8582,
  "price": 8583,
  "priced": 8584,
  "prices": 8585,
  "primarily": 8586,
  "primary": 8587,
  "prime": 8588,
  "princess": 8589,
  "principal": 8590,
  "principle": 8591,
  "principles": 8592,
  "print": 8593,
  "printed": 8594,
  "printer": 8595,
  "printers": 8596,
  "printing": 8597,
  "prints": 8598,
  "prior": 8599,
  "priority": 8600,
  "priscilla": 8601,
  "prism": 8602,
  "prison": 8603,
  "privacy": 8604,
  "private": 8605,
  "privilege": 8606,
  "prix": 8607,
  "prize": 8608,
  "pro": 8609,
  "probability": 8610,
  "probably": 8611,
  "probe": 8612,
  "problem": 8613,
  "problematic": 8614,
  "problems": 8615,
  "procedural": 8616,
  "procedure": 8617,
  "procedures": 8618,
  "proceed": 8619,
  "proceeded": 8620,
  "proceeds": 8621,
  "process": 8622,
  "processed": 8623,
  "processes": 8624,
  "processing": 8625,
  "processor": 8626,
  "processors": 8627,
  "produce": 8628,
  "produced": 8629,
  "producer": 8630,
  "producers": 8631,
  "produces": 8632,
  "producing": 8633,
  "product": 8634,
  "production": 8635,
  "productions": 8636,
  "productive": 8637,
  "productivity": 8638,
  "products": 8639,
  "prof": 8640,
  "profession": 8641,
  "professional": 8642,
  "professionally": 8643,
  "professionals": 8644,
  "professor": 8645,
  "professors": 8646,
  "proficient": 8647,
  "profile": 8648,
  "profiles": 8649,
  "profit": 8650,
  "profits": 8651,
  "program": 8652,
  "programmed": 8653,
  "programmer": 8654,
  "programs": 8655,
  "progress": 8656,
  "progressed": 8657,
  "progression": 8658,
  "progressive": 8659,
  "project": 8660,
  "projecting": 8661,
  "projections": 8662,
  "projects": 8663,
  "prom": 8664,
  "promenade": 8665,
  "prominent": 8666,
  "promise": 8667,
  "promising": 8668,
  "promote": 8669,
  "promotes": 8670,
  "promoting": 8671,
  "promotion": 8672,
  "prompt": 8673,
  "prone": 8674,
  "pronounced": 8675,
  "proof": 8676,
  "prop": 8677,
  "proper": 8678,
  "properly": 8679,
  "properties": 8680,
  "property": 8681,
  "proponent": 8682,
  "proportion": 8683,
  "proportional": 8684,
  "proportions": 8685,
  "propped": 8686,
  "props": 8687,
  "prospect": 8688,
  "prostate": 8689,
  "protect": 8690,
  "protected": 8691,
  "protecting": 8692,
  "protection": 8693,
  "protections": 8694,
  "protective": 8695,
  "protector": 8696,
  "protects": 8697,
  "protein": 8698,
  "proteins": 8699,
  "protruding": 8700,
  "proud": 8701,
  "prove": 8702,
  "provide": 8703,
  "provided": 8704,
  "provides": 8705,
  "providing": 8706,
  "proximity": 8707,
  "pry": 8708,
  "psi": 8709,
  "psychiatrist": 8710,
  "psycho": 8711,
  "psychological": 8712,
  "psychologist": 8713,
  "psychologists": 8714,
  "psychology": 8715,
  "pt": 8716,
  "pu": 8717,
  "public": 8718,
  "publicity": 8719,
  "publish": 8720,
  "published": 8721,
  "publishing": 8722,
  "puck": 8723,
  "pudding": 8724,
  "puddle": 8725,
  "puff": 8726,
  "pull": 8727,
  "pulled": 8728,
  "pulling": 8729,
  "pulls": 8730,
  "pulp": 8731,
  "pulse": 8732,
  "pulses": 8733,
  "pump": 8734,
  "pumped": 8735,
  "pumping": 8736,
  "pumpkin": 8737,
  "pumps": 8738,
  "pun": 8739,
  "punch": 8740,
  "punched": 8741,
  "punches": 8742,
  "punching": 8743,
  "punish": 8744,
  "punishment": 8745,
  "pup": 8746,
  "pupil": 8747,
  "pupils": 8748,
  "puppet": 8749,
  "puppy": 8750,
  "purchase": 8751,
  "purchased": 8752,
  "purchases": 8753,
  "purchasing": 8754,
  "pure": 8755,
  "purely": 8756,
  "purity": 8757,
  "purple": 8758,
  "purpose": 8759,
  "purposes": 8760,
  "purse": 8761,
  "pursue": 8762,
  "pursued": 8763,
  "push": 8764,
  "pushed": 8765,
  "pushes": 8766,
  "pushing": 8767,
  "pussy": 8768,
  "put": 8769,
  "puts": 8770,
  "putting": 8771,
  "puzzle": 8772,
  "pv": 8773,
  "pyramid": 8774,
  "python": 8775,
  "q": 8776,
  "qi": 8777,
  "qu": 8778,
  "quad": 8779,
  "quaker": 8780,
  "quakers": 8781,
  "qualification": 8782,
  "qualifications": 8783,
  "qualified": 8784,
  "qualify": 8785,
  "qualities": 8786,
  "quality": 8787,
  "quantity": 8788,
  "quarter": 8789,
  "quarterback": 8790,
  "quarters": 8791,
  "quartz": 8792,
  "que": 8793,
  "quebec": 8794,
  "queen": 8795,
  "queens": 8796,
  "question": 8797,
  "questions": 8798,
  "qui": 8799,
  "quick": 8800,
  "quicker": 8801,
  "quickly": 8802,
  "quiet": 8803,
  "quietly": 8804,
  "quilt": 8805,
  "quit": 8806,
  "quite": 8807,
  "quo": 8808,
  "quota": 8809,
  "quote": 8810,
  "quotes": 8811,
  "r": 8812,
  "ra": 8813,
  "rabbit": 8814,
  "race": 8815,
  "racers": 8816,
  "races": 8817,
  "rachel": 8818,
  "racial": 8819,
  "racing": 8820,
  "rack": 8821,
  "racks": 8822,
  "radial": 8823,
  "radiant": 8824,
  "radical": 8825,
  "radio": 8826,
  "radios": 8827,
  "radius": 8828,
  "raft": 8829,
  "rag": 8830,
  "rage": 8831,
  "ragged": 8832,
  "rai": 8833,
  "rail": 8834,
  "rails": 8835,
  "rain": 8836,
  "rainbow": 8837,
  "raining": 8838,
  "rains": 8839,
  "raise": 8840,
  "raised": 8841,
  "raises": 8842,
  "raising": 8843,
  "rake": 8844,
  "raked": 8845,
  "ralph": 8846,
  "ram": 8847,
  "ramp": 8848,
  "ramps": 8849,
  "ran": 8850,
  "ranch": 8851,
  "random": 8852,
  "randomly": 8853,
  "range": 8854,
  "ranger": 8855,
  "ranges": 8856,
  "ranging": 8857,
  "ranked": 8858,
  "ranking": 8859,
  "rankings": 8860,
  "raphael": 8861,
  "rapid": 8862,
  "rapidly": 8863,
  "rare": 8864,
  "rarely": 8865,
  "ras": 8866,
  "rat": 8867,
  "rate": 8868,
  "rated": 8869,
  "rates": 8870,
  "rather": 8871,
  "rating": 8872,
  "ratings": 8873,
  "ratio": 8874,
  "ratios": 8875,
  "rats": 8876,
  "rattle": 8877,
  "ravine": 8878,
  "raw": 8879,
  "ray": 8880,
  "razor": 8881,
  "re": 8882,
  "reach": 8883,
  "reached": 8884,
  "reaches": 8885,
  "reaching": 8886,
  "react": 8887,
  "reacting": 8888,
  "reaction": 8889,
  "reactions": 8890,
  "reacts": 8891,
  "read": 8892,
  "reader": 8893,
  "readily": 8894,
  "reading": 8895,
  "readings": 8896,
  "reads": 8897,
  "ready": 8898,
  "real": 8899,
  "realistic": 8900,
  "realities": 8901,
  "reality": 8902,
  "realize": 8903,
  "realized": 8904,
  "realizing": 8905,
  "really": 8906,
  "rear": 8907,
  "reason": 8908,
  "reasonable": 8909,
  "reasonably": 8910,
  "reasoning": 8911,
  "reasons": 8912,
  "rebecca": 8913,
  "rebound": 8914,
  "rec": 8915,
  "recall": 8916,
  "receipt": 8917,
  "receipts": 8918,
  "receive": 8919,
  "received": 8920,
  "receiver": 8921,
  "receivers": 8922,
  "receives": 8923,
  "receiving": 8924,
  "recent": 8925,
  "recently": 8926,
  "reception": 8927,
  "receptor": 8928,
  "recipe": 8929,
  "recipes": 8930,
  "recognition": 8931,
  "recognize": 8932,
  "recognized": 8933,
  "recognizes": 8934,
  "recommend": 8935,
  "recommendation": 8936,
  "recommendations": 8937,
  "recommended": 8938,
  "record": 8939,
  "recorded": 8940,
  "recorder": 8941,
  "recording": 8942,
  "records": 8943,
  "recover": 8944,
  "recovered": 8945,
  "recovering": 8946,
  "recovery": 8947,
  "recreation": 8948,
  "recreational": 8949,
  "rectangular": 8950,
  "recycling": 8951,
  "red": 8952,
  "reddish": 8953,
  "redesign": 8954,
  "reds": 8955,
  "reduce": 8956,
  "reduced": 8957,
  "reduces": 8958,
  "reducing": 8959,
  "reduction": 8960,
  "redundant": 8961,
  "redwood": 8962,
  "reed": 8963,
  "reef": 8964,
  "reefs": 8965,
  "reel": 8966,
  "reeves": 8967,
  "ref": 8968,
  "refer": 8969,
  "referee": 8970,
  "reference": 8971,
  "references": 8972,
  "referred": 8973,
  "referring": 8974,
  "refined": 8975,
  "refining": 8976,
  "reflect": 8977,
  "reflected": 8978,
  "reflection": 8979,
  "reflects": 8980,
  "reflex": 8981,
  "reformer": 8982,
  "reforming": 8983,
  "refreshing": 8984,
  "refrigerator": 8985,
  "refugee": 8986,
  "refuse": 8987,
  "reg": 8988,
  "regard": 8989,
  "regarded": 8990,
  "regarding": 8991,
  "regardless": 8992,
  "regards": 8993,
  "regime": 8994,
  "regiment": 8995,
  "region": 8996,
  "regional": 8997,
  "regions": 8998,
  "register": 8999,
  "registered": 9000,
  "registering": 9001,
  "registers": 9002,
  "registration": 9003,
  "regular": 9004,
  "regularly": 9005,
  "regulate": 9006,
  "regulation": 9007,
  "regulations": 9008,
  "rehab": 9009,
  "rehabilitation": 9010,
  "rehearsals": 9011,
  "rei": 9012,
  "reich": 9013,
  "rein": 9014,
  "reinforce": 9015,
  "reinforced": 9016,
  "reinforcement": 9017,
  "reinforcements": 9018,
  "reins": 9019,
  "reject": 9020,
  "rejected": 9021,
  "relate": 9022,
  "related": 9023,
  "relates": 9024,
  "relating": 9025,
  "relation": 9026,
  "relations": 9027,
  "relationship": 9028,
  "relationships": 9029,
  "relative": 9030,
  "relatively": 9031,
  "relax": 9032,
  "relaxation": 9033,
  "relaxed": 9034,
  "relaxing": 9035,
  "release": 9036,
  "released": 9037,
  "releases": 9038,
  "releasing": 9039,
  "relevant": 9040,
  "reliable": 9041,
  "relief": 9042,
  "relies": 9043,
  "relieve": 9044,
  "relieved": 9045,
  "religion": 9046,
  "rely": 9047,
  "relying": 9048,
  "remain": 9049,
  "remaining": 9050,
  "remedy": 9051,
  "remember": 9052,
  "remembering": 9053,
  "remembrance": 9054,
  "remind": 9055,
  "reminder": 9056,
  "reminiscent": 9057,
  "remote": 9058,
  "remotely": 9059,
  "removal": 9060,
  "remove": 9061,
  "removed": 9062,
  "removes": 9063,
  "removing": 9064,
  "render": 9065,
  "rendered": 9066,
  "rendering": 9067,
  "renegade": 9068,
  "renovations": 9069,
  "rent": 9070,
  "rep": 9071,
  "repair": 9072,
  "repaired": 9073,
  "repairing": 9074,
  "repairs": 9075,
  "repeal": 9076,
  "repeat": 9077,
  "repeats": 9078,
  "repertoire": 9079,
  "repetition": 9080,
  "repetitive": 9081,
  "replace": 9082,
  "replaced": 9083,
  "replacement": 9084,
  "replacing": 9085,
  "replay": 9086,
  "replicate": 9087,
  "reply": 9088,
  "report": 9089,
  "reported": 9090,
  "reporter": 9091,
  "reporters": 9092,
  "reporting": 9093,
  "reports": 9094,
  "represent": 9095,
  "representations": 9096,
  "representing": 9097,
  "represents": 9098,
  "reproduce": 9099,
  "reproduction": 9100,
  "reptiles": 9101,
  "republican": 9102,
  "republicans": 9103,
  "reputation": 9104,
  "request": 9105,
  "requesting": 9106,
  "requests": 9107,
  "require": 9108,
  "required": 9109,
  "requirements": 9110,
  "requires": 9111,
  "res": 9112,
  "rescue": 9113,
  "rescued": 9114,
  "rescuing": 9115,
  "research": 9116,
  "researching": 9117,
  "resemble": 9118,
  "resembles": 9119,
  "reservation": 9120,
  "reservations": 9121,
  "reservoir": 9122,
  "reset": 9123,
  "residency": 9124,
  "resident": 9125,
  "residual": 9126,
  "residue": 9127,
  "resin": 9128,
  "resist": 9129,
  "resistance": 9130,
  "resistant": 9131,
  "resisting": 9132,
  "resolution": 9133,
  "resolve": 9134,
  "resolved": 9135,
  "resort": 9136,
  "resource": 9137,
  "resources": 9138,
  "respect": 9139,
  "respectful": 9140,
  "respecting": 9141,
  "respects": 9142,
  "respiratory": 9143,
  "respond": 9144,
  "responding": 9145,
  "responds": 9146,
  "response": 9147,
  "responsibilities": 9148,
  "responsibility": 9149,
  "responsible": 9150,
  "responsive": 9151,
  "rest": 9152,
  "restart": 9153,
  "restaurant": 9154,
  "restaurants": 9155,
  "resting": 9156,
  "restless": 9157,
  "restoration": 9158,
  "restore": 9159,
  "restored": 9160,
  "restoring": 9161,
  "restraint": 9162,
  "restrict": 9163,
  "restrictions": 9164,
  "restrictive": 9165,
  "rests": 9166,
  "result": 9167,
  "resulted": 9168,
  "results": 9169,
  "resume": 9170,
  "retail": 9171,
  "retailer": 9172,
  "retain": 9173,
  "retains": 9174,
  "retention": 9175,
  "retire": 9176,
  "retirement": 9177,
  "retiring": 9178,
  "retreat": 9179,
  "retrieve": 9180,
  "retro": 9181,
  "return": 9182,
  "returning": 9183,
  "reused": 9184,
  "rev": 9185,
  "reveal": 9186,
  "revelation": 9187,
  "revenue": 9188,
  "revenues": 9189,
  "reversal": 9190,
  "reverse": 9191,
  "review": 9192,
  "reviewed": 9193,
  "reviewing": 9194,
  "reviews": 9195,
  "revised": 9196,
  "reward": 9197,
  "rewards": 9198,
  "rex": 9199,
  "rhine": 9200,
  "rhodes": 9201,
  "rhyme": 9202,
  "rhythm": 9203,
  "rhythms": 9204,
  "ri": 9205,
  "rib": 9206,
  "ribbon": 9207,
  "ribs": 9208,
  "ric": 9209,
  "rice": 9210,
  "rich": 9211,
  "richard": 9212,
  "richards": 9213,
  "richardson": 9214,
  "ricky": 9215,
  "rico": 9216,
  "rid": 9217,
  "ridden": 9218,
  "ride": 9219,
  "rider": 9220,
  "riders": 9221,
  "rides": 9222,
  "ridge": 9223,
  "ridges": 9224,
  "riding": 9225,
  "riff": 9226,
  "rigged": 9227,
  "right": 9228,
  "rights": 9229,
  "rigid": 9230,
  "rim": 9231,
  "ring": 9232,
  "ringing": 9233,
  "rings": 9234,
  "rink": 9235,
  "rip": 9236,
  "ripe": 9237,
  "ripped": 9238,
  "ripping": 9239,
  "rise": 9240,
  "risen": 9241,
  "rises": 9242,
  "rising": 9243,
  "risk": 9244,
  "risking": 9245,
  "risky": 9246,
  "rite": 9247,
  "river": 9248,
  "rivers": 9249,
  "ro": 9250,
  "road": 9251,
  "roads": 9252,
  "roam": 9253,
  "roast": 9254,
  "roasted": 9255,
  "rob": 9256,
  "robe": 9257,
  "robert": 9258,
  "robes": 9259,
  "robin": 9260,
  "robinson": 9261,
  "robot": 9262,
  "robust": 9263,
  "rock": 9264,
  "rocker": 9265,
  "rocking": 9266,
  "rocks": 9267,
  "rocky": 9268,
  "rod": 9269,
  "rode": 9270,
  "rodents": 9271,
  "rods": 9272,
  "roger": 9273,
  "role": 9274,
  "roll": 9275,
  "rolled": 9276,
  "roller": 9277,
  "rolling": 9278,
  "rolls": 9279,
  "roman": 9280,
  "romance": 9281,
  "romantic": 9282,
  "rome": 9283,
  "roof": 9284,
  "room": 9285,
  "roommate": 9286,
  "rooms": 9287,
  "root": 9288,
  "rooted": 9289,
  "roots": 9290,
  "rope": 9291,
  "ropes": 9292,
  "rosario": 9293,
  "rose": 9294,
  "rosemary": 9295,
  "rosen": 9296,
  "ross": 9297,
  "rot": 9298,
  "rotate": 9299,
  "rotating": 9300,
  "rotation": 9301,
  "rotational": 9302,
  "roth": 9303,
  "rotor": 9304,
  "rotten": 9305,
  "rotting": 9306,
  "rough": 9307,
  "roughly": 9308,
  "round": 9309,
  "rounded": 9310,
  "rounding": 9311,
  "rounds": 9312,
  "route": 9313,
  "routes": 9314,
  "routine": 9315,
  "routines": 9316,
  "routing": 9317,
  "row": 9318,
  "rows": 9319,
  "roxy": 9320,
  "roy": 9321,
  "royal": 9322,
  "rpm": 9323,
  "ru": 9324,
  "rub": 9325,
  "rubbed": 9326,
  "rubber": 9327,
  "rubbing": 9328,
  "rubble": 9329,
  "ruben": 9330,
  "ruby": 9331,
  "rudder": 9332,
  "rude": 9333,
  "rudy": 9334,
  "rug": 9335,
  "rugged": 9336,
  "ruin": 9337,
  "ruined": 9338,
  "ruins": 9339,
  "rule": 9340,
  "ruler": 9341,
  "rulers": 9342,
  "rules": 9343,
  "rum": 9344,
  "run": 9345,
  "runner": 9346,
  "runners": 9347,
  "running": 9348,
  "runs": 9349,
  "runway": 9350,
  "rush": 9351,
  "rushing": 9352,
  "russ": 9353,
  "russell": 9354,
  "russia": 9355,
  "russian": 9356,
  "rust": 9357,
  "rustic": 9358,
  "ry": 9359,
  "ryan": 9360,
  "s": 9361,
  "sa": 9362,
  "sable": 9363,
  "sabotage": 9364,
  "sabre": 9365,
  "sac": 9366,
  "sack": 9367,
  "sacrifice": 9368,
  "sad": 9369,
  "saddle": 9370,
  "safe": 9371,
  "safely": 9372,
  "safer": 9373,
  "safety": 9374,
  "sage": 9375,
  "sai": 9376,
  "said": 9377,
  "sail": 9378,
  "sailor": 9379,
  "sake": 9380,
  "sal": 9381,
  "salad": 9382,
  "salary": 9383,
  "sale": 9384,
  "sales": 9385,
  "salesman": 9386,
  "saliva": 9387,
  "sally": 9388,
  "salmon": 9389,
  "salon": 9390,
  "salsa": 9391,
  "salt": 9392,
  "salty": 9393,
  "salvage": 9394,
  "same": 9395,
  "sample": 9396,
  "samples": 9397,
  "san": 9398,
  "sanctuary": 9399,
  "sand": 9400,
  "sanders": 9401,
  "sandwich": 9402,
  "sandwiches": 9403,
  "sandy": 9404,
  "sanitary": 9405,
  "sans": 9406,
  "sanskrit": 9407,
  "sap": 9408,
  "sar": 9409,
  "sara": 9410,
  "sarah": 9411,
  "saratoga": 9412,
  "sat": 9413,
  "satellite": 9414,
  "satin": 9415,
  "satisfaction": 9416,
  "satisfied": 9417,
  "satisfying": 9418,
  "sato": 9419,
  "saturated": 9420,
  "saturday": 9421,
  "saturn": 9422,
  "sauce": 9423,
  "sausage": 9424,
  "savage": 9425,
  "save": 9426,
  "saved": 9427,
  "saving": 9428,
  "savings": 9429,
  "savior": 9430,
  "saw": 9431,
  "saxophone": 9432,
  "say": 9433,
  "saying": 9434,
  "says": 9435,
  "sc": 9436,
  "scale": 9437,
  "scaled": 9438,
  "scales": 9439,
  "scalp": 9440,
  "scan": 9441,
  "scar": 9442,
  "scarce": 9443,
  "scare": 9444,
  "scared": 9445,
  "scarf": 9446,
  "scary": 9447,
  "scattered": 9448,
  "scenario": 9449,
  "scenarios": 9450,
  "scene": 9451,
  "scenery": 9452,
  "scenes": 9453,
  "scent": 9454,
  "scents": 9455,
  "schedule": 9456,
  "scheduled": 9457,
  "scheduling": 9458,
  "scheme": 9459,
  "schizophrenia": 9460,
  "schmidt": 9461,
  "schneider": 9462,
  "school": 9463,
  "schoolhouse": 9464,
  "schooling": 9465,
  "schools": 9466,
  "sci": 9467,
  "science": 9468,
  "sciences": 9469,
  "scientific": 9470,
  "scientist": 9471,
  "scientists": 9472,
  "scissors": 9473,
  "scoop": 9474,
  "scooped": 9475,
  "scope": 9476,
  "score": 9477,
  "scored": 9478,
  "scorer": 9479,
  "scores": 9480,
  "scoring": 9481,
  "scotch": 9482,
  "scott": 9483,
  "scramble": 9484,
  "scrambling": 9485,
  "scrap": 9486,
  "scrape": 9487,
  "scraped": 9488,
  "scraping": 9489,
  "scratch": 9490,
  "scratched": 9491,
  "scratches": 9492,
  "scratching": 9493,
  "scream": 9494,
  "screaming": 9495,
  "screen": 9496,
  "screenplay": 9497,
  "screens": 9498,
  "screw": 9499,
  "screwed": 9500,
  "screwing": 9501,
  "scribe": 9502,
  "script": 9503,
  "scroll": 9504,
  "scrolling": 9505,
  "scrub": 9506,
  "sculpture": 9507,
  "sculptures": 9508,
  "se": 9509,
  "sea": 9510,
  "seafood": 9511,
  "seal": 9512,
  "sealed": 9513,
  "sealing": 9514,
  "seals": 9515,
  "seam": 9516,
  "sean": 9517,
  "search": 9518,
  "seas": 9519,
  "seaside": 9520,
  "season": 9521,
  "seasons": 9522,
  "seat": 9523,
  "seated": 9524,
  "seating": 9525,
  "seats": 9526,
  "sec": 9527,
  "second": 9528,
  "secondary": 9529,
  "secondly": 9530,
  "seconds": 9531,
  "secret": 9532,
  "secretive": 9533,
  "secrets": 9534,
  "section": 9535,
  "sections": 9536,
  "secure": 9537,
  "secured": 9538,
  "securely": 9539,
  "securing": 9540,
  "security": 9541,
  "sediment": 9542,
  "see": 9543,
  "seed": 9544,
  "seeds": 9545,
  "seeing": 9546,
  "seek": 9547,
  "seem": 9548,
  "seems": 9549,
  "seen": 9550,
  "sees": 9551,
  "segment": 9552,
  "segments": 9553,
  "select": 9554,
  "selected": 9555,
  "selecting": 9556,
  "selection": 9557,
  "selections": 9558,
  "selector": 9559,
  "selects": 9560,
  "self": 9561,
  "sell": 9562,
  "seller": 9563,
  "selling": 9564,
  "sells": 9565,
  "semantics": 9566,
  "semester": 9567,
  "semi": 9568,
  "seminal": 9569,
  "seminars": 9570,
  "sen": 9571,
  "send": 9572,
  "sending": 9573,
  "senior": 9574,
  "sense": 9575,
  "senses": 9576,
  "sensing": 9577,
  "sensitive": 9578,
  "sensitivity": 9579,
  "sensor": 9580,
  "sensors": 9581,
  "sensory": 9582,
  "sent": 9583,
  "sentinel": 9584,
  "separate": 9585,
  "separated": 9586,
  "separately": 9587,
  "separating": 9588,
  "separation": 9589,
  "sequence": 9590,
  "sequences": 9591,
  "sequencing": 9592,
  "sequential": 9593,
  "ser": 9594,
  "serial": 9595,
  "series": 9596,
  "serious": 9597,
  "seriously": 9598,
  "serpent": 9599,
  "serra": 9600,
  "serum": 9601,
  "serve": 9602,
  "served": 9603,
  "server": 9604,
  "serves": 9605,
  "service": 9606,
  "services": 9607,
  "serving": 9608,
  "session": 9609,
  "sessions": 9610,
  "set": 9611,
  "sets": 9612,
  "setting": 9613,
  "settings": 9614,
  "settle": 9615,
  "settled": 9616,
  "settlers": 9617,
  "settles": 9618,
  "setup": 9619,
  "seven": 9620,
  "sevens": 9621,
  "seventeen": 9622,
  "seventies": 9623,
  "seventy": 9624,
  "several": 9625,
  "severe": 9626,
  "severed": 9627,
  "severely": 9628,
  "sewer": 9629,
  "sewing": 9630,
  "sex": 9631,
  "sexes": 9632,
  "sexual": 9633,
  "sexuality": 9634,
  "sexy": 9635,
  "sf": 9636,
  "sh": 9637,
  "sha": 9638,
  "shack": 9639,
  "shade": 9640,
  "shaded": 9641,
  "shades": 9642,
  "shadow": 9643,
  "shadows": 9644,
  "shady": 9645,
  "shaft": 9646,
  "shafts": 9647,
  "shaggy": 9648,
  "shake": 9649,
  "shaken": 9650,
  "shakes": 9651,
  "shakespeare": 9652,
  "shaking": 9653,
  "shall": 9654,
  "shallow": 9655,
  "sham": 9656,
  "shan": 9657,
  "shannon": 9658,
  "shape": 9659,
  "shaped": 9660,
  "shapes": 9661,
  "shaping": 9662,
  "share": 9663,
  "sharing": 9664,
  "shark": 9665,
  "sharks": 9666,
  "sharp": 9667,
  "sharpe": 9668,
  "shaun": 9669,
  "shave": 9670,
  "shawn": 9671,
  "she": 9672,
  "shear": 9673,
  "sheath": 9674,
  "shed": 9675,
  "sheds": 9676,
  "sheen": 9677,
  "sheer": 9678,
  "sheet": 9679,
  "sheets": 9680,
  "shelf": 9681,
  "shell": 9682,
  "shells": 9683,
  "shelly": 9684,
  "shelter": 9685,
  "shelves": 9686,
  "shepherd": 9687,
  "sherry": 9688,
  "shi": 9689,
  "shield": 9690,
  "shielding": 9691,
  "shift": 9692,
  "shifter": 9693,
  "shifting": 9694,
  "shifts": 9695,
  "shin": 9696,
  "shine": 9697,
  "shining": 9698,
  "shiny": 9699,
  "ship": 9700,
  "shipment": 9701,
  "shirt": 9702,
  "shirts": 9703,
  "shit": 9704,
  "shiva": 9705,
  "sho": 9706,
  "shock": 9707,
  "shoe": 9708,
  "shoes": 9709,
  "shoot": 9710,
  "shooter": 9711,
  "shooting": 9712,
  "shoots": 9713,
  "shop": 9714,
  "shopping": 9715,
  "shops": 9716,
  "shore": 9717,
  "shoreline": 9718,
  "short": 9719,
  "shorter": 9720,
  "shortly": 9721,
  "shorts": 9722,
  "shortstop": 9723,
  "shot": 9724,
  "shotgun": 9725,
  "shots": 9726,
  "should": 9727,
  "shoulder": 9728,
  "shouldered": 9729,
  "shoulders": 9730,
  "shouldn": 9731,
  "shout": 9732,
  "shouting": 9733,
  "shove": 9734,
  "shovel": 9735,
  "show": 9736,
  "showcases": 9737,
  "showed": 9738,
  "shower": 9739,
  "showers": 9740,
  "showing": 9741,
  "shown": 9742,
  "shows": 9743,
  "shredded": 9744,
  "shriek": 9745,
  "shrimp": 9746,
  "shrink": 9747,
  "shrinking": 9748,
  "shrub": 9749,
  "shrug": 9750,
  "shrugged": 9751,
  "shu": 9752,
  "shuffle": 9753,
  "shuffled": 9754,
  "shuffling": 9755,
  "shut": 9756,
  "shutter": 9757,
  "shy": 9758,
  "si": 9759,
  "sicilian": 9760,
  "sick": 9761,
  "sid": 9762,
  "side": 9763,
  "sided": 9764,
  "sidekick": 9765,
  "sides": 9766,
  "sidewalk": 9767,
  "sideways": 9768,
  "siding": 9769,
  "sigh": 9770,
  "sighs": 9771,
  "sight": 9772,
  "sighting": 9773,
  "sights": 9774,
  "sign": 9775,
  "signal": 9776,
  "signaling": 9777,
  "signals": 9778,
  "signature": 9779,
  "signed": 9780,
  "significant": 9781,
  "significantly": 9782,
  "signing": 9783,
  "signs": 9784,
  "silence": 9785,
  "silent": 9786,
  "silhouette": 9787,
  "silicon": 9788,
  "silk": 9789,
  "silky": 9790,
  "silly": 9791,
  "silver": 9792,
  "sim": 9793,
  "similar": 9794,
  "similarly": 9795,
  "simone": 9796,
  "simple": 9797,
  "simpler": 9798,
  "simplified": 9799,
  "simply": 9800,
  "simulate": 9801,
  "simultaneous": 9802,
  "sin": 9803,
  "since": 9804,
  "sincere": 9805,
  "sincerity": 9806,
  "sing": 9807,
  "singer": 9808,
  "singing": 9809,
  "single": 9810,
  "singled": 9811,
  "singles": 9812,
  "sings": 9813,
  "sink": 9814,
  "sinks": 9815,
  "sins": 9816,
  "sip": 9817,
  "sipped": 9818,
  "sir": 9819,
  "sister": 9820,
  "sit": 9821,
  "sitcom": 9822,
  "site": 9823,
  "sites": 9824,
  "sits": 9825,
  "sitting": 9826,
  "situated": 9827,
  "situation": 9828,
  "situations": 9829,
  "six": 9830,
  "sixteen": 9831,
  "sixteenth": 9832,
  "sixth": 9833,
  "sixty": 9834,
  "size": 9835,
  "sized": 9836,
  "sizes": 9837,
  "sk": 9838,
  "skate": 9839,
  "skating": 9840,
  "sketch": 9841,
  "sketches": 9842,
  "ski": 9843,
  "skiing": 9844,
  "skill": 9845,
  "skilled": 9846,
  "skills": 9847,
  "skin": 9848,
  "skinned": 9849,
  "skinny": 9850,
  "skins": 9851,
  "skip": 9852,
  "skipped": 9853,
  "skipping": 9854,
  "skirt": 9855,
  "skirts": 9856,
  "skull": 9857,
  "skulls": 9858,
  "sky": 9859,
  "skyline": 9860,
  "sl": 9861,
  "slab": 9862,
  "slabs": 9863,
  "slack": 9864,
  "slalom": 9865,
  "slam": 9866,
  "slamming": 9867,
  "slant": 9868,
  "slap": 9869,
  "slapping": 9870,
  "slash": 9871,
  "slate": 9872,
  "slaughter": 9873,
  "slave": 9874,
  "sleek": 9875,
  "sleep": 9876,
  "sleeper": 9877,
  "sleeping": 9878,
  "sleepy": 9879,
  "sleeve": 9880,
  "sleeves": 9881,
  "slender": 9882,
  "slice": 9883,
  "sliced": 9884,
  "slices": 9885,
  "slicing": 9886,
  "slick": 9887,
  "slid": 9888,
  "slide": 9889,
  "slides": 9890,
  "sliding": 9891,
  "slight": 9892,
  "slightest": 9893,
  "slightly": 9894,
  "slim": 9895,
  "sling": 9896,
  "slip": 9897,
  "slipped": 9898,
  "slippery": 9899,
  "slipping": 9900,
  "slips": 9901,
  "slit": 9902,
  "slits": 9903,
  "slogan": 9904,
  "slope": 9905,
  "sloping": 9906,
  "sloppy": 9907,
  "slot": 9908,
  "slots": 9909,
  "slow": 9910,
  "slower": 9911,
  "slowing": 9912,
  "slowly": 9913,
  "slug": 9914,
  "slump": 9915,
  "slumped": 9916,
  "sm": 9917,
  "smack": 9918,
  "small": 9919,
  "smaller": 9920,
  "smallest": 9921,
  "smart": 9922,
  "smash": 9923,
  "smell": 9924,
  "smelling": 9925,
  "smells": 9926,
  "smile": 9927,
  "smiles": 9928,
  "smiling": 9929,
  "smith": 9930,
  "smoke": 9931,
  "smoked": 9932,
  "smoking": 9933,
  "smoky": 9934,
  "smooth": 9935,
  "smoothed": 9936,
  "smoothing": 9937,
  "smoothly": 9938,
  "snack": 9939,
  "snacks": 9940,
  "snail": 9941,
  "snails": 9942,
  "snake": 9943,
  "snakes": 9944,
  "snap": 9945,
  "snapped": 9946,
  "snapping": 9947,
  "snaps": 9948,
  "snatch": 9949,
  "sneak": 9950,
  "sneaking": 9951,
  "sniff": 9952,
  "sniffing": 9953,
  "snout": 9954,
  "snow": 9955,
  "snowy": 9956,
  "so": 9957,
  "soaked": 9958,
  "soaking": 9959,
  "soap": 9960,
  "soc": 9961,
  "soccer": 9962,
  "social": 9963,
  "societies": 9964,
  "society": 9965,
  "sock": 9966,
  "socket": 9967,
  "socks": 9968,
  "soda": 9969,
  "sofa": 9970,
  "soft": 9971,
  "softened": 9972,
  "softer": 9973,
  "softness": 9974,
  "software": 9975,
  "soil": 9976,
  "soils": 9977,
  "sol": 9978,
  "solar": 9979,
  "sold": 9980,
  "soldiers": 9981,
  "sole": 9982,
  "solely": 9983,
  "solid": 9984,
  "solids": 9985,
  "soluble": 9986,
  "solution": 9987,
  "solutions": 9988,
  "solve": 9989,
  "solved": 9990,
  "solvent": 9991,
  "solving": 9992,
  "some": 9993,
  "somebody": 9994,
  "somehow": 9995,
  "someone": 9996,
  "someplace": 9997,
  "something": 9998,
  "sometime": 9999,
  "sometimes": 10000,
  "somewhat": 10001,
  "somewhere": 10002,
  "somme": 10003,
  "son": 10004,
  "song": 10005,
  "sonia": 10006,
  "soon": 10007,
  "sooner": 10008,
  "soothe": 10009,
  "soothing": 10010,
  "sophia": 10011,
  "sore": 10012,
  "sorority": 10013,
  "sorry": 10014,
  "sort": 10015,
  "sorted": 10016,
  "sorts": 10017,
  "soul": 10018,
  "sound": 10019,
  "sounding": 10020,
  "sounds": 10021,
  "soup": 10022,
  "sour": 10023,
  "source": 10024,
  "sources": 10025,
  "south": 10026,
  "southern": 10027,
  "sox": 10028,
  "soy": 10029,
  "sp": 10030,
  "spa": 10031,
  "space": 10032,
  "spaces": 10033,
  "spade": 10034,
  "spaghetti": 10035,
  "span": 10036,
  "spanish": 10037,
  "spare": 10038,
  "spark": 10039,
  "sparked": 10040,
  "sparkle": 10041,
  "sparkling": 10042,
  "sparks": 10043,
  "sparse": 10044,
  "spat": 10045,
  "spd": 10046,
  "speak": 10047,
  "speaker": 10048,
  "speakers": 10049,
  "speaking": 10050,
  "speaks": 10051,
  "spec": 10052,
  "special": 10053,
  "specialist": 10054,
  "specialized": 10055,
  "specializes": 10056,
  "specially": 10057,
  "specialty": 10058,
  "species": 10059,
  "specific": 10060,
  "specifically": 10061,
  "specified": 10062,
  "spectacular": 10063,
  "spectator": 10064,
  "spectrum": 10065,
  "speech": 10066,
  "speeches": 10067,
  "speed": 10068,
  "speeding": 10069,
  "speeds": 10070,
  "speedy": 10071,
  "spell": 10072,
  "spelled": 10073,
  "spells": 10074,
  "spend": 10075,
  "spending": 10076,
  "spent": 10077,
  "sphere": 10078,
  "spice": 10079,
  "spices": 10080,
  "spicy": 10081,
  "spider": 10082,
  "spike": 10083,
  "spikes": 10084,
  "spill": 10085,
  "spin": 10086,
  "spinal": 10087,
  "spine": 10088,
  "spinning": 10089,
  "spins": 10090,
  "spiral": 10091,
  "spirit": 10092,
  "spirits": 10093,
  "spiritual": 10094,
  "spirituality": 10095,
  "spit": 10096,
  "splash": 10097,
  "splashed": 10098,
  "split": 10099,
  "splits": 10100,
  "spoil": 10101,
  "spoke": 10102,
  "spoken": 10103,
  "spokesperson": 10104,
  "sponge": 10105,
  "sponsor": 10106,
  "sponsors": 10107,
  "sponsorship": 10108,
  "spoon": 10109,
  "sporadic": 10110,
  "sport": 10111,
  "sporting": 10112,
  "sports": 10113,
  "spot": 10114,
  "spotlight": 10115,
  "spots": 10116,
  "spotted": 10117,
  "spotting": 10118,
  "spouse": 10119,
  "spray": 10120,
  "sprayed": 10121,
  "spraying": 10122,
  "spread": 10123,
  "spreading": 10124,
  "spring": 10125,
  "springfield": 10126,
  "springs": 10127,
  "sprint": 10128,
  "spruce": 10129,
  "spy": 10130,
  "sq": 10131,
  "squad": 10132,
  "squads": 10133,
  "square": 10134,
  "squared": 10135,
  "squares": 10136,
  "squash": 10137,
  "squat": 10138,
  "squeak": 10139,
  "squeeze": 10140,
  "squeezing": 10141,
  "squirrels": 10142,
  "sri": 10143,
  "ss": 10144,
  "st": 10145,
  "stab": 10146,
  "stabbing": 10147,
  "stability": 10148,
  "stabilization": 10149,
  "stabilize": 10150,
  "stabilized": 10151,
  "stable": 10152,
  "stack": 10153,
  "stacked": 10154,
  "stadiums": 10155,
  "staff": 10156,
  "stage": 10157,
  "stages": 10158,
  "staggered": 10159,
  "staging": 10160,
  "stain": 10161,
  "stained": 10162,
  "stainless": 10163,
  "stains": 10164,
  "stair": 10165,
  "staircase": 10166,
  "stairs": 10167,
  "stake": 10168,
  "stakes": 10169,
  "stalk": 10170,
  "stalks": 10171,
  "stall": 10172,
  "stamp": 10173,
  "stamped": 10174,
  "stamps": 10175,
  "stan": 10176,
  "stance": 10177,
  "stand": 10178,
  "standalone": 10179,
  "standard": 10180,
  "standardized": 10181,
  "standards": 10182,
  "standing": 10183,
  "stands": 10184,
  "stanley": 10185,
  "staple": 10186,
  "staples": 10187,
  "star": 10188,
  "stare": 10189,
  "staring": 10190,
  "stars": 10191,
  "start": 10192,
  "started": 10193,
  "starter": 10194,
  "starters": 10195,
  "starting": 10196,
  "startled": 10197,
  "starts": 10198,
  "stat": 10199,
  "state": 10200,
  "stated": 10201,
  "statement": 10202,
  "statements": 10203,
  "states": 10204,
  "static": 10205,
  "station": 10206,
  "stationary": 10207,
  "stations": 10208,
  "stats": 10209,
  "status": 10210,
  "staunch": 10211,
  "stay": 10212,
  "stayed": 10213,
  "staying": 10214,
  "stays": 10215,
  "ste": 10216,
  "steady": 10217,
  "steak": 10218,
  "steal": 10219,
  "steam": 10220,
  "steamed": 10221,
  "steamer": 10222,
  "steaming": 10223,
  "steel": 10224,
  "steep": 10225,
  "steer": 10226,
  "steering": 10227,
  "stellar": 10228,
  "stem": 10229,
  "stemming": 10230,
  "stems": 10231,
  "step": 10232,
  "stepped": 10233,
  "stepping": 10234,
  "steps": 10235,
  "stereo": 10236,
  "sterile": 10237,
  "sterling": 10238,
  "stern": 10239,
  "steve": 10240,
  "steven": 10241,
  "stevie": 10242,
  "stewart": 10243,
  "stick": 10244,
  "sticking": 10245,
  "sticks": 10246,
  "sticky": 10247,
  "stiff": 10248,
  "still": 10249,
  "stimulate": 10250,
  "stimulated": 10251,
  "stimulating": 10252,
  "stimulation": 10253,
  "sting": 10254,
  "stinging": 10255,
  "stink": 10256,
  "stir": 10257,
  "stirred": 10258,
  "stirring": 10259,
  "stitch": 10260,
  "stitches": 10261,
  "stock": 10262,
  "stocked": 10263,
  "stockings": 10264,
  "stomach": 10265,
  "stone": 10266,
  "stones": 10267,
  "stood": 10268,
  "stool": 10269,
  "stop": 10270,
  "stopped": 10271,
  "stopping": 10272,
  "stops": 10273,
  "storage": 10274,
  "store": 10275,
  "stored": 10276,
  "stores": 10277,
  "stories": 10278,
  "storm": 10279,
  "story": 10280,
  "storytelling": 10281,
  "stove": 10282,
  "straight": 10283,
  "straighten": 10284,
  "straightened": 10285,
  "straightening": 10286,
  "strain": 10287,
  "strained": 10288,
  "straining": 10289,
  "strains": 10290,
  "strand": 10291,
  "stranded": 10292,
  "strands": 10293,
  "strange": 10294,
  "strangely": 10295,
  "stranger": 10296,
  "strangers": 10297,
  "strap": 10298,
  "straps": 10299,
  "strategies": 10300,
  "strategy": 10301,
  "straw": 10302,
  "stray": 10303,
  "streak": 10304,
  "streaks": 10305,
  "stream": 10306,
  "streaming": 10307,
  "streamlined": 10308,
  "streams": 10309,
  "street": 10310,
  "streets": 10311,
  "strength": 10312,
  "strengthen": 10313,
  "strengthened": 10314,
  "strengthening": 10315,
  "stress": 10316,
  "stressed": 10317,
  "stretch": 10318,
  "stretched": 10319,
  "stretches": 10320,
  "stretching": 10321,
  "strict": 10322,
  "strictly": 10323,
  "strike": 10324,
  "striker": 10325,
  "strikes": 10326,
  "striking": 10327,
  "string": 10328,
  "strings": 10329,
  "strip": 10330,
  "stripe": 10331,
  "stripes": 10332,
  "stripped": 10333,
  "stripping": 10334,
  "strips": 10335,
  "stroke": 10336,
  "strokes": 10337,
  "stroking": 10338,
  "stroll": 10339,
  "strong": 10340,
  "stronger": 10341,
  "strongest": 10342,
  "strongly": 10343,
  "struck": 10344,
  "structural": 10345,
  "structure": 10346,
  "structures": 10347,
  "struggle": 10348,
  "struggling": 10349,
  "strung": 10350,
  "stu": 10351,
  "stubborn": 10352,
  "stuck": 10353,
  "stud": 10354,
  "student": 10355,
  "students": 10356,
  "studied": 10357,
  "studies": 10358,
  "studio": 10359,
  "studios": 10360,
  "study": 10361,
  "studying": 10362,
  "stuff": 10363,
  "stuffed": 10364,
  "stuffing": 10365,
  "stump": 10366,
  "stung": 10367,
  "stunt": 10368,
  "stunts": 10369,
  "stupid": 10370,
  "sturdy": 10371,
  "style": 10372,
  "styled": 10373,
  "styles": 10374,
  "styling": 10375,
  "su": 10376,
  "sub": 10377,
  "subdued": 10378,
  "subject": 10379,
  "subjected": 10380,
  "subjective": 10381,
  "subjects": 10382,
  "submarine": 10383,
  "submit": 10384,
  "subscription": 10385,
  "subsequently": 10386,
  "subsidy": 10387,
  "substance": 10388,
  "substantially": 10389,
  "substrate": 10390,
  "subtle": 10391,
  "suburban": 10392,
  "subway": 10393,
  "succeed": 10394,
  "success": 10395,
  "successful": 10396,
  "successfully": 10397,
  "succession": 10398,
  "successive": 10399,
  "such": 10400,
  "suck": 10401,
  "sucked": 10402,
  "sucker": 10403,
  "sucking": 10404,
  "sucks": 10405,
  "sud": 10406,
  "sudden": 10407,
  "suddenly": 10408,
  "sue": 10409,
  "sued": 10410,
  "suffer": 10411,
  "suffering": 10412,
  "sufficient": 10413,
  "sugar": 10414,
  "suggest": 10415,
  "suggested": 10416,
  "suggestion": 10417,
  "suggestions": 10418,
  "suggests": 10419,
  "suicide": 10420,
  "suit": 10421,
  "suitable": 10422,
  "suitcase": 10423,
  "suite": 10424,
  "suited": 10425,
  "suits": 10426,
  "sul": 10427,
  "sum": 10428,
  "summer": 10429,
  "summon": 10430,
  "sumo": 10431,
  "sums": 10432,
  "sun": 10433,
  "sunday": 10434,
  "sung": 10435,
  "sunglasses": 10436,
  "sunk": 10437,
  "sunlight": 10438,
  "sunni": 10439,
  "sunny": 10440,
  "suns": 10441,
  "sunset": 10442,
  "sunshine": 10443,
  "super": 10444,
  "superb": 10445,
  "superhero": 10446,
  "superman": 10447,
  "supermarkets": 10448,
  "supervised": 10449,
  "supervision": 10450,
  "supper": 10451,
  "supplement": 10452,
  "supplements": 10453,
  "supplied": 10454,
  "suppliers": 10455,
  "supplies": 10456,
  "supply": 10457,
  "support": 10458,
  "supported": 10459,
  "supporting": 10460,
  "supportive": 10461,
  "supports": 10462,
  "suppose": 10463,
  "supposed": 10464,
  "sur": 10465,
  "sure": 10466,
  "surely": 10467,
  "surf": 10468,
  "surface": 10469,
  "surfaces": 10470,
  "surfing": 10471,
  "surgeon": 10472,
  "surgery": 10473,
  "surgical": 10474,
  "surprise": 10475,
  "surprised": 10476,
  "surprises": 10477,
  "surrender": 10478,
  "surround": 10479,
  "surrounding": 10480,
  "surroundings": 10481,
  "surrounds": 10482,
  "survey": 10483,
  "surveying": 10484,
  "survival": 10485,
  "survive": 10486,
  "surviving": 10487,
  "susan": 10488,
  "susceptible": 10489,
  "suspect": 10490,
  "suspects": 10491,
  "suspended": 10492,
  "suspension": 10493,
  "sustain": 10494,
  "suv": 10495,
  "sw": 10496,
  "swamp": 10497,
  "swamps": 10498,
  "swan": 10499,
  "swans": 10500,
  "swap": 10501,
  "swarm": 10502,
  "swat": 10503,
  "sweat": 10504,
  "sweater": 10505,
  "sweaty": 10506,
  "sweep": 10507,
  "sweeping": 10508,
  "sweet": 10509,
  "sweetness": 10510,
  "swell": 10511,
  "swelling": 10512,
  "swept": 10513,
  "swift": 10514,
  "swim": 10515,
  "swimmer": 10516,
  "swimming": 10517,
  "swing": 10518,
  "swinging": 10519,
  "swings": 10520,
  "swirl": 10521,
  "swirling": 10522,
  "swiss": 10523,
  "switch": 10524,
  "switched": 10525,
  "switches": 10526,
  "switching": 10527,
  "switzerland": 10528,
  "sword": 10529,
  "swung": 10530,
  "sy": 10531,
  "sylvia": 10532,
  "symbol": 10533,
  "symbolic": 10534,
  "symbols": 10535,
  "symmetric": 10536,
  "symmetrical": 10537,
  "symmetry": 10538,
  "sympathetic": 10539,
  "symphony": 10540,
  "symptoms": 10541,
  "syn": 10542,
  "sync": 10543,
  "syndrome": 10544,
  "synthetic": 10545,
  "syrup": 10546,
  "system": 10547,
  "systems": 10548,
  "t": 10549,
  "ta": 10550,
  "tab": 10551,
  "table": 10552,
  "tables": 10553,
  "tablet": 10554,
  "tack": 10555,
  "tackle": 10556,
  "tackles": 10557,
  "tactic": 10558,
  "tactical": 10559,
  "tactics": 10560,
  "tad": 10561,
  "taekwondo": 10562,
  "tag": 10563,
  "tagged": 10564,
  "tags": 10565,
  "tai": 10566,
  "tail": 10567,
  "tailed": 10568,
  "tailor": 10569,
  "tailored": 10570,
  "tails": 10571,
  "tainted": 10572,
  "take": 10573,
  "taken": 10574,
  "takes": 10575,
  "taking": 10576,
  "tale": 10577,
  "talent": 10578,
  "talents": 10579,
  "tales": 10580,
  "talk": 10581,
  "talked": 10582,
  "talking": 10583,
  "talks": 10584,
  "tall": 10585,
  "taller": 10586,
  "tally": 10587,
  "tam": 10588,
  "tame": 10589,
  "tampa": 10590,
  "tan": 10591,
  "tandem": 10592,
  "tang": 10593,
  "tangle": 10594,
  "tangled": 10595,
  "tango": 10596,
  "tank": 10597,
  "tanks": 10598,
  "tanned": 10599,
  "tanner": 10600,
  "tanzania": 10601,
  "tap": 10602,
  "tape": 10603,
  "taped": 10604,
  "tapes": 10605,
  "tapestry": 10606,
  "tapped": 10607,
  "tapping": 10608,
  "taps": 10609,
  "tar": 10610,
  "target": 10611,
  "targeted": 10612,
  "targeting": 10613,
  "targets": 10614,
  "task": 10615,
  "tasks": 10616,
  "taste": 10617,
  "tasted": 10618,
  "tastes": 10619,
  "tasting": 10620,
  "tattoo": 10621,
  "tattoos": 10622,
  "tau": 10623,
  "taught": 10624,
  "taut": 10625,
  "taxi": 10626,
  "taxonomic": 10627,
  "te": 10628,
  "tea": 10629,
  "teach": 10630,
  "teacher": 10631,
  "teachers": 10632,
  "teaches": 10633,
  "teaching": 10634,
  "team": 10635,
  "teammate": 10636,
  "teammates": 10637,
  "teams": 10638,
  "tear": 10639,
  "tearing": 10640,
  "tears": 10641,
  "tease": 10642,
  "teasing": 10643,
  "tech": 10644,
  "technical": 10645,
  "technically": 10646,
  "technician": 10647,
  "technicians": 10648,
  "technique": 10649,
  "techniques": 10650,
  "technological": 10651,
  "technology": 10652,
  "ted": 10653,
  "teddy": 10654,
  "tee": 10655,
  "teeth": 10656,
  "tel": 10657,
  "telegraph": 10658,
  "telephone": 10659,
  "telescope": 10660,
  "telescopes": 10661,
  "television": 10662,
  "tell": 10663,
  "telling": 10664,
  "tells": 10665,
  "temper": 10666,
  "temperament": 10667,
  "temperature": 10668,
  "temperatures": 10669,
  "tempered": 10670,
  "template": 10671,
  "temple": 10672,
  "tempo": 10673,
  "temporarily": 10674,
  "temporary": 10675,
  "tempted": 10676,
  "ten": 10677,
  "tend": 10678,
  "tended": 10679,
  "tendency": 10680,
  "tender": 10681,
  "tenderness": 10682,
  "tends": 10683,
  "tennis": 10684,
  "tens": 10685,
  "tense": 10686,
  "tension": 10687,
  "tent": 10688,
  "tents": 10689,
  "tequila": 10690,
  "ter": 10691,
  "term": 10692,
  "terminal": 10693,
  "terminals": 10694,
  "terminology": 10695,
  "terms": 10696,
  "terra": 10697,
  "terrain": 10698,
  "terrible": 10699,
  "terribly": 10700,
  "terrifying": 10701,
  "terry": 10702,
  "test": 10703,
  "tested": 10704,
  "testing": 10705,
  "tests": 10706,
  "texas": 10707,
  "text": 10708,
  "texts": 10709,
  "texture": 10710,
  "textures": 10711,
  "th": 10712,
  "tha": 10713,
  "thai": 10714,
  "thailand": 10715,
  "than": 10716,
  "thank": 10717,
  "thanked": 10718,
  "thanks": 10719,
  "thanksgiving": 10720,
  "that": 10721,
  "the": 10722,
  "theater": 10723,
  "theatrical": 10724,
  "thee": 10725,
  "their": 10726,
  "theirs": 10727,
  "them": 10728,
  "theme": 10729,
  "themed": 10730,
  "themes": 10731,
  "themselves": 10732,
  "then": 10733,
  "theoretical": 10734,
  "theoretically": 10735,
  "theory": 10736,
  "therapeutic": 10737,
  "therapist": 10738,
  "therapy": 10739,
  "there": 10740,
  "thereafter": 10741,
  "thereby": 10742,
  "therefore": 10743,
  "thermal": 10744,
  "these": 10745,
  "they": 10746,
  "thick": 10747,
  "thicker": 10748,
  "thickness": 10749,
  "thief": 10750,
  "thigh": 10751,
  "thighs": 10752,
  "thin": 10753,
  "thing": 10754,
  "things": 10755,
  "think": 10756,
  "thinking": 10757,
  "thinks": 10758,
  "thinner": 10759,
  "third": 10760,
  "thirds": 10761,
  "thirsty": 10762,
  "thirteen": 10763,
  "thirteenth": 10764,
  "thirty": 10765,
  "this": 10766,
  "thong": 10767,
  "thor": 10768,
  "thorn": 10769,
  "thorough": 10770,
  "thoroughly": 10771,
  "those": 10772,
  "though": 10773,
  "thought": 10774,
  "thoughts": 10775,
  "thousand": 10776,
  "thousands": 10777,
  "thrash": 10778,
  "thread": 10779,
  "threaded": 10780,
  "threads": 10781,
  "threat": 10782,
  "threatened": 10783,
  "threatening": 10784,
  "three": 10785,
  "threshold": 10786,
  "threw": 10787,
  "thrill": 10788,
  "throat": 10789,
  "throttle": 10790,
  "through": 10791,
  "throughout": 10792,
  "throw": 10793,
  "throwing": 10794,
  "thrown": 10795,
  "throws": 10796,
  "thru": 10797,
  "thrust": 10798,
  "thrusts": 10799,
  "thumb": 10800,
  "thumbs": 10801,
  "thunder": 10802,
  "thursday": 10803,
  "thus": 10804,
  "thy": 10805,
  "thyroid": 10806,
  "ti": 10807,
  "tick": 10808,
  "ticket": 10809,
  "tickets": 10810,
  "tide": 10811,
  "tidy": 10812,
  "tie": 10813,
  "tied": 10814,
  "ties": 10815,
  "tiffany": 10816,
  "tiger": 10817,
  "tigers": 10818,
  "tight": 10819,
  "tighten": 10820,
  "tightened": 10821,
  "tightening": 10822,
  "tighter": 10823,
  "tightly": 10824,
  "til": 10825,
  "tile": 10826,
  "tiles": 10827,
  "till": 10828,
  "tilt": 10829,
  "tilted": 10830,
  "tilting": 10831,
  "tim": 10832,
  "time": 10833,
  "timed": 10834,
  "timely": 10835,
  "timer": 10836,
  "times": 10837,
  "timing": 10838,
  "tin": 10839,
  "tina": 10840,
  "tingle": 10841,
  "tingling": 10842,
  "tinted": 10843,
  "tiny": 10844,
  "tip": 10845,
  "tipping": 10846,
  "tips": 10847,
  "tire": 10848,
  "tired": 10849,
  "tires": 10850,
  "tis": 10851,
  "tissue": 10852,
  "tissues": 10853,
  "title": 10854,
  "titled": 10855,
  "to": 10856,
  "toast": 10857,
  "tobacco": 10858,
  "today": 10859,
  "todd": 10860,
  "toe": 10861,
  "toes": 10862,
  "together": 10863,
  "toilet": 10864,
  "toilets": 10865,
  "told": 10866,
  "tolerate": 10867,
  "toll": 10868,
  "tom": 10869,
  "tomato": 10870,
  "tomatoes": 10871,
  "tommy": 10872,
  "tomorrow": 10873,
  "ton": 10874,
  "tone": 10875,
  "toned": 10876,
  "tones": 10877,
  "tong": 10878,
  "tongue": 10879,
  "tongues": 10880,
  "toni": 10881,
  "tonight": 10882,
  "tons": 10883,
  "too": 10884,
  "took": 10885,
  "tool": 10886,
  "tools": 10887,
  "tooth": 10888,
  "top": 10889,
  "topic": 10890,
  "topical": 10891,
  "topics": 10892,
  "topographic": 10893,
  "topping": 10894,
  "tops": 10895,
  "tor": 10896,
  "torch": 10897,
  "tore": 10898,
  "tori": 10899,
  "torn": 10900,
  "tornadoes": 10901,
  "torque": 10902,
  "torres": 10903,
  "torso": 10904,
  "toss": 10905,
  "tossing": 10906,
  "total": 10907,
  "totally": 10908,
  "touch": 10909,
  "touchdown": 10910,
  "touched": 10911,
  "touches": 10912,
  "touching": 10913,
  "tough": 10914,
  "tour": 10915,
  "touring": 10916,
  "tourist": 10917,
  "tournament": 10918,
  "tow": 10919,
  "toward": 10920,
  "towards": 10921,
  "towel": 10922,
  "towels": 10923,
  "tower": 10924,
  "towing": 10925,
  "town": 10926,
  "towns": 10927,
  "toxic": 10928,
  "toxin": 10929,
  "toy": 10930,
  "toys": 10931,
  "tr": 10932,
  "trace": 10933,
  "traced": 10934,
  "traces": 10935,
[...]
