{
  "[PAD]": 0,
  "[UNK]": 1,
  "[CLS]": 2,
  "[SEP]": 3,
  "[MASK]": 4,
  "!": 5,
  "\"": 6,
  "##1": 7,
  "##13": 8,
  "##16": 9,
  "##25": 10,
  "##32": 11,
  "##35": 12,
  "##5": 13,
  "##6": 14,
  "##7": 15,
  "##9": 16,
  "##a": 17,
  "##ab": 18,
  "##ability": 19,
  "##able": 20,
  "##ably": 21,
  "##ac": 22,
  "##ach": 23,
  "##ache": 24,
  "##acing": 25,
  "##ack": 26,
  "##aco": 27,
  "##ada": 28,
  "##adi": 29,
  "##ado": 30,
  "##ag": 31,
  "##age": 32,
  "##agger": 33,
  "##aging": 34,
  "##ah": 35,
  "##aha": 36,
  "##aint": 37,
  "##ak": 38,
  "##akes": 39,
  "##aking": 40,
  "##aks": 41,
  "##al": 42,
  "##ales": 43,
  "##ali": 44,
  "##alic": 45,
  "##all": 46,
  "##ally": 47,
  "##am": 48,
  "##ama": 49,
  "##amp": 50,
  "##amps": 51,
  "##an": 52,
  "##ana": 53,
  "##ancy": 54,
  "##ang": 55,
  "##ani": 56,
  "##ant": 57,
  "##ants": 58,
  "##any": 59,
  "##ap": 60,
  "##ape": 61,
  "##app": 62,
  "##apple": 63,
  "##ar": 64,
  "##ard": 65,
  "##are": 66,
  "##ari": 67,
  "##arm": 68,
  "##art": 69,
  "##ary": 70,
  "##as": 71,
  "##ash": 72,
  "##ast": 73,
  "##ate": 74,
  "##ately": 75,
  "##athlon": 76,
  "##atic": 77,
  "##ating": 78,
  "##ation": 79,
  "##aux": 80,
  "##av": 81,
  "##ava": 82,
  "##ave": 83,
  "##away": 84,
  "##ay": 85,
  "##ayo": 86,
  "##az": 87,
  "##b": 88,
  "##back": 89,
  "##bag": 90,
  "##ball": 91,
  "##balls": 92,
  "##band": 93,
  "##bb": 94,
  "##be": 95,
  "##beat": 96,
  "##bell": 97,
  "##belt": 98,
  "##ber": 99,
  "##berg": 100,
  "##berry": 101,
  "##bi": 102,
  "##bians": 103,
  "##bility": 104,
  "##bin": 105,
  "##bing": 106,
  "##bird": 107,
  "##ble": 108,
  "##bles": 109,
  "##bling": 110,
  "##block": 111,
  "##bo": 112,
  "##board": 113,
  "##bolt": 114,
  "##bon": 115,
  "##bone": 116,
  "##book": 117,
  "##box": 118,
  "##bre": 119,
  "##bread": 120,
  "##breaker": 121,
  "##bri": 122,
  "##brush": 123,
  "##bs": 124,
  "##bson": 125,
  "##bu": 126,
  "##bury": 127,
  "##bus": 128,
  "##by": 129,
  "##c": 130,
  "##ca": 131,
  "##cable": 132,
  "##cake": 133,
  "##cap": 134,
  "##cape": 135,
  "##card": 136,
  "##care": 137,
  "##cci": 138,
  "##cco": 139,
  "##ce": 140,
  "##cent": 141,
  "##cer": 142,
  "##ces": 143,
  "##ch": 144,
  "##cha": 145,
  "##che": 146,
  "##ched": 147,
  "##cher": 148,
  "##ches": 149,
  "##chet": 150,
  "##chi": 151,
  "##chin": 152,
  "##ching": 153,
  "##chu": 154,
  "##ci": 155,
  "##cial": 156,
  "##cier": 157,
  "##cing": 158,
  "##cio": 159,
  "##ck": 160,
  "##cko": 161,
  "##cl": 162,
  "##cle": 163,
  "##color": 164,
  "##connected": 165,
  "##cope": 166,
  "##cott": 167,
  "##cr": 168,
  "##creen": 169,
  "##cross": 170,
  "##crow": 171,
  "##ct": 172,
  "##cta": 173,
  "##ctable": 174,
  "##cture": 175,
  "##cut": 176,
  "##d": 177,
  "##dae": 178,
  "##dak": 179,
  "##dal": 180,
  "##dale": 181,
  "##dant": 182,
  "##das": 183,
  "##date": 184,
  "##day": 185,
  "##de": 186,
  "##ded": 187,
  "##der": 188,
  "##dge": 189,
  "##di": 190,
  "##dies": 191,
  "##dine": 192,
  "##ding": 193,
  "##dis": 194,
  "##dling": 195,
  "##dman": 196,
  "##do": 197,
  "##don": 198,
  "##door": 199,
  "##dor": 200,
  "##dr": 201,
  "##dra": 202,
  "##dre": 203,
  "##drop": 204,
  "##ds": 205,
  "##e": 206,
  "##ea": 207,
  "##ead": 208,
  "##ear": 209,
  "##ease": 210,
  "##eaux": 211,
  "##ec": 212,
  "##ed": 213,
  "##ege": 214,
  "##ei": 215,
  "##ein": 216,
  "##eit": 217,
  "##el": 218,
  "##elling": 219,
  "##els": 220,
  "##em": 221,
  "##ema": 222,
  "##eme": 223,
  "##en": 224,
  "##ena": 225,
  "##ener": 226,
  "##eni": 227,
  "##ening": 228,
  "##ens": 229,
  "##ent": 230,
  "##eon": 231,
  "##eptive": 232,
  "##er": 233,
  "##ere": 234,
  "##ergy": 235,
  "##ero": 236,
  "##ers": 237,
  "##erson": 238,
  "##es": 239,
  "##est": 240,
  "##et": 241,
  "##ete": 242,
  "##ett": 243,
  "##ette": 244,
  "##etto": 245,
  "##ev": 246,
  "##evic": 247,
  "##ew": 248,
  "##ex": 249,
  "##eye": 250,
  "##f": 251,
  "##fe": 252,
  "##fect": 253,
  "##fed": 254,
  "##ff": 255,
  "##ffa": 256,
  "##ffin": 257,
  "##ffs": 258,
  "##fi": 259,
  "##field": 260,
  "##fies": 261,
  "##finder": 262,
  "##fish": 263,
  "##fl": 264,
  "##flow": 265,
  "##flower": 266,
  "##fly": 267,
  "##folia": 268,
  "##for": 269,
  "##ford": 270,
  "##fr": 271,
  "##free": 272,
  "##ft": 273,
  "##fu": 274,
  "##ful": 275,
  "##fully": 276,
  "##fulness": 277,
  "##fus": 278,
  "##fy": 279,
  "##g": 280,
  "##ga": 281,
  "##gai": 282,
  "##gano": 283,
  "##gar": 284,
  "##gart": 285,
  "##gas": 286,
  "##ge": 287,
  "##ged": 288,
  "##gen": 289,
  "##genic": 290,
  "##ger": 291,
  "##gg": 292,
  "##gger": 293,
  "##ggle": 294,
  "##ggles": 295,
  "##gies": 296,
  "##ging": 297,
  "##girl": 298,
  "##giving": 299,
  "##gl": 300,
  "##glass": 301,
  "##gle": 302,
  "##glers": 303,
  "##gling": 304,
  "##gm": 305,
  "##gno": 306,
  "##go": 307,
  "##gon": 308,
  "##gr": 309,
  "##grade": 310,
  "##grapher": 311,
  "##ground": 312,
  "##gun": 313,
  "##gur": 314,
  "##gus": 315,
  "##gy": 316,
  "##h": 317,
  "##ha": 318,
  "##hale": 319,
  "##haling": 320,
  "##ham": 321,
  "##hand": 322,
  "##hea": 323,
  "##head": 324,
  "##heads": 325,
  "##hee": 326,
  "##hell": 327,
  "##hen": 328,
  "##her": 329,
  "##hi": 330,
  "##him": 331,
  "##hing": 332,
  "##hip": 333,
  "##hir": 334,
  "##his": 335,
  "##hl": 336,
  "##hn": 337,
  "##ho": 338,
  "##hog": 339,
  "##hol": 340,
  "##hole": 341,
  "##hom": 342,
  "##hot": 343,
  "##how": 344,
  "##hre": 345,
  "##hy": 346,
  "##i": 347,
  "##ia": 348,
  "##iable": 349,
  "##ian": 350,
  "##ib": 351,
  "##ible": 352,
  "##ic": 353,
  "##icated": 354,
  "##ication": 355,
  "##ich": 356,
  "##iculate": 357,
  "##id": 358,
  "##idi": 359,
  "##ids": 360,
  "##ie": 361,
  "##ier": 362,
  "##iere": 363,
  "##ieri": 364,
  "##iers": 365,
  "##ies": 366,
  "##if": 367,
  "##ification": 368,
  "##ifier": 369,
  "##ifying": 370,
  "##ig": 371,
  "##iga": 372,
  "##ili": 373,
  "##ility": 374,
  "##illa": 375,
  "##ils": 376,
  "##imeter": 377,
  "##imeters": 378,
  "##imi": 379,
  "##in": 380,
  "##inated": 381,
  "##inating": 382,
  "##ination": 383,
  "##ind": 384,
  "##ine": 385,
  "##ines": 386,
  "##iness": 387,
  "##ing": 388,
  "##ink": 389,
  "##inkles": 390,
  "##ino": 391,
  "##ion": 392,
  "##ions": 393,
  "##ior": 394,
  "##ious": 395,
  "##ip": 396,
  "##ipe": 397,
  "##ique": 398,
  "##ir": 399,
  "##is": 400,
  "##ise": 401,
  "##iser": 402,
  "##ish": 403,
  "##ished": 404,
  "##ism": 405,
  "##iss": 406,
  "##ist": 407,
  "##ister": 408,
  "##istic": 409,
  "##itas": 410,
  "##ite": 411,
  "##iti": 412,
  "##iting": 413,
  "##ium": 414,
  "##iva": 415,
  "##ive": 416,
  "##iz": 417,
  "##ization": 418,
  "##ize": 419,
  "##ized": 420,
  "##izes": 421,
  "##izing": 422,
  "##ja": 423,
  "##jing": 424,
  "##jo": 425,
  "##ju": 426,
  "##k": 427,
  "##kan": 428,
  "##ke": 429,
  "##kee": 430,
  "##ken": 431,
  "##ker": 432,
  "##kers": 433,
  "##kha": 434,
  "##ki": 435,
  "##kim": 436,
  "##king": 437,
  "##ky": 438,
  "##l": 439,
  "##la": 440,
  "##lad": 441,
  "##landa": 442,
  "##lar": 443,
  "##las": 444,
  "##lash": 445,
  "##late": 446,
  "##lated": 447,
  "##lates": 448,
  "##lav": 449,
  "##laze": 450,
  "##lb": 451,
  "##lberg": 452,
  "##lch": 453,
  "##le": 454,
  "##leen": 455,
  "##len": 456,
  "##ler": 457,
  "##les": 458,
  "##less": 459,
  "##let": 460,
  "##leton": 461,
  "##lets": 462,
  "##li": 463,
  "##lid": 464,
  "##lide": 465,
  "##lier": 466,
  "##lin": 467,
  "##line": 468,
  "##liner": 469,
  "##ling": 470,
  "##lini": 471,
  "##lining": 472,
  "##lip": 473,
  "##lish": 474,
  "##lizer": 475,
  "##lk": 476,
  "##lke": 477,
  "##ll": 478,
  "##lla": 479,
  "##lli": 480,
  "##llis": 481,
  "##llo": 482,
  "##lls": 483,
  "##ln": 484,
  "##load": 485,
  "##logram": 486,
  "##logue": 487,
  "##logy": 488,
  "##long": 489,
  "##lor": 490,
  "##lore": 491,
  "##lot": 492,
  "##low": 493,
  "##lp": 494,
  "##ls": 495,
  "##lt": 496,
  "##lth": 497,
  "##lu": 498,
  "##lub": 499,
  "##lvis": 500,
  "##ly": 501,
  "##m": 502,
  "##ma": 503,
  "##made": 504,
  "##mail": 505,
  "##man": 506,
  "##mar": 507,
  "##mare": 508,
  "##mat": 509,
  "##mba": 510,
  "##mbo": 511,
  "##me": 512,
  "##med": 513,
  "##mel": 514,
  "##men": 515,
  "##ment": 516,
  "##mer": 517,
  "##mere": 518,
  "##mers": 519,
  "##met": 520,
  "##meter": 521,
  "##metry": 522,
  "##mi": 523,
  "##mia": 524,
  "##mill": 525,
  "##mina": 526,
  "##ming": 527,
  "##missible": 528,
  "##mm": 529,
  "##mmer": 530,
  "##mming": 531,
  "##mmy": 532,
  "##mo": 533,
  "##mos": 534,
  "##movable": 535,
  "##mp": 536,
  "##mple": 537,
  "##mpt": 538,
  "##ms": 539,
  "##n": 540,
  "##na": 541,
  "##nage": 542,
  "##nail": 543,
  "##naire": 544,
  "##nant": 545,
  "##nare": 546,
  "##nc": 547,
  "##nco": 548,
  "##nding": 549,
  "##ne": 550,
  "##neck": 551,
  "##ned": 552,
  "##ner": 553,
  "##ners": 554,
  "##ness": 555,
  "##ng": 556,
  "##nge": 557,
  "##nh": 558,
  "##ni": 559,
  "##nia": 560,
  "##nies": 561,
  "##nified": 562,
  "##ning": 563,
  "##nish": 564,
  "##nk": 565,
  "##nne": 566,
  "##no": 567,
  "##nob": 568,
  "##nock": 569,
  "##nosis": 570,
  "##not": 571,
  "##nous": 572,
  "##nova": 573,
  "##ns": 574,
  "##nse": 575,
  "##nt": 576,
  "##nu": 577,
  "##o": 578,
  "##oa": 579,
  "##oca": 580,
  "##och": 581,
  "##oche": 582,
  "##ock": 583,
  "##oco": 584,
  "##od": 585,
  "##ods": 586,
  "##of": 587,
  "##og": 588,
  "##oh": 589,
  "##ok": 590,
  "##ol": 591,
  "##ola": 592,
  "##ologist": 593,
  "##om": 594,
  "##ome": 595,
  "##ometer": 596,
  "##omy": 597,
  "##on": 598,
  "##ong": 599,
  "##onga": 600,
  "##oni": 601,
  "##ont": 602,
  "##ony": 603,
  "##oo": 604,
  "##ool": 605,
  "##oon": 606,
  "##oot": 607,
  "##op": 608,
  "##ops": 609,
  "##or": 610,
  "##ore": 611,
  "##ories": 612,
  "##ors": 613,
  "##os": 614,
  "##osa": 615,
  "##osis": 616,
  "##oss": 617,
  "##ost": 618,
  "##osta": 619,
  "##ot": 620,
  "##ote": 621,
  "##oth": 622,
  "##otto": 623,
  "##ou": 624,
  "##ough": 625,
  "##ound": 626,
  "##ous": 627,
  "##outh": 628,
  "##ove": 629,
  "##over": 630,
  "##ow": 631,
  "##owed": 632,
  "##own": 633,
  "##oxide": 634,
  "##p": 635,
  "##pa": 636,
  "##pack": 637,
  "##pad": 638,
  "##paper": 639,
  "##para": 640,
  "##pe": 641,
  "##ped": 642,
  "##pee": 643,
  "##per": 644,
  "##pers": 645,
  "##pes": 646,
  "##ph": 647,
  "##pha": 648,
  "##phy": 649,
  "##piece": 650,
  "##pin": 651,
  "##ping": 652,
  "##pl": 653,
  "##plication": 654,
  "##ply": 655,
  "##point": 656,
  "##pol": 657,
  "##poo": 658,
  "##pot": 659,
  "##pped": 660,
  "##pper": 661,
  "##pr": 662,
  "##press": 663,
  "##pressing": 664,
  "##print": 665,
  "##pro": 666,
  "##proof": 667,
  "##ps": 668,
  "##pt": 669,
  "##py": 670,
  "##qu": 671,
  "##qual": 672,
  "##que": 673,
  "##quil": 674,
  "##r": 675,
  "##ra": 676,
  "##rac": 677,
  "##ractive": 678,
  "##rad": 679,
  "##rade": 680,
  "##raf": 681,
  "##rangle": 682,
  "##raph": 683,
  "##raphy": 684,
  "##rate": 685,
  "##ration": 686,
  "##rb": 687,
  "##rd": 688,
  "##rdi": 689,
  "##re": 690,
  "##real": 691,
  "##rella": 692,
  "##rem": 693,
  "##resh": 694,
  "##resses": 695,
  "##rew": 696,
  "##rg": 697,
  "##ri": 698,
  "##ric": 699,
  "##rie": 700,
  "##rier": 701,
  "##ries": 702,
  "##rift": 703,
  "##ring": 704,
  "##rita": 705,
  "##rks": 706,
  "##rm": 707,
  "##rn": 708,
  "##ro": 709,
  "##roll": 710,
  "##ron": 711,
  "##rop": 712,
  "##rot": 713,
  "##rou": 714,
  "##routed": 715,
  "##rov": 716,
  "##rp": 717,
  "##rr": 718,
  "##rra": 719,
  "##rral": 720,
  "##rring": 721,
  "##rs": 722,
  "##rt": 723,
  "##rti": 724,
  "##ruff": 725,
  "##rum": 726,
  "##run": 727,
  "##rup": 728,
  "##ry": 729,
  "##ryl": 730,
  "##ryn": 731,
  "##rz": 732,
  "##s": 733,
  "##san": 734,
  "##sari": 735,
  "##sch": 736,
  "##sco": 737,
  "##scribe": 738,
  "##se": 739,
  "##sel": 740,
  "##sen": 741,
  "##ser": 742,
  "##ses": 743,
  "##set": 744,
  "##sey": 745,
  "##sh": 746,
  "##sha": 747,
  "##shaw": 748,
  "##shed": 749,
  "##shi": 750,
  "##shin": 751,
  "##sin": 752,
  "##ska": 753,
  "##sley": 754,
  "##sm": 755,
  "##son": 756,
  "##sp": 757,
  "##sr": 758,
  "##ss": 759,
  "##sser": 760,
  "##sso": 761,
  "##st": 762,
  "##sta": 763,
  "##ster": 764,
  "##sts": 765,
  "##sty": 766,
  "##t": 767,
  "##ta": 768,
  "##tage": 769,
  "##tail": 770,
  "##tal": 771,
  "##tam": 772,
  "##tan": 773,
  "##tangle": 774,
  "##tar": 775,
  "##tarian": 776,
  "##tch": 777,
  "##te": 778,
  "##tec": 779,
  "##ted": 780,
  "##ten": 781,
  "##tens": 782,
  "##ter": 783,
  "##ters": 784,
  "##tes": 785,
  "##ther": 786,
  "##thest": 787,
  "##tia": 788,
  "##tic": 789,
  "##ties": 790,
  "##tile": 791,
  "##till": 792,
  "##time": 793,
  "##ting": 794,
  "##tion": 795,
  "##tions": 796,
  "##tive": 797,
  "##tness": 798,
  "##to": 799,
  "##tock": 800,
  "##ton": 801,
  "##tor": 802,
  "##torm": 803,
  "##tors": 804,
  "##tory": 805,
  "##tour": 806,
  "##tr": 807,
  "##tra": 808,
  "##tree": 809,
  "##tro": 810,
  "##ts": 811,
  "##tt": 812,
  "##tta": 813,
  "##tte": 814,
  "##tter": 815,
  "##tters": 816,
  "##tu": 817,
  "##tura": 818,
  "##ty": 819,
  "##tze": 820,
  "##ual": 821,
  "##uate": 822,
  "##uc": 823,
  "##uce": 824,
  "##uchi": 825,
  "##ude": 826,
  "##uder": 827,
  "##udge": 828,
  "##ue": 829,
  "##uer": 830,
  "##ues": 831,
  "##uf": 832,
  "##ug": 833,
  "##ui": 834,
  "##uis": 835,
  "##uk": 836,
  "##ul": 837,
  "##ula": 838,
  "##ulated": 839,
  "##ule": 840,
  "##ull": 841,
  "##ulsion": 842,
  "##um": 843,
  "##uming": 844,
  "##ump": 845,
  "##un": 846,
  "##unce": 847,
  "##une": 848,
  "##uni": 849,
  "##unk": 850,
  "##up": 851,
  "##ups": 852,
  "##upt": 853,
  "##ur": 854,
  "##ura": 855,
  "##ure": 856,
  "##ures": 857,
  "##uri": 858,
  "##urities": 859,
  "##urized": 860,
  "##us": 861,
  "##use": 862,
  "##uss": 863,
  "##ust": 864,
  "##utable": 865,
  "##uted": 866,
  "##uti": 867,
  "##ution": 868,
  "##utter": 869,
  "##ux": 870,
  "##v": 871,
  "##vable": 872,
  "##vas": 873,
  "##ve": 874,
  "##ven": 875,
  "##vent": 876,
  "##ver": 877,
  "##ves": 878,
  "##via": 879,
  "##vial": 880,
  "##vic": 881,
  "##vin": 882,
  "##vine": 883,
  "##vio": 884,
  "##vita": 885,
  "##vor": 886,
  "##vot": 887,
  "##w": 888,
  "##wan": 889,
  "##war": 890,
  "##ware": 891,
  "##water": 892,
  "##way": 893,
  "##we": 894,
  "##weight": 895,
  "##wine": 896,
  "##wing": 897,
  "##wire": 898,
  "##wise": 899,
  "##wk": 900,
  "##wn": 901,
  "##wood": 902,
  "##work": 903,
  "##written": 904,
  "##ws": 905,
  "##x": 906,
  "##xed": 907,
  "##xide": 908,
  "##xon": 909,
  "##y": 910,
  "##yas": 911,
  "##yk": 912,
  "##yl": 913,
  "##ylus": 914,
  "##ym": 915,
  "##yo": 916,
  "##yp": 917,
  "##yt": 918,
  "##yu": 919,
  "##z": 920,
  "##ze": 921,
  "##zed": 922,
  "##zer": 923,
  "##zers": 924,
  "##zie": 925,
  "##zing": 926,
  "##zle": 927,
  "##zz": 928,
  "##zza": 929,
  "##zzy": 930,
  "%": 931,
  "'": 932,
  "(": 933,
  ")": 934,
  ",": 935,
  "-": 936,
  ".": 937,
  "/": 938,
  "000": 939,
  "05": 940,
  "08": 941,
  "1": 942,
  "10": 943,
  "100": 944,
  "11": 945,
  "129": 946,
  "13": 947,
  "15": 948,
  "151": 949,
  "16": 950,
  "180": 951,
  "19": 952,
  "1912": 953,
  "1942": 954,
  "1960": 955,
  "2": 956,
  "20": 957,
  "2004": 958,
  "2008": 959,
  "201": 960,
  "22": 961,
  "240": 962,
  "25": 963,
  "250": 964,
  "270": 965,
  "275": 966,
  "28": 967,
  "285": 968,
  "3": 969,
  "30": 970,
  "300": 971,
  "3000": 972,
  "32": 973,
  "350": 974,
  "360": 975,
  "4": 976,
  "40": 977,
  "400": 978,
  "45": 979,
  "48": 980,
  "5": 981,
  "50": 982,
  "5000": 983,
  "555": 984,
  "6": 985,
  "60": 986,
  "7": 987,
  "70": 988,
  "70s": 989,
  "720": 990,
  "73": 991,
  "75": 992,
  "77": 993,
  "8": 994,
  "800": 995,
  "80s": 996,
  "86": 997,
  "9": 998,
  "90": 999,
  "90s": 1000,
  ":": 1001,
  ";": 1002,
  "=": 1003,
  "?": 1004,
  "[": 1005,
  "]": 1006,
  "a": 1007,
  "aaron": 1008,
  "ab": 1009,
  "abandon": 1010,
  "abby": 1011,
  "abd": 1012,
  "abdominal": 1013,
  "abe": 1014,
  "ability": 1015,
  "able": 1016,
  "about": 1017,
  "above": 1018,
  "abs": 1019,
  "absolute": 1020,
  "absolutely": 1021,
  "abstract": 1022,
  "abuse": 1023,
  "ac": 1024,
  "academy": 1025,
  "acceleration": 1026,
  "accent": 1027,
  "accents": 1028,
  "acceptable": 1029,
  "access": 1030,
  "accessible": 1031,
  "accessories": 1032,
  "accessory": 1033,
  "accidents": 1034,
  "accommodate": 1035,
  "accomplish": 1036,
  "account": 1037,
  "accuracy": 1038,
  "accurate": 1039,
  "accurately": 1040,
  "ace": 1041,
  "aces": 1042,
  "ache": 1043,
  "achieve": 1044,
  "achieved": 1045,
  "acid": 1046,
  "acoustic": 1047,
  "acquainted": 1048,
  "across": 1049,
  "act": 1050,
  "acting": 1051,
  "action": 1052,
  "actions": 1053,
  "activities": 1054,
  "activity": 1055,
  "actor": 1056,
  "actors": 1057,
  "acts": 1058,
  "actual": 1059,
  "actually": 1060,
  "ad": 1061,
  "add": 1062,
  "added": 1063,
  "addition": 1064,
  "additional": 1065,
  "address": 1066,
  "addressing": 1067,
  "adds": 1068,
  "adequately": 1069,
  "adjust": 1070,
  "adjustable": 1071,
  "adjusted": 1072,
  "adjustments": 1073,
  "adopting": 1074,
  "adults": 1075,
  "advance": 1076,
  "advanced": 1077,
  "advancing": 1078,
  "advantage": 1079,
  "advantages": 1080,
  "adventure": 1081,
  "advice": 1082,
  "ae": 1083,
  "affect": 1084,
  "affects": 1085,
  "affiliation": 1086,
  "afford": 1087,
  "affordable": 1088,
  "afraid": 1089,
  "african": 1090,
  "after": 1091,
  "afternoon": 1092,
  "afterwards": 1093,
  "ag": 1094,
  "again": 1095,
  "against": 1096,
  "age": 1097,
  "agent": 1098,
  "agents": 1099,
  "aggressive": 1100,
  "aging": 1101,
  "ago": 1102,
  "agree": 1103,
  "agreement": 1104,
  "ah": 1105,
  "ahead": 1106,
  "aid": 1107,
  "aim": 1108,
  "aiming": 1109,
  "ain": 1110,
  "air": 1111,
  "airplane": 1112,
  "al": 1113,
  "ala": 1114,
  "alarm": 1115,
  "alcohol": 1116,
  "alcoholic": 1117,
  "ale": 1118,
  "alex": 1119,
  "alexa": 1120,
  "algae": 1121,
  "alien": 1122,
  "aliens": 1123,
  "align": 1124,
  "alignment": 1125,
  "alive": 1126,
  "all": 1127,
  "allen": 1128,
  "alley": 1129,
  "alligator": 1130,
  "allow": 1131,
  "allowed": 1132,
  "allows": 1133,
  "ally": 1134,
  "almond": 1135,
  "almost": 1136,
  "along": 1137,
  "alphabet": 1138,
  "already": 1139,
  "alright": 1140,
  "also": 1141,
  "alternate": 1142,
  "alternating": 1143,
  "alternative": 1144,
  "although": 1145,
  "aluminum": 1146,
  "alvin": 1147,
  "always": 1148,
  "am": 1149,
  "amanda": 1150,
  "amar": 1151,
  "amazed": 1152,
  "amazing": 1153,
  "amelia": 1154,
  "america": 1155,
  "american": 1156,
  "ami": 1157,
  "amount": 1158,
  "amounts": 1159,
  "amp": 1160,
  "amtrak": 1161,
  "amused": 1162,
  "amy": 1163,
  "an": 1164,
  "anatomy": 1165,
  "anchor": 1166,
  "anchors": 1167,
  "ancient": 1168,
  "and": 1169,
  "andrews": 1170,
  "angle": 1171,
  "angled": 1172,
  "angry": 1173,
  "animal": 1174,
  "animals": 1175,
  "ankle": 1176,
  "ankles": 1177,
  "anne": 1178,
  "annoying": 1179,
  "another": 1180,
  "answer": 1181,
  "ant": 1182,
  "anthology": 1183,
  "anthony": 1184,
  "anti": 1185,
  "antibodies": 1186,
  "antique": 1187,
  "any": 1188,
  "anybody": 1189,
  "anymore": 1190,
  "anyone": 1191,
  "anything": 1192,
  "anytime": 1193,
  "anyway": 1194,
  "anywhere": 1195,
  "apart": 1196,
  "apartment": 1197,
  "aperture": 1198,
  "appalachian": 1199,
  "apparently": 1200,
  "appearance": 1201,
  "appetite": 1202,
  "appliances": 1203,
  "applicable": 1204,
  "application": 1205,
  "applied": 1206,
  "applies": 1207,
  "apply": 1208,
  "applying": 1209,
  "appreciate": 1210,
  "approach": 1211,
  "appropriate": 1212,
  "approved": 1213,
  "approximately": 1214,
  "apron": 1215,
  "aqua": 1216,
  "aquarium": 1217,
  "ar": 1218,
  "arab": 1219,
  "arc": 1220,
  "archery": 1221,
  "are": 1222,
  "area": 1223,
  "areas": 1224,
  "aren": 1225,
  "argentina": 1226,
  "argue": 1227,
  "ariel": 1228,
  "arizona": 1229,
  "arm": 1230,
  "armor": 1231,
  "arms": 1232,
  "army": 1233,
  "around": 1234,
  "arrange": 1235,
  "arrest": 1236,
  "art": 1237,
  "arterial": 1238,
  "arthur": 1239,
  "article": 1240,
  "articles": 1241,
  "artifact": 1242,
  "artifacts": 1243,
  "artificial": 1244,
  "artist": 1245,
  "arts": 1246,
  "as": 1247,
  "asbestos": 1248,
  "ascot": 1249,
  "ash": 1250,
  "ashley": 1251,
  "aside": 1252,
  "ask": 1253,
  "asked": 1254,
  "asks": 1255,
  "asleep": 1256,
  "aspect": 1257,
  "aspects": 1258,
  "ass": 1259,
  "assemble": 1260,
  "assembly": 1261,
  "assessment": 1262,
  "asset": 1263,
  "assignments": 1264,
  "assistant": 1265,
  "associated": 1266,
  "association": 1267,
  "assortment": 1268,
  "astro": 1269,
  "at": 1270,
  "athletes": 1271,
  "atlantic": 1272,
  "attach": 1273,
  "attache": 1274,
  "attached": 1275,
  "attachment": 1276,
  "attack": 1277,
  "attacker": 1278,
  "attacking": 1279,
  "attacks": 1280,
  "attain": 1281,
  "attend": 1282,
  "attention": 1283,
  "attire": 1284,
  "attracted": 1285,
  "attracting": 1286,
  "audience": 1287,
  "audio": 1288,
  "audition": 1289,
  "auditions": 1290,
  "austin": 1291,
  "austrian": 1292,
  "author": 1293,
  "automatic": 1294,
  "automatically": 1295,
  "automobiles": 1296,
  "av": 1297,
  "available": 1298,
  "average": 1299,
  "avoid": 1300,
  "avoided": 1301,
  "avon": 1302,
  "award": 1303,
  "aware": 1304,
  "awareness": 1305,
  "away": 1306,
  "awesome": 1307,
  "awhile": 1308,
  "axis": 1309,
  "aye": 1310,
  "b": 1311,
  "ba": 1312,
  "babies": 1313,
  "baby": 1314,
  "bachelor": 1315,
  "back": 1316,
  "backbone": 1317,
  "backdrop": 1318,
  "background": 1319,
  "backgrounds": 1320,
  "backpack": 1321,
  "backs": 1322,
  "backwards": 1323,
  "backyard": 1324,
  "bacon": 1325,
  "bacteria": 1326,
  "bad": 1327,
  "badge": 1328,
  "bag": 1329,
  "bags": 1330,
  "bailey": 1331,
  "bait": 1332,
  "baking": 1333,
  "bal": 1334,
  "balance": 1335,
  "balanced": 1336,
  "balancing": 1337,
  "bald": 1338,
  "baldwin": 1339,
  "ball": 1340,
  "ballet": 1341,
  "balloon": 1342,
  "balls": 1343,
  "bamboo": 1344,
  "ban": 1345,
  "band": 1346,
  "bandage": 1347,
  "bang": 1348,
  "bar": 1349,
  "barbecue": 1350,
  "bare": 1351,
  "barely": 1352,
  "bargain": 1353,
  "barnes": 1354,
  "baroness": 1355,
  "barrel": 1356,
  "barrels": 1357,
  "barrier": 1358,
  "bars": 1359,
  "bartender": 1360,
  "barton": 1361,
  "base": 1362,
  "baseball": 1363,
  "based": 1364,
  "baseman": 1365,
  "bases": 1366,
  "bash": 1367,
  "basic": 1368,
  "basically": 1369,
  "basics": 1370,
  "basil": 1371,
  "basket": 1372,
  "basketball": 1373,
  "baskets": 1374,
  "bass": 1375,
  "bat": 1376,
  "batch": 1377,
  "bathroom": 1378,
  "bathrooms": 1379,
  "bats": 1380,
  "batter": 1381,
  "battery": 1382,
  "be": 1383,
  "bea": 1384,
  "beach": 1385,
  "beads": 1386,
  "beak": 1387,
  "bean": 1388,
  "beans": 1389,
  "bear": 1390,
  "bearer": 1391,
  "bearing": 1392,
  "bearings": 1393,
  "beat": 1394,
  "beaten": 1395,
  "beats": 1396,
  "beau": 1397,
  "beautiful": 1398,
  "beautifully": 1399,
  "beauty": 1400,
  "became": 1401,
  "because": 1402,
  "become": 1403,
  "becomes": 1404,
  "bed": 1405,
  "bedroom": 1406,
  "bee": 1407,
  "beef": 1408,
  "been": 1409,
  "beer": 1410,
  "before": 1411,
  "beforehand": 1412,
  "begin": 1413,
  "beginning": 1414,
  "begins": 1415,
  "behalf": 1416,
  "behave": 1417,
  "behavior": 1418,
  "behind": 1419,
  "beige": 1420,
  "being": 1421,
  "bel": 1422,
  "bela": 1423,
  "belgium": 1424,
  "believe": 1425,
  "believes": 1426,
  "bell": 1427,
  "belly": 1428,
  "below": 1429,
  "belt": 1430,
  "belts": 1431,
  "ben": 1432,
  "bench": 1433,
  "bend": 1434,
  "bending": 1435,
  "benefit": 1436,
  "benefits": 1437,
  "bent": 1438,
  "berkeley": 1439,
  "besides": 1440,
  "best": 1441,
  "bet": 1442,
  "better": 1443,
  "betting": 1444,
  "between": 1445,
  "beverage": 1446,
  "bi": 1447,
  "bias": 1448,
  "biceps": 1449,
  "bicycle": 1450,
  "bicycles": 1451,
  "bid": 1452,
  "big": 1453,
  "bigger": 1454,
  "biggest": 1455,
  "bike": 1456,
  "bikes": 1457,
  "bikini": 1458,
  "bill": 1459,
  "billy": 1460,
  "bin": 1461,
  "bind": 1462,
  "binding": 1463,
  "bio": 1464,
  "biography": 1465,
  "bird": 1466,
  "birds": 1467,
  "birth": 1468,
  "birthday": 1469,
  "bit": 1470,
  "bite": 1471,
  "biting": 1472,
  "bitten": 1473,
  "bitter": 1474,
  "bk": 1475,
  "black": 1476,
  "bladder": 1477,
  "blade": 1478,
  "blades": 1479,
  "blame": 1480,
  "blank": 1481,
  "blanket": 1482,
  "blast": 1483,
  "blaze": 1484,
  "bleed": 1485,
  "bleeding": 1486,
  "blend": 1487,
  "blended": 1488,
  "blending": 1489,
  "blind": 1490,
  "blink": 1491,
  "blinking": 1492,
  "block": 1493,
  "blocking": 1494,
  "blocks": 1495,
  "blond": 1496,
  "blonde": 1497,
  "blood": 1498,
  "bloom": 1499,
  "blow": 1500,
  "blowing": 1501,
  "blu": 1502,
  "blue": 1503,
  "blunt": 1504,
  "blush": 1505,
  "bo": 1506,
  "board": 1507,
  "boat": 1508,
  "bob": 1509,
  "bobby": 1510,
  "bodies": 1511,
  "body": 1512,
  "bog": 1513,
  "boil": 1514,
  "boiling": 1515,
  "bolt": 1516,
  "bolts": 1517,
  "bon": 1518,
  "bond": 1519,
  "bone": 1520,
  "bones": 1521,
  "book": 1522,
  "books": 1523,
  "boom": 1524,
  "boot": 1525,
  "booth": 1526,
  "boots": 1527,
  "bop": 1528,
  "bore": 1529,
  "boring": 1530,
  "born": 1531,
  "boss": 1532,
  "bot": 1533,
  "both": 1534,
  "bother": 1535,
  "bottle": 1536,
  "bottles": 1537,
  "bottom": 1538,
  "bottoms": 1539,
  "bought": 1540,
  "boulders": 1541,
  "bounce": 1542,
  "bouncing": 1543,
  "bound": 1544,
  "boundaries": 1545,
  "bout": 1546,
  "bow": 1547,
  "bowl": 1548,
  "bowler": 1549,
  "box": 1550,
  "boxers": 1551,
  "boxes": 1552,
  "boxing": 1553,
  "boy": 1554,
  "boyfriend": 1555,
  "boys": 1556,
  "br": 1557,
  "bra": 1558,
  "bracelet": 1559,
  "bracket": 1560,
  "brad": 1561,
  "bradley": 1562,
  "braid": 1563,
  "brain": 1564,
  "brains": 1565,
  "brake": 1566,
  "brakes": 1567,
  "bran": 1568,
  "brand": 1569,
  "brandon": 1570,
  "brass": 1571,
  "bray": 1572,
  "brazilian": 1573,
  "bread": 1574,
  "break": 1575,
  "breaker": 1576,
  "breakfast": 1577,
  "breaking": 1578,
  "breakout": 1579,
  "breast": 1580,
  "breasts": 1581,
  "breath": 1582,
  "breathe": 1583,
  "breathing": 1584,
  "breaths": 1585,
  "breeders": 1586,
  "brewer": 1587,
  "brewing": 1588,
  "bricks": 1589,
  "bridge": 1590,
  "brief": 1591,
  "briefly": 1592,
  "brig": 1593,
  "bright": 1594,
  "bring": 1595,
  "bringing": 1596,
  "brings": 1597,
  "brisk": 1598,
  "british": 1599,
  "bro": 1600,
  "broad": 1601,
  "broken": 1602,
  "broker": 1603,
  "bronze": 1604,
  "brought": 1605,
  "brow": 1606,
  "brown": 1607,
  "brownish": 1608,
  "browns": 1609,
  "brows": 1610,
  "brunette": 1611,
  "brush": 1612,
  "brushes": 1613,
  "brushing": 1614,
  "bryan": 1615,
  "bu": 1616,
  "bubble": 1617,
  "bubbles": 1618,
  "buck": 1619,
  "bucket": 1620,
  "bucks": 1621,
  "buddha": 1622,
  "buddhism": 1623,
  "budget": 1624,
  "budgets": 1625,
  "buds": 1626,
  "buff": 1627,
  "buffer": 1628,
  "buffet": 1629,
  "bug": 1630,
  "build": 1631,
  "building": 1632,
  "built": 1633,
  "bulb": 1634,
  "bulbs": 1635,
  "bulgaria": 1636,
  "bulk": 1637,
  "bulky": 1638,
  "bullet": 1639,
  "bullets": 1640,
  "bulls": 1641,
  "bump": 1642,
  "bun": 1643,
  "bunch": 1644,
  "bunker": 1645,
  "bunny": 1646,
  "burgundy": 1647,
  "burn": 1648,
  "burning": 1649,
  "burns": 1650,
  "burnt": 1651,
  "burr": 1652,
  "bus": 1653,
  "bush": 1654,
  "business": 1655,
  "businesses": 1656,
  "but": 1657,
  "butt": 1658,
  "butter": 1659,
  "butterfly": 1660,
  "button": 1661,
  "buttons": 1662,
  "buy": 1663,
  "buying": 1664,
  "buzzing": 1665,
  "by": 1666,
  "bye": 1667,
  "bypass": 1668,
  "c": 1669,
  "ca": 1670,
  "cable": 1671,
  "cables": 1672,
  "cad": 1673,
  "caf": 1674,
  "cafe": 1675,
  "cage": 1676,
  "cai": 1677,
  "cake": 1678,
  "cakes": 1679,
  "cal": 1680,
  "calcutta": 1681,
  "caleb": 1682,
  "calf": 1683,
  "california": 1684,
  "call": 1685,
  "called": 1686,
  "calling": 1687,
  "calls": 1688,
  "calm": 1689,
  "calming": 1690,
  "calves": 1691,
  "cam": 1692,
  "came": 1693,
  "camel": 1694,
  "camera": 1695,
  "cameras": 1696,
  "camping": 1697,
  "campus": 1698,
  "campuses": 1699,
  "can": 1700,
  "candidates": 1701,
  "candle": 1702,
  "candles": 1703,
  "cane": 1704,
  "cannon": 1705,
  "cannot": 1706,
  "canon": 1707,
  "canopy": 1708,
  "canvas": 1709,
  "cap": 1710,
  "cape": 1711,
  "capital": 1712,
  "capitals": 1713,
  "capsule": 1714,
  "captain": 1715,
  "car": 1716,
  "carbon": 1717,
  "carbonate": 1718,
  "card": 1719,
  "cardboard": 1720,
  "cardiac": 1721,
  "cardiovascular": 1722,
  "cards": 1723,
  "care": 1724,
  "cared": 1725,
  "careful": 1726,
  "carefully": 1727,
  "cargo": 1728,
  "carl": 1729,
  "carolina": 1730,
  "carpet": 1731,
  "carrie": 1732,
  "carrier": 1733,
  "carrot": 1734,
  "carry": 1735,
  "cars": 1736,
  "cart": 1737,
  "cartoon": 1738,
  "case": 1739,
  "cases": 1740,
  "casey": 1741,
  "cash": 1742,
  "casino": 1743,
  "cass": 1744,
  "cassette": 1745,
  "cast": 1746,
  "casting": 1747,
  "casual": 1748,
  "cat": 1749,
  "catch": 1750,
  "catching": 1751,
  "category": 1752,
  "catering": 1753,
  "cats": 1754,
  "caught": 1755,
  "cause": 1756,
  "caused": 1757,
  "causes": 1758,
  "causing": 1759,
  "cautious": 1760,
  "cavity": 1761,
  "cd": 1762,
  "cds": 1763,
  "ce": 1764,
  "ceiling": 1765,
  "celebration": 1766,
  "cell": 1767,
  "cent": 1768,
  "center": 1769,
  "centered": 1770,
  "centimeters": 1771,
  "central": 1772,
  "ceramic": 1773,
  "certain": 1774,
  "certainly": 1775,
  "certified": 1776,
  "ch": 1777,
  "cha": 1778,
  "chain": 1779,
  "chains": 1780,
  "chair": 1781,
  "chairman": 1782,
  "chalk": 1783,
  "challenge": 1784,
  "challenging": 1785,
  "chamber": 1786,
  "chan": 1787,
  "chance": 1788,
  "chances": 1789,
  "change": 1790,
  "changed": 1791,
  "changes": 1792,
  "changing": 1793,
  "channels": 1794,
  "chapter": 1795,
  "char": 1796,
  "character": 1797,
  "characteristic": 1798,
  "characteristics": 1799,
  "characterized": 1800,
  "characters": 1801,
  "charge": 1802,
  "chargers": 1803,
  "charity": 1804,
  "charles": 1805,
  "charm": 1806,
  "chart": 1807,
  "chase": 1808,
  "chatting": 1809,
  "cheap": 1810,
  "cheat": 1811,
  "cheating": 1812,
  "check": 1813,
  "checked": 1814,
  "checking": 1815,
  "cheek": 1816,
  "cheekbones": 1817,
  "cheer": 1818,
  "cheerleading": 1819,
  "cheers": 1820,
  "cheese": 1821,
  "chef": 1822,
  "chefs": 1823,
  "chemicals": 1824,
  "chemist": 1825,
  "chemistry": 1826,
  "cherry": 1827,
  "chess": 1828,
  "chest": 1829,
  "chestnut": 1830,
  "chests": 1831,
  "chi": 1832,
  "chiang": 1833,
  "chicago": 1834,
  "chicken": 1835,
  "chicks": 1836,
  "child": 1837,
  "children": 1838,
  "chill": 1839,
  "chin": 1840,
  "china": 1841,
  "chinese": 1842,
  "chip": 1843,
  "cho": 1844,
  "chocolate": 1845,
  "choice": 1846,
  "choices": 1847,
  "choose": 1848,
  "choosing": 1849,
  "chop": 1850,
  "chord": 1851,
  "chords": 1852,
  "chosen": 1853,
  "chris": 1854,
  "christian": 1855,
  "christmas": 1856,
  "christopher": 1857,
  "chrome": 1858,
  "chronicle": 1859,
  "chu": 1860,
  "chunk": 1861,
  "chunks": 1862,
  "ci": 1863,
  "cid": 1864,
  "cindy": 1865,
  "circle": 1866,
  "circles": 1867,
  "circling": 1868,
  "circular": 1869,
  "circumstances": 1870,
  "circus": 1871,
  "city": 1872,
  "civilization": 1873,
  "cl": 1874,
  "claire": 1875,
  "clancy": 1876,
  "clap": 1877,
  "clarify": 1878,
  "clarity": 1879,
  "clark": 1880,
  "clarke": 1881,
  "clasp": 1882,
  "clasped": 1883,
  "class": 1884,
  "classes": 1885,
  "classic": 1886,
  "classical": 1887,
  "classics": 1888,
  "classmates": 1889,
  "classroom": 1890,
  "claw": 1891,
  "clay": 1892,
  "clean": 1893,
  "cleaned": 1894,
  "cleaner": 1895,
  "cleaning": 1896,
  "cleansing": 1897,
  "clear": 1898,
  "cleared": 1899,
  "clearly": 1900,
  "clears": 1901,
  "clerk": 1902,
  "clever": 1903,
  "click": 1904,
  "clicking": 1905,
  "clicks": 1906,
  "client": 1907,
  "clients": 1908,
  "climax": 1909,
  "climb": 1910,
  "climbing": 1911,
  "clinched": 1912,
  "clinic": 1913,
  "clinical": 1914,
  "clip": 1915,
  "clipped": 1916,
  "clips": 1917,
  "clock": 1918,
  "clocks": 1919,
  "clockwise": 1920,
  "clone": 1921,
  "close": 1922,
  "closed": 1923,
  "closely": 1924,
  "closer": 1925,
  "closest": 1926,
  "closing": 1927,
  "closure": 1928,
  "cloth": 1929,
  "clothes": 1930,
  "clothing": 1931,
  "cloud": 1932,
  "clown": 1933,
  "club": 1934,
  "clue": 1935,
  "clues": 1936,
  "co": 1937,
  "coach": 1938,
  "coarse": 1939,
  "coast": 1940,
  "coat": 1941,
  "coated": 1942,
  "coats": 1943,
  "cockpit": 1944,
  "cocktail": 1945,
  "coconut": 1946,
  "cod": 1947,
  "code": 1948,
  "coffee": 1949,
  "coffin": 1950,
  "coil": 1951,
  "coin": 1952,
  "coins": 1953,
  "col": 1954,
  "cold": 1955,
  "cole": 1956,
  "collar": 1957,
  "collect": 1958,
  "collecting": 1959,
  "collections": 1960,
  "college": 1961,
  "cologne": 1962,
  "colon": 1963,
  "color": 1964,
  "coloration": 1965,
  "colored": 1966,
  "colorful": 1967,
  "coloring": 1968,
  "colors": 1969,
  "com": 1970,
  "comb": 1971,
  "combination": 1972,
  "combinations": 1973,
  "combine": 1974,
  "combining": 1975,
  "combo": 1976,
  "come": 1977,
  "comedian": 1978,
  "comedy": 1979,
  "comes": 1980,
  "comfort": 1981,
  "comfortable": 1982,
  "comics": 1983,
  "coming": 1984,
  "command": 1985,
  "commands": 1986,
  "commercial": 1987,
  "committed": 1988,
  "common": 1989,
  "commonly": 1990,
  "communicate": 1991,
  "communicating": 1992,
  "communication": 1993,
  "community": 1994,
  "compact": 1995,
  "companies": 1996,
  "companions": 1997,
  "company": 1998,
  "compare": 1999,
  "compared": 2000,
  "compartment": 2001,
  "compass": 2002,
  "competing": 2003,
  "competition": 2004,
  "competitions": 2005,
  "complaint": 2006,
  "complete": 2007,
  "completed": 2008,
  "completely": 2009,
  "completing": 2010,
  "completion": 2011,
  "complex": 2012,
  "complicated": 2013,
  "compliment": 2014,
  "component": 2015,
  "components": 2016,
  "compose": 2017,
  "composition": 2018,
  "compromise": 2019,
  "computer": 2020,
  "computers": 2021,
  "computing": 2022,
  "con": 2023,
  "conceal": 2024,
  "concentrate": 2025,
  "concentrating": 2026,
  "concentration": 2027,
  "concept": 2028,
  "concepts": 2029,
  "concerned": 2030,
  "concludes": 2031,
  "concrete": 2032,
  "condition": 2033,
  "conditioning": 2034,
  "conditions": 2035,
  "confidence": 2036,
  "confident": 2037,
  "configuration": 2038,
  "conflict": 2039,
  "conform": 2040,
  "confused": 2041,
  "confusion": 2042,
  "congratulations": 2043,
  "connect": 2044,
  "connected": 2045,
  "connecting": 2046,
  "connection": 2047,
  "connects": 2048,
  "connell": 2049,
  "conscience": 2050,
  "conscious": 2051,
  "consecutive": 2052,
  "conservative": 2053,
  "consider": 2054,
  "considerably": 2055,
  "consideration": 2056,
  "considered": 2057,
  "consistency": 2058,
  "consistent": 2059,
  "constantly": 2060,
  "construction": 2061,
  "consult": 2062,
  "consulting": 2063,
  "consumed": 2064,
  "contact": 2065,
  "contacts": 2066,
  "contain": 2067,
  "container": 2068,
  "contains": 2069,
  "content": 2070,
  "context": 2071,
  "continuation": 2072,
  "continue": 2073,
  "continued": 2074,
  "continuing": 2075,
  "contra": 2076,
  "contract": 2077,
  "contrast": 2078,
  "contrasting": 2079,
  "contrasts": 2080,
  "control": 2081,
  "controlled": 2082,
  "controller": 2083,
  "controls": 2084,
  "convenient": 2085,
  "conversation": 2086,
  "conversely": 2087,
  "convey": 2088,
  "cook": 2089,
  "cooked": 2090,
  "cookie": 2091,
  "cookies": 2092,
  "cooking": 2093,
  "cooks": 2094,
  "cool": 2095,
  "cooler": 2096,
  "cooling": 2097,
  "cooper": 2098,
  "coordinate": 2099,
  "coordination": 2100,
  "coordinator": 2101,
  "copper": 2102,
  "copy": 2103,
  "coral": 2104,
  "cord": 2105,
  "cords": 2106,
  "core": 2107,
  "corn": 2108,
  "corner": 2109,
  "corners": 2110,
  "correct": 2111,
  "correctly": 2112,
  "corrosion": 2113,
  "cost": 2114,
  "costs": 2115,
  "costume": 2116,
  "costumes": 2117,
  "cotton": 2118,
  "could": 2119,
  "couldn": 2120,
  "count": 2121,
  "counter": 2122,
  "counting": 2123,
  "country": 2124,
  "counts": 2125,
  "couple": 2126,
  "couples": 2127,
  "course": 2128,
  "court": 2129,
  "cousin": 2130,
  "cover": 2131,
  "coverage": 2132,
  "covered": 2133,
  "covering": 2134,
  "covers": 2135,
  "cow": 2136,
  "cowboy": 2137,
  "coyote": 2138,
  "cp": 2139,
  "cr": 2140,
  "crab": 2141,
  "crabs": 2142,
  "crack": 2143,
  "cracked": 2144,
  "craft": 2145,
  "crank": 2146,
  "crap": 2147,
  "crash": 2148,
  "crawl": 2149,
  "crazy": 2150,
  "cream": 2151,
  "creamy": 2152,
  "create": 2153,
  "created": 2154,
  "creates": 2155,
  "creating": 2156,
  "creative": 2157,
  "creativity": 2158,
  "creature": 2159,
  "credit": 2160,
  "creeks": 2161,
  "creep": 2162,
  "creeping": 2163,
  "crescent": 2164,
  "crest": 2165,
  "crew": 2166,
  "cricket": 2167,
  "critical": 2168,
  "crocodile": 2169,
  "crooked": 2170,
  "cross": 2171,
  "crossed": 2172,
  "crossing": 2173,
  "crowd": 2174,
  "crown": 2175,
  "crucial": 2176,
  "crunch": 2177,
  "crust": 2178,
  "crystals": 2179,
  "cu": 2180,
  "cue": 2181,
  "cuff": 2182,
  "culinary": 2183,
  "cup": 2184,
  "cupped": 2185,
  "cups": 2186,
  "curb": 2187,
  "cure": 2188,
  "curl": 2189,
  "curled": 2190,
  "curling": 2191,
  "curls": 2192,
  "curly": 2193,
  "current": 2194,
  "currently": 2195,
  "curve": 2196,
  "custom": 2197,
  "customer": 2198,
  "customers": 2199,
  "cut": 2200,
  "cute": 2201,
  "cuts": 2202,
  "cutter": 2203,
  "cutting": 2204,
  "cy": 2205,
  "cycle": 2206,
  "cycles": 2207,
  "cylinder": 2208,
  "d": 2209,
  "da": 2210,
  "dad": 2211,
  "daily": 2212,
  "dairy": 2213,
  "daisy": 2214,
  "dam": 2215,
  "damage": 2216,
  "damaged": 2217,
  "dame": 2218,
  "damp": 2219,
  "dan": 2220,
  "dance": 2221,
  "dancers": 2222,
  "dancing": 2223,
  "danger": 2224,
  "dangerous": 2225,
  "dangers": 2226,
  "daniel": 2227,
  "dar": 2228,
  "dark": 2229,
  "darker": 2230,
  "darren": 2231,
  "dash": 2232,
  "data": 2233,
  "database": 2234,
  "date": 2235,
  "dates": 2236,
  "dating": 2237,
  "dave": 2238,
  "david": 2239,
  "day": 2240,
  "days": 2241,
  "dd": 2242,
  "de": 2243,
  "dead": 2244,
  "deadline": 2245,
  "deal": 2246,
  "dealer": 2247,
  "dealing": 2248,
  "dealt": 2249,
  "dean": 2250,
  "dear": 2251,
  "death": 2252,
  "debris": 2253,
  "dec": 2254,
  "decent": 2255,
  "decide": 2256,
  "decided": 2257,
  "deciding": 2258,
  "decision": 2259,
  "deck": 2260,
  "decks": 2261,
  "declare": 2262,
  "deco": 2263,
  "decor": 2264,
  "decorate": 2265,
  "decoration": 2266,
  "decorations": 2267,
  "decorative": 2268,
  "dedicated": 2269,
  "deep": 2270,
  "deeper": 2271,
  "deeply": 2272,
  "def": 2273,
  "defeating": 2274,
  "defender": 2275,
  "defending": 2276,
  "defense": 2277,
  "defensive": 2278,
  "define": 2279,
  "definitely": 2280,
  "definition": 2281,
  "degree": 2282,
  "degrees": 2283,
  "del": 2284,
  "deliberately": 2285,
  "delicate": 2286,
  "delicious": 2287,
  "deliver": 2288,
  "delivered": 2289,
  "delta": 2290,
  "deluxe": 2291,
  "demo": 2292,
  "democrats": 2293,
  "demons": 2294,
  "demonstrate": 2295,
  "demonstrated": 2296,
  "demonstrates": 2297,
  "demonstrating": 2298,
  "demonstration": 2299,
  "den": 2300,
  "denial": 2301,
  "denim": 2302,
  "dent": 2303,
  "dental": 2304,
  "dentist": 2305,
  "department": 2306,
  "depending": 2307,
  "depends": 2308,
  "depot": 2309,
  "depression": 2310,
  "depth": 2311,
  "describe": 2312,
  "describing": 2313,
  "descriptions": 2314,
  "desert": 2315,
  "design": 2316,
  "designate": 2317,
  "designed": 2318,
  "designer": 2319,
  "designers": 2320,
  "designing": 2321,
  "designs": 2322,
  "desired": 2323,
  "desk": 2324,
  "desktop": 2325,
  "despite": 2326,
  "destination": 2327,
  "destroy": 2328,
  "det": 2329,
  "detail": 2330,
  "detailed": 2331,
  "details": 2332,
  "detector": 2333,
  "detectors": 2334,
  "determine": 2335,
  "determining": 2336,
  "detroit": 2337,
  "develop": 2338,
  "developer": 2339,
  "developers": 2340,
  "development": 2341,
  "develops": 2342,
  "device": 2343,
  "devices": 2344,
  "devil": 2345,
  "dew": 2346,
  "di": 2347,
  "dia": 2348,
  "diabetes": 2349,
  "diagnosed": 2350,
  "diagonal": 2351,
  "dial": 2352,
  "dialogue": 2353,
  "diameter": 2354,
  "diamond": 2355,
  "diamonds": 2356,
  "dice": 2357,
  "did": 2358,
  "didn": 2359,
  "die": 2360,
  "died": 2361,
  "diet": 2362,
  "differ": 2363,
  "difference": 2364,
  "different": 2365,
  "differently": 2366,
  "difficult": 2367,
  "dig": 2368,
  "digging": 2369,
  "digital": 2370,
  "dil": 2371,
  "dimension": 2372,
  "dimensions": 2373,
  "diminished": 2374,
  "dinner": 2375,
  "dinosaur": 2376,
  "dip": 2377,
  "dipping": 2378,
  "direct": 2379,
  "direction": 2380,
  "directional": 2381,
  "directions": 2382,
  "directly": 2383,
  "director": 2384,
  "dirt": 2385,
  "dirty": 2386,
  "disabilities": 2387,
  "disadvantage": 2388,
  "disappear": 2389,
  "disappeared": 2390,
  "disc": 2391,
  "discharge": 2392,
  "disclosure": 2393,
  "disco": 2394,
  "discomfort": 2395,
  "discourage": 2396,
  "discovered": 2397,
  "discreet": 2398,
  "discuss": 2399,
  "discussed": 2400,
  "discussing": 2401,
  "disgusting": 2402,
  "dish": 2403,
  "disk": 2404,
  "disks": 2405,
  "display": 2406,
  "displaying": 2407,
  "dispose": 2408,
  "distance": 2409,
  "distinct": 2410,
  "distinction": 2411,
  "distracted": 2412,
  "distracting": 2413,
  "distraction": 2414,
  "distribute": 2415,
  "distributors": 2416,
  "dive": 2417,
  "divide": 2418,
  "divided": 2419,
  "diving": 2420,
  "divorce": 2421,
  "dixon": 2422,
  "dizzy": 2423,
  "do": 2424,
  "doctor": 2425,
  "does": 2426,
  "doesn": 2427,
  "dog": 2428,
  "dogs": 2429,
  "doing": 2430,
  "dollar": 2431,
  "dollars": 2432,
  "dolly": 2433,
  "dome": 2434,
  "domestic": 2435,
  "don": 2436,
  "dona": 2437,
  "donated": 2438,
  "done": 2439,
  "donna": 2440,
  "donnell": 2441,
  "door": 2442,
  "doors": 2443,
  "dorm": 2444,
  "dos": 2445,
  "dot": 2446,
  "dots": 2447,
  "double": 2448,
  "doubled": 2449,
  "doubt": 2450,
  "doug": 2451,
  "dow": 2452,
  "down": 2453,
  "downs": 2454,
  "downward": 2455,
  "dr": 2456,
  "draft": 2457,
  "drag": 2458,
  "dragging": 2459,
  "drain": 2460,
  "dramatic": 2461,
  "dramatically": 2462,
  "draw": 2463,
  "drawer": 2464,
  "drawing": 2465,
  "drawings": 2466,
  "drawn": 2467,
  "dread": 2468,
  "dress": 2469,
  "dresser": 2470,
  "dresses": 2471,
  "dressing": 2472,
  "drew": 2473,
  "dried": 2474,
  "drift": 2475,
  "drill": 2476,
  "drilled": 2477,
  "drills": 2478,
  "drink": 2479,
  "drinking": 2480,
  "drinks": 2481,
  "drip": 2482,
  "drive": 2483,
  "driver": 2484,
  "drives": 2485,
  "driving": 2486,
  "drop": 2487,
  "dropped": 2488,
  "dropping": 2489,
  "drops": 2490,
  "drought": 2491,
  "drown": 2492,
  "drowning": 2493,
  "drug": 2494,
  "drummer": 2495,
  "dry": 2496,
  "drying": 2497,
  "du": 2498,
  "dual": 2499,
  "dub": 2500,
  "duck": 2501,
  "duct": 2502,
  "dude": 2503,
  "due": 2504,
  "duke": 2505,
  "dull": 2506,
  "dumb": 2507,
  "dump": 2508,
  "dun": 2509,
  "durable": 2510,
  "duration": 2511,
  "during": 2512,
  "dust": 2513,
  "dustin": 2514,
  "dusty": 2515,
  "dutch": 2516,
  "duty": 2517,
  "dye": 2518,
  "dynamic": 2519,
  "e": 2520,
  "ea": 2521,
  "each": 2522,
  "ear": 2523,
  "early": 2524,
  "ears": 2525,
  "earth": 2526,
  "ease": 2527,
  "easier": 2528,
  "easiest": 2529,
  "easily": 2530,
  "easing": 2531,
  "east": 2532,
  "easter": 2533,
  "eastern": 2534,
  "easy": 2535,
  "eat": 2536,
  "eating": 2537,
  "echo": 2538,
  "economical": 2539,
  "economy": 2540,
  "edge": 2541,
  "edged": 2542,
  "edges": 2543,
  "edible": 2544,
  "edit": 2545,
  "edition": 2546,
  "editor": 2547,
  "editors": 2548,
  "edmund": 2549,
  "education": 2550,
  "eel": 2551,
  "effect": 2552,
  "effective": 2553,
  "effectiveness": 2554,
  "effects": 2555,
  "efficient": 2556,
  "efficiently": 2557,
  "egg": 2558,
  "eggs": 2559,
  "ego": 2560,
  "egypt": 2561,
  "egyptian": 2562,
  "eight": 2563,
  "eighteen": 2564,
  "eighth": 2565,
  "eighty": 2566,
  "either": 2567,
  "el": 2568,
  "elastic": 2569,
  "elbow": 2570,
  "elbows": 2571,
  "electric": 2572,
  "electrical": 2573,
  "electricity": 2574,
  "electro": 2575,
  "electronics": 2576,
  "element": 2577,
  "elementary": 2578,
  "elements": 2579,
  "elevation": 2580,
  "eleven": 2581,
  "elf": 2582,
  "eliminate": 2583,
  "ellen": 2584,
  "elliot": 2585,
  "elliptical": 2586,
  "elmer": 2587,
  "elongated": 2588,
  "else": 2589,
  "em": 2590,
  "email": 2591,
  "emerald": 2592,
  "emi": 2593,
  "emily": 2594,
  "emotion": 2595,
  "emotional": 2596,
  "emotions": 2597,
  "empty": 2598,
  "en": 2599,
  "enable": 2600,
  "enables": 2601,
  "encourage": 2602,
  "encouraging": 2603,
  "end": 2604,
  "ending": 2605,
  "ends": 2606,
  "enemy": 2607,
  "energy": 2608,
  "engage": 2609,
  "engaging": 2610,
  "engine": 2611,
  "english": 2612,
  "enhanced": 2613,
  "enjoy": 2614,
  "enough": 2615,
  "enter": 2616,
  "entered": 2617,
  "enters": 2618,
  "entertainment": 2619,
  "entire": 2620,
  "entirely": 2621,
  "entitled": 2622,
  "entrance": 2623,
  "entry": 2624,
  "environment": 2625,
  "environmental": 2626,
  "environmentally": 2627,
  "enzyme": 2628,
  "enzymes": 2629,
  "episode": 2630,
  "equal": 2631,
  "equals": 2632,
  "equipment": 2633,
  "equipped": 2634,
  "er": 2635,
  "eras": 2636,
  "eric": 2637,
  "erik": 2638,
  "error": 2639,
  "es": 2640,
  "especially": 2641,
  "esq": 2642,
  "essen": 2643,
  "essential": 2644,
  "essentially": 2645,
  "estate": 2646,
  "esteem": 2647,
  "et": 2648,
  "etc": 2649,
  "eternal": 2650,
  "euro": 2651,
  "europe": 2652,
  "evaluate": 2653,
  "evan": 2654,
  "even": 2655,
  "evening": 2656,
  "evenly": 2657,
  "event": 2658,
  "eventually": 2659,
  "ever": 2660,
  "every": 2661,
  "everybody": 2662,
  "everyday": 2663,
  "everyone": 2664,
  "everything": 2665,
  "everywhere": 2666,
  "evidence": 2667,
  "evil": 2668,
  "ex": 2669,
  "exact": 2670,
  "exactly": 2671,
  "exam": 2672,
  "example": 2673,
  "excel": 2674,
  "excellent": 2675,
  "except": 2676,
  "exception": 2677,
  "exceptionally": 2678,
  "excessive": 2679,
  "exchange": 2680,
  "excited": 2681,
  "exciting": 2682,
  "excuse": 2683,
  "excuses": 2684,
  "exercise": 2685,
  "exercises": 2686,
  "exist": 2687,
  "exits": 2688,
  "expanded": 2689,
  "expanding": 2690,
  "expansion": 2691,
  "expect": 2692,
  "expensive": 2693,
  "experience": 2694,
  "experiment": 2695,
  "experiments": 2696,
  "expert": 2697,
  "expertise": 2698,
  "explain": 2699,
  "explaining": 2700,
  "explanation": 2701,
  "explorers": 2702,
  "exposed": 2703,
  "exposure": 2704,
  "expressing": 2705,
  "expression": 2706,
  "expressions": 2707,
  "extend": 2708,
  "extended": 2709,
  "extends": 2710,
  "extension": 2711,
  "extensions": 2712,
  "external": 2713,
  "extra": 2714,
  "extraction": 2715,
  "extreme": 2716,
  "extremely": 2717,
  "eye": 2718,
  "eyebrow": 2719,
  "eyebrows": 2720,
  "eyelashes": 2721,
  "eyes": 2722,
  "f": 2723,
  "f1": 2724,
  "fa": 2725,
  "fabric": 2726,
  "fabrics": 2727,
  "fabulous": 2728,
  "face": 2729,
  "faced": 2730,
  "faces": 2731,
  "facility": 2732,
  "facing": 2733,
  "fact": 2734,
  "factor": 2735,
  "factors": 2736,
  "factory": 2737,
  "fades": 2738,
  "fail": 2739,
  "fair": 2740,
  "fairly": 2741,
  "faith": 2742,
  "fake": 2743,
  "fall": 2744,
  "falling": 2745,
  "falls": 2746,
  "false": 2747,
  "familiar": 2748,
  "family": 2749,
  "famous": 2750,
  "fan": 2751,
  "fancy": 2752,
  "fangs": 2753,
  "fantasies": 2754,
  "fantastic": 2755,
  "far": 2756,
  "farm": 2757,
  "farms": 2758,
  "farther": 2759,
  "fascinating": 2760,
  "fashion": 2761,
  "fast": 2762,
  "faster": 2763,
  "fat": 2764,
  "fatigue": 2765,
  "favorite": 2766,
  "favorites": 2767,
  "fe": 2768,
  "fear": 2769,
  "fearful": 2770,
  "feather": 2771,
  "feature": 2772,
  "features": 2773,
  "feed": 2774,
  "feedback": 2775,
  "feeding": 2776,
  "feel": 2777,
  "feeling": 2778,
  "feelings": 2779,
  "feels": 2780,
  "feet": 2781,
  "fei": 2782,
  "felicia": 2783,
  "fellow": 2784,
  "female": 2785,
  "females": 2786,
  "fence": 2787,
  "fencing": 2788,
  "festivals": 2789,
  "fetch": 2790,
  "few": 2791,
  "fewer": 2792,
  "fi": 2793,
  "fiber": 2794,
  "fibers": 2795,
  "field": 2796,
  "fields": 2797,
  "fifteen": 2798,
  "fifth": 2799,
  "fifty": 2800,
  "fig": 2801,
  "fight": 2802,
  "fighter": 2803,
  "fighting": 2804,
  "figure": 2805,
  "file": 2806,
  "filing": 2807,
  "fill": 2808,
  "filling": 2809,
  "film": 2810,
  "filter": 2811,
  "filtering": 2812,
  "final": 2813,
  "finally": 2814,
  "financial": 2815,
  "finch": 2816,
  "find": 2817,
  "finding": 2818,
  "findings": 2819,
  "finds": 2820,
  "fine": 2821,
  "finely": 2822,
  "finer": 2823,
  "fines": 2824,
  "finger": 2825,
  "fingernails": 2826,
  "fingerprints": 2827,
  "fingers": 2828,
  "finish": 2829,
  "finished": 2830,
  "finishing": 2831,
  "fins": 2832,
  "fire": 2833,
  "fired": 2834,
  "firing": 2835,
  "firm": 2836,
  "firmly": 2837,
  "first": 2838,
  "fish": 2839,
  "fisher": 2840,
  "fishermen": 2841,
  "fishing": 2842,
  "fist": 2843,
  "fit": 2844,
  "fitness": 2845,
  "fitting": 2846,
  "fitzpatrick": 2847,
  "five": 2848,
  "fix": 2849,
  "fixed": 2850,
  "fl": 2851,
  "flag": 2852,
  "flags": 2853,
  "flame": 2854,
  "flaming": 2855,
  "flash": 2856,
  "flat": 2857,
  "flattened": 2858,
  "flavor": 2859,
  "flavors": 2860,
  "flea": 2861,
  "flesh": 2862,
  "flew": 2863,
  "flex": 2864,
  "flexible": 2865,
  "flick": 2866,
  "flies": 2867,
  "flight": 2868,
  "flint": 2869,
  "flip": 2870,
  "flipping": 2871,
  "float": 2872,
  "floating": 2873,
  "floats": 2874,
  "floor": 2875,
  "florida": 2876,
  "flour": 2877,
  "flourish": 2878,
  "flow": 2879,
  "flower": 2880,
  "flowering": 2881,
  "flowers": 2882,
  "flowing": 2883,
  "flows": 2884,
  "flu": 2885,
  "fluffy": 2886,
  "fluid": 2887,
  "fluorescent": 2888,
  "flush": 2889,
  "flushed": 2890,
  "flute": 2891,
  "flutes": 2892,
  "fluttering": 2893,
  "flux": 2894,
  "fly": 2895,
  "flyer": 2896,
  "flying": 2897,
  "foam": 2898,
  "focus": 2899,
  "focuses": 2900,
  "focusing": 2901,
  "foil": 2902,
  "fold": 2903,
  "folded": 2904,
  "folds": 2905,
  "folk": 2906,
  "folks": 2907,
  "follow": 2908,
  "followed": 2909,
  "follows": 2910,
  "fond": 2911,
  "font": 2912,
  "food": 2913,
  "foods": 2914,
  "fool": 2915,
  "foot": 2916,
  "football": 2917,
  "footing": 2918,
  "for": 2919,
  "forbid": 2920,
  "force": 2921,
  "fore": 2922,
  "forearm": 2923,
  "forearms": 2924,
  "foreign": 2925,
  "forest": 2926,
  "forever": 2927,
  "forget": 2928,
  "forgot": 2929,
  "forgotten": 2930,
  "fork": 2931,
  "form": 2932,
  "formal": 2933,
  "formation": 2934,
  "formulated": 2935,
  "fort": 2936,
  "forte": 2937,
  "forth": 2938,
  "fortunate": 2939,
  "fortunately": 2940,
  "forty": 2941,
  "forward": 2942,
  "found": 2943,
  "foundation": 2944,
  "four": 2945,
  "fours": 2946,
  "fourteen": 2947,
  "fourth": 2948,
  "fr": 2949,
  "fraction": 2950,
  "fragile": 2951,
  "fragrance": 2952,
  "frame": 2953,
  "frames": 2954,
  "framing": 2955,
  "frantic": 2956,
  "freak": 2957,
  "fred": 2958,
  "free": 2959,
  "freelance": 2960,
  "freestyle": 2961,
  "freeze": 2962,
  "french": 2963,
  "frequently": 2964,
  "fresh": 2965,
  "frey": 2966,
  "fried": 2967,
  "friend": 2968,
  "friendly": 2969,
  "friends": 2970,
  "friendship": 2971,
  "frightening": 2972,
  "fringe": 2973,
  "frog": 2974,
  "frogs": 2975,
  "from": 2976,
  "front": 2977,
  "frontal": 2978,
  "frost": 2979,
  "fruit": 2980,
  "fry": 2981,
  "fu": 2982,
  "full": 2983,
  "fully": 2984,
  "fun": 2985,
  "function": 2986,
  "functions": 2987,
  "fundamental": 2988,
  "fungus": 2989,
  "funky": 2990,
  "funny": 2991,
  "furniture": 2992,
  "furry": 2993,
  "further": 2994,
  "fused": 2995,
  "future": 2996,
  "g": 2997,
  "ga": 2998,
  "gables": 2999,
  "gabriel": 3000,
  "gage": 3001,
  "gain": 3002,
  "gal": 3003,
  "gallon": 3004,
  "game": 3005,
  "games": 3006,
  "gap": 3007,
  "garage": 3008,
  "garden": 3009,
  "gardening": 3010,
  "garlic": 3011,
  "garment": 3012,
  "gas": 3013,
  "gather": 3014,
  "gathering": 3015,
  "gauge": 3016,
  "gave": 3017,
  "ge": 3018,
  "gear": 3019,
  "gee": 3020,
  "gel": 3021,
  "general": 3022,
  "generally": 3023,
  "generals": 3024,
  "generic": 3025,
  "genetics": 3026,
  "genie": 3027,
  "gentle": 3028,
  "gently": 3029,
  "geographical": 3030,
  "geometry": 3031,
  "german": 3032,
  "gesture": 3033,
  "gesturing": 3034,
  "get": 3035,
  "gets": 3036,
  "getting": 3037,
  "gi": 3038,
  "gibson": 3039,
  "gift": 3040,
  "gifts": 3041,
  "gill": 3042,
  "gin": 3043,
  "gina": 3044,
  "ginger": 3045,
  "girl": 3046,
  "girls": 3047,
  "give": 3048,
  "gives": 3049,
  "giving": 3050,
  "glancing": 3051,
  "glass": 3052,
  "glasses": 3053,
  "glide": 3054,
  "glider": 3055,
  "glitter": 3056,
  "gloom": 3057,
  "gloss": 3058,
  "glossy": 3059,
  "glove": 3060,
  "gloves": 3061,
  "glow": 3062,
  "glue": 3063,
  "glued": 3064,
  "go": 3065,
  "goal": 3066,
  "goals": 3067,
  "god": 3068,
  "goddess": 3069,
  "goes": 3070,
  "going": 3071,
  "gold": 3072,
  "golden": 3073,
  "golf": 3074,
  "gomez": 3075,
  "gone": 3076,
  "gonna": 3077,
  "good": 3078,
  "goodbye": 3079,
  "goodman": 3080,
  "google": 3081,
  "gorgeous": 3082,
  "gossip": 3083,
  "got": 3084,
  "goth": 3085,
  "gotta": 3086,
  "gotten": 3087,
  "gr": 3088,
  "grab": 3089,
  "grabbing": 3090,
  "grabs": 3091,
  "grade": 3092,
  "grading": 3093,
  "gradually": 3094,
  "graduate": 3095,
  "graduation": 3096,
  "grady": 3097,
  "graham": 3098,
  "grain": 3099,
  "grams": 3100,
  "gran": 3101,
  "grand": 3102,
  "grandmother": 3103,
  "grandparents": 3104,
  "granted": 3105,
  "grape": 3106,
  "graph": 3107,
  "graphic": 3108,
  "grass": 3109,
  "graveyard": 3110,
  "gray": 3111,
  "grease": 3112,
  "great": 3113,
  "greatest": 3114,
  "greatly": 3115,
  "green": 3116,
  "greene": 3117,
  "greens": 3118,
  "greenwich": 3119,
  "greeting": 3120,
  "greg": 3121,
  "gregory": 3122,
  "grew": 3123,
  "grey": 3124,
  "grid": 3125,
  "griffin": 3126,
  "grim": 3127,
  "grind": 3128,
  "grip": 3129,
  "grit": 3130,
  "grocery": 3131,
  "groom": 3132,
  "gross": 3133,
  "ground": 3134,
  "group": 3135,
  "groups": 3136,
  "grove": 3137,
  "grow": 3138,
  "growing": 3139,
  "growl": 3140,
  "grows": 3141,
  "growth": 3142,
  "guarantee": 3143,
  "guaranteed": 3144,
  "guard": 3145,
  "guards": 3146,
  "guess": 3147,
  "guessing": 3148,
  "guide": 3149,
  "guidelines": 3150,
  "guides": 3151,
  "guild": 3152,
  "guillermo": 3153,
  "guinness": 3154,
  "guitar": 3155,
  "guitars": 3156,
  "gulf": 3157,
  "gun": 3158,
  "guy": 3159,
  "guys": 3160,
  "gym": 3161,
  "gymnastics": 3162,
  "h": 3163,
  "ha": 3164,
  "habit": 3165,
  "had": 3166,
  "hadn": 3167,
  "hair": 3168,
  "hairs": 3169,
  "hairy": 3170,
  "hale": 3171,
  "half": 3172,
  "halfway": 3173,
  "halo": 3174,
  "halves": 3175,
  "ham": 3176,
  "hammer": 3177,
  "hand": 3178,
  "handed": 3179,
  "handle": 3180,
  "handler": 3181,
  "handles": 3182,
  "handling": 3183,
  "hands": 3184,
  "handy": 3185,
  "hang": 3186,
  "hanging": 3187,
  "happen": 3188,
  "happened": 3189,
  "happening": 3190,
  "happens": 3191,
  "happy": 3192,
  "hard": 3193,
  "hardcore": 3194,
  "harden": 3195,
  "harder": 3196,
  "hardly": 3197,
  "hardness": 3198,
  "hardware": 3199,
  "hardy": 3200,
  "harmful": 3201,
  "harmless": 3202,
  "harmon": 3203,
  "harness": 3204,
  "harsh": 3205,
  "harvest": 3206,
  "has": 3207,
  "hasn": 3208,
  "hat": 3209,
  "hate": 3210,
  "hats": 3211,
  "haunted": 3212,
  "have": 3213,
  "haven": 3214,
  "having": 3215,
  "he": 3216,
  "head": 3217,
  "headache": 3218,
  "headlights": 3219,
  "headline": 3220,
  "heads": 3221,
  "healer": 3222,
  "healing": 3223,
  "health": 3224,
  "healthy": 3225,
  "heap": 3226,
  "hear": 3227,
  "heard": 3228,
  "heart": 3229,
  "hearts": 3230,
  "heat": 3231,
  "heaven": 3232,
  "heavier": 3233,
  "heavily": 3234,
  "heavy": 3235,
  "heel": 3236,
  "heels": 3237,
  "height": 3238,
  "held": 3239,
  "hello": 3240,
  "help": 3241,
  "helpful": 3242,
  "helps": 3243,
  "hem": 3244,
  "hemisphere": 3245,
  "hen": 3246,
  "hence": 3247,
  "henry": 3248,
  "her": 3249,
  "herb": 3250,
  "herbal": 3251,
  "herbs": 3252,
  "here": 3253,
  "hero": 3254,
  "herself": 3255,
  "hey": 3256,
  "hi": 3257,
  "hide": 3258,
  "hideous": 3259,
  "hides": 3260,
  "hiding": 3261,
  "high": 3262,
  "higher": 3263,
  "highlight": 3264,
  "highlights": 3265,
  "highly": 3266,
  "highway": 3267,
  "hiking": 3268,
  "hill": 3269,
  "hilltop": 3270,
  "him": 3271,
  "himself": 3272,
  "hip": 3273,
  "hips": 3274,
  "hired": 3275,
  "his": 3276,
  "history": 3277,
  "hit": 3278,
  "hitch": 3279,
  "hitting": 3280,
  "ho": 3281,
  "hold": 3282,
  "holder": 3283,
  "holding": 3284,
  "holds": 3285,
  "hole": 3286,
  "holes": 3287,
  "holiday": 3288,
  "holidays": 3289,
  "hollow": 3290,
  "hollywood": 3291,
  "home": 3292,
  "homework": 3293,
  "honest": 3294,
  "honestly": 3295,
  "honesty": 3296,
  "honey": 3297,
  "hook": 3298,
  "hooked": 3299,
  "hooks": 3300,
  "hoop": 3301,
  "hop": 3302,
  "hope": 3303,
  "hopefully": 3304,
  "hopping": 3305,
  "horizon": 3306,
  "horizontal": 3307,
  "horizontally": 3308,
  "hormone": 3309,
  "horns": 3310,
  "horrible": 3311,
  "horribly": 3312,
  "horse": 3313,
  "horseback": 3314,
  "horses": 3315,
  "hose": 3316,
  "hot": 3317,
  "hotels": 3318,
  "hotter": 3319,
  "hour": 3320,
  "hours": 3321,
  "house": 3322,
  "household": 3323,
  "houses": 3324,
  "housing": 3325,
  "hovering": 3326,
  "how": 3327,
  "however": 3328,
  "html": 3329,
  "hu": 3330,
  "hug": 3331,
  "huge": 3332,
  "huh": 3333,
  "hulk": 3334,
  "hum": 3335,
  "human": 3336,
  "humans": 3337,
  "humor": 3338,
  "hundred": 3339,
  "hundreds": 3340,
  "hungry": 3341,
  "hunter": 3342,
  "hunters": 3343,
  "hunting": 3344,
  "hurdle": 3345,
  "hurricane": 3346,
  "hurricanes": 3347,
  "hurt": 3348,
  "hurts": 3349,
  "husband": 3350,
  "hydra": 3351,
  "hydro": 3352,
  "hydrogen": 3353,
  "hyper": 3354,
  "i": 3355,
  "ia": 3356,
  "ian": 3357,
  "ib": 3358,
  "ice": 3359,
  "icons": 3360,
  "id": 3361,
  "idea": 3362,
  "ideal": 3363,
  "ideally": 3364,
  "ideas": 3365,
  "identical": 3366,
  "identified": 3367,
  "identify": 3368,
  "idle": 3369,
  "if": 3370,
  "ign": 3371,
  "ii": 3372,
  "ike": 3373,
  "ill": 3374,
  "illusion": 3375,
  "illustrate": 3376,
  "illustrator": 3377,
  "im": 3378,
  "image": 3379,
  "imaginary": 3380,
  "imagination": 3381,
  "imagine": 3382,
  "immediate": 3383,
  "immediately": 3384,
  "immune": 3385,
  "imp": 3386,
  "impact": 3387,
  "implementation": 3388,
  "import": 3389,
  "importance": 3390,
  "important": 3391,
  "importantly": 3392,
  "imported": 3393,
  "imposing": 3394,
  "impossible": 3395,
  "impress": 3396,
  "impression": 3397,
  "impressive": 3398,
  "impromptu": 3399,
  "improve": 3400,
  "in": 3401,
  "inadvertently": 3402,
  "inch": 3403,
  "inches": 3404,
  "incline": 3405,
  "include": 3406,
  "including": 3407,
  "income": 3408,
  "inconsistent": 3409,
  "incorporate": 3410,
  "incorporated": 3411,
  "incorporates": 3412,
  "increase": 3413,
  "increasing": 3414,
  "incredible": 3415,
  "incredibly": 3416,
  "ind": 3417,
  "indefinitely": 3418,
  "independent": 3419,
  "independently": 3420,
  "index": 3421,
  "india": 3422,
  "indicates": 3423,
  "individually": 3424,
  "individuals": 3425,
  "indoor": 3426,
  "indoors": 3427,
  "industry": 3428,
  "inexpensive": 3429,
  "infected": 3430,
  "infection": 3431,
  "infections": 3432,
  "influences": 3433,
  "informal": 3434,
  "information": 3435,
  "infrastructure": 3436,
  "ingredient": 3437,
  "ingredients": 3438,
  "initiate": 3439,
  "initiation": 3440,
  "injured": 3441,
  "injuries": 3442,
  "ink": 3443,
  "inner": 3444,
  "ins": 3445,
  "insect": 3446,
  "insects": 3447,
  "insert": 3448,
  "inserted": 3449,
  "inside": 3450,
  "insignia": 3451,
  "inspire": 3452,
  "inspired": 3453,
  "install": 3454,
  "installing": 3455,
  "instance": 3456,
  "instant": 3457,
  "instead": 3458,
  "instructor": 3459,
  "instruments": 3460,
  "insulation": 3461,
  "int": 3462,
  "intake": 3463,
  "integrate": 3464,
  "integrated": 3465,
  "integrating": 3466,
  "intelligent": 3467,
  "intense": 3468,
  "intensity": 3469,
  "intensive": 3470,
  "intention": 3471,
  "inter": 3472,
  "interactions": 3473,
  "interactive": 3474,
  "interceptions": 3475,
  "interest": 3476,
  "interested": 3477,
  "interesting": 3478,
  "interference": 3479,
  "interior": 3480,
  "intermediate": 3481,
  "international": 3482,
  "internet": 3483,
  "internship": 3484,
  "interpret": 3485,
  "interpretation": 3486,
  "interrupt": 3487,
  "interval": 3488,
  "intervals": 3489,
  "intervention": 3490,
  "interview": 3491,
  "intimidated": 3492,
  "intimidating": 3493,
  "into": 3494,
  "introduce": 3495,
  "invented": 3496,
  "inverse": 3497,
  "inverted": 3498,
  "invest": 3499,
  "invisible": 3500,
  "invite": 3501,
  "involve": 3502,
  "involved": 3503,
  "involves": 3504,
  "inward": 3505,
  "iris": 3506,
  "iron": 3507,
  "irregular": 3508,
  "irrigation": 3509,
  "irritation": 3510,
  "is": 3511,
  "island": 3512,
  "isle": 3513,
  "isn": 3514,
  "iso": 3515,
  "isolate": 3516,
  "isolated": 3517,
  "isolation": 3518,
  "issue": 3519,
  "issues": 3520,
  "it": 3521,
  "italian": 3522,
  "italy": 3523,
  "items": 3524,
  "its": 3525,
  "itself": 3526,
  "ivan": 3527,
  "j": 3528,
  "ja": 3529,
  "jack": 3530,
  "jacket": 3531,
  "jackie": 3532,
  "jagged": 3533,
  "jail": 3534,
  "jam": 3535,
  "james": 3536,
  "jan": 3537,
  "janet": 3538,
  "japan": 3539,
  "japanese": 3540,
  "jar": 3541,
  "jared": 3542,
  "jasmine": 3543,
  "jason": 3544,
  "jaw": 3545,
  "je": 3546,
  "jean": 3547,
  "jeans": 3548,
  "jenkins": 3549,
  "jennifer": 3550,
  "jerk": 3551,
  "jerry": 3552,
  "jewel": 3553,
  "jewelry": 3554,
  "ji": 3555,
  "jim": 3556,
  "job": 3557,
  "jobs": 3558,
  "joe": 3559,
  "johanna": 3560,
  "john": 3561,
  "johnson": 3562,
  "johnstone": 3563,
  "join": 3564,
  "joining": 3565,
  "joint": 3566,
  "joints": 3567,
  "joke": 3568,
  "joker": 3569,
  "jokes": 3570,
  "jon": 3571,
  "jones": 3572,
  "jordan": 3573,
  "joseph": 3574,
  "journal": 3575,
  "journals": 3576,
  "journey": 3577,
  "judge": 3578,
  "jug": 3579,
  "juice": 3580,
  "juicy": 3581,
  "julie": 3582,
  "julio": 3583,
  "jump": 3584,
  "jumping": 3585,
  "jumps": 3586,
  "juniors": 3587,
  "junk": 3588,
  "jury": 3589,
  "just": 3590,
  "justified": 3591,
  "justify": 3592,
  "k": 3593,
  "ka": 3594,
  "karate": 3595,
  "kari": 3596,
  "kathy": 3597,
  "kay": 3598,
  "ke": 3599,
  "keep": 3600,
  "keeping": 3601,
  "keeps": 3602,
  "keith": 3603,
  "ken": 3604,
  "kept": 3605,
  "kerr": 3606,
  "kerry": 3607,
  "kettle": 3608,
  "key": 3609,
  "keys": 3610,
  "kgb": 3611,
  "ki": 3612,
  "kick": 3613,
  "kicker": 3614,
  "kicking": 3615,
  "kicks": 3616,
  "kid": 3617,
  "kidding": 3618,
  "kids": 3619,
  "kill": 3620,
  "killer": 3621,
  "kim": 3622,
  "kin": 3623,
  "kind": 3624,
  "kinda": 3625,
  "kinds": 3626,
  "king": 3627,
  "kiss": 3628,
  "kit": 3629,
  "kitchen": 3630,
  "kite": 3631,
  "kits": 3632,
  "kitty": 3633,
  "kn": 3634,
  "knee": 3635,
  "knees": 3636,
  "knew": 3637,
  "knife": 3638,
  "knit": 3639,
  "knives": 3640,
  "knob": 3641,
  "knock": 3642,
  "knot": 3643,
  "knots": 3644,
  "knotted": 3645,
  "know": 3646,
  "knowing": 3647,
  "knowledge": 3648,
  "known": 3649,
  "knows": 3650,
  "knuckles": 3651,
  "ko": 3652,
  "kung": 3653,
  "kw": 3654,
  "kyle": 3655,
  "l": 3656,
  "la": 3657,
  "lab": 3658,
  "label": 3659,
  "labor": 3660,
  "lace": 3661,
  "lack": 3662,
  "lacking": 3663,
  "ladder": 3664,
  "laid": 3665,
  "lake": 3666,
  "lakes": 3667,
  "lam": 3668,
  "lamp": 3669,
  "lan": 3670,
  "lands": 3671,
  "landscape": 3672,
  "language": 3673,
  "laptop": 3674,
  "large": 3675,
  "largely": 3676,
  "larger": 3677,
  "lars": 3678,
  "laser": 3679,
  "lash": 3680,
  "lass": 3681,
  "last": 3682,
  "lasting": 3683,
  "lastly": 3684,
  "late": 3685,
  "lately": 3686,
  "later": 3687,
  "lateral": 3688,
  "latest": 3689,
  "laugh": 3690,
  "laughs": 3691,
  "laughter": 3692,
  "laura": 3693,
  "lava": 3694,
  "lavender": 3695,
  "law": 3696,
  "lawyer": 3697,
  "lay": 3698,
  "layer": 3699,
  "layered": 3700,
  "layers": 3701,
  "laying": 3702,
  "layout": 3703,
  "lazy": 3704,
  "lbs": 3705,
  "leach": 3706,
  "lead": 3707,
  "leader": 3708,
  "leading": 3709,
  "leads": 3710,
  "leaf": 3711,
  "leafs": 3712,
  "league": 3713,
  "leagues": 3714,
  "lean": 3715,
  "leaning": 3716,
  "leap": 3717,
  "learn": 3718,
  "learned": 3719,
  "learning": 3720,
  "lease": 3721,
  "leases": 3722,
  "leash": 3723,
  "least": 3724,
  "leather": 3725,
  "leave": 3726,
  "leaves": 3727,
  "leaving": 3728,
  "led": 3729,
  "lee": 3730,
  "left": 3731,
  "leg": 3732,
  "legally": 3733,
  "legged": 3734,
  "legs": 3735,
  "lemon": 3736,
  "length": 3737,
  "lens": 3738,
  "lenses": 3739,
  "lent": 3740,
  "leopard": 3741,
  "les": 3742,
  "less": 3743,
  "lesson": 3744,
  "let": 3745,
  "lets": 3746,
  "letter": 3747,
  "letters": 3748,
  "letting": 3749,
  "level": 3750,
  "levels": 3751,
  "lever": 3752,
  "lewis": 3753,
  "liberal": 3754,
  "license": 3755,
  "licking": 3756,
  "lid": 3757,
  "lie": 3758,
  "lies": 3759,
  "life": 3760,
  "lifetime": 3761,
  "lift": 3762,
  "lifted": 3763,
  "lifting": 3764,
  "lifts": 3765,
  "light": 3766,
  "lighter": 3767,
  "lighting": 3768,
  "lightly": 3769,
  "lights": 3770,
  "like": 3771,
  "liked": 3772,
  "likely": 3773,
  "likes": 3774,
  "likewise": 3775,
  "liking": 3776,
  "lily": 3777,
  "limb": 3778,
  "lime": 3779,
  "limited": 3780,
  "limits": 3781,
  "limo": 3782,
  "limp": 3783,
  "lin": 3784,
  "lincoln": 3785,
  "linda": 3786,
  "lindsay": 3787,
  "line": 3788,
  "lined": 3789,
  "liner": 3790,
  "lines": 3791,
  "lining": 3792,
  "lip": 3793,
  "lips": 3794,
  "lipstick": 3795,
  "liquid": 3796,
  "liquids": 3797,
  "liquor": 3798,
  "lisa": 3799,
  "listen": 3800,
  "listener": 3801,
  "lit": 3802,
  "liter": 3803,
  "literally": 3804,
  "literary": 3805,
  "litter": 3806,
  "little": 3807,
  "live": 3808,
  "lives": 3809,
  "living": 3810,
  "liz": 3811,
  "lizard": 3812,
  "ll": 3813,
  "lo": 3814,
  "load": 3815,
  "loaded": 3816,
  "loading": 3817,
  "loads": 3818,
  "lobster": 3819,
  "local": 3820,
  "locally": 3821,
  "locate": 3822,
  "located": 3823,
  "location": 3824,
  "locations": 3825,
  "lock": 3826,
  "locked": 3827,
  "locking": 3828,
  "locks": 3829,
  "log": 3830,
  "logo": 3831,
  "logos": 3832,
  "lonely": 3833,
  "long": 3834,
  "longer": 3835,
  "longevity": 3836,
  "longitudinal": 3837,
  "look": 3838,
  "looked": 3839,
  "looking": 3840,
  "looks": 3841,
  "loop": 3842,
  "loops": 3843,
  "loose": 3844,
  "loosened": 3845,
  "lopez": 3846,
  "lori": 3847,
  "lose": 3848,
  "loses": 3849,
  "losing": 3850,
  "loss": 3851,
  "lot": 3852,
  "lots": 3853,
  "lotus": 3854,
  "loud": 3855,
  "lounge": 3856,
  "love": 3857,
  "loved": 3858,
  "lovely": 3859,
  "loves": 3860,
  "low": 3861,
  "lowe": 3862,
  "lower": 3863,
  "lowest": 3864,
  "loyalty": 3865,
  "lu": 3866,
  "lucifer": 3867,
  "luck": 3868,
  "lucky": 3869,
  "luis": 3870,
  "luke": 3871,
  "lump": 3872,
  "lung": 3873,
  "lungs": 3874,
  "lust": 3875,
  "m": 3876,
  "ma": 3877,
  "mac": 3878,
  "machine": 3879,
  "machines": 3880,
  "macro": 3881,
  "mad": 3882,
  "made": 3883,
  "mag": 3884,
  "magazine": 3885,
  "magazines": 3886,
  "magic": 3887,
  "magical": 3888,
  "magician": 3889,
  "magnet": 3890,
  "magnetic": 3891,
  "mail": 3892,
  "main": 3893,
  "mainly": 3894,
  "maintain": 3895,
  "maintaining": 3896,
  "maintenance": 3897,
  "major": 3898,
  "make": 3899,
  "makers": 3900,
  "makes": 3901,
  "makeup": 3902,
  "making": 3903,
  "mal": 3904,
  "male": 3905,
  "males": 3906,
  "malibu": 3907,
  "malicious": 3908,
  "mall": 3909,
  "man": 3910,
  "management": 3911,
  "manager": 3912,
  "managing": 3913,
  "mango": 3914,
  "manifold": 3915,
  "manipulate": 3916,
  "manner": 3917,
  "manual": 3918,
  "manufacturer": 3919,
  "many": 3920,
  "map": 3921,
  "maple": 3922,
  "maps": 3923,
  "mar": 3924,
  "mara": 3925,
  "marble": 3926,
  "mark": 3927,
  "marked": 3928,
  "marker": 3929,
  "markers": 3930,
  "market": 3931,
  "marketing": 3932,
  "marking": 3933,
  "marks": 3934,
  "martha": 3935,
  "martial": 3936,
  "martini": 3937,
  "marvel": 3938,
  "mas": 3939,
  "mascara": 3940,
  "mask": 3941,
  "masks": 3942,
  "mass": 3943,
  "massage": 3944,
  "massey": 3945,
  "mast": 3946,
  "master": 3947,
  "mastering": 3948,
  "mat": 3949,
  "match": 3950,
  "matched": 3951,
  "matches": 3952,
  "matching": 3953,
  "material": 3954,
  "materials": 3955,
  "mathematics": 3956,
  "mats": 3957,
  "matt": 3958,
  "matter": 3959,
  "matters": 3960,
  "mature": 3961,
  "max": 3962,
  "maximum": 3963,
  "may": 3964,
  "maybe": 3965,
  "mc": 3966,
  "mcc": 3967,
  "mccormick": 3968,
  "mclean": 3969,
  "me": 3970,
  "meal": 3971,
  "mean": 3972,
  "meaning": 3973,
  "meanings": 3974,
  "means": 3975,
  "meantime": 3976,
  "meanwhile": 3977,
  "measure": 3978,
  "measured": 3979,
  "measurement": 3980,
  "measuring": 3981,
  "meat": 3982,
  "mechanical": 3983,
  "mechanics": 3984,
  "mechanism": 3985,
  "media": 3986,
  "mediated": 3987,
  "medical": 3988,
  "medication": 3989,
  "medicine": 3990,
  "medicines": 3991,
  "mediterranean": 3992,
  "medium": 3993,
  "meet": 3994,
  "meeting": 3995,
  "mega": 3996,
  "megan": 3997,
  "melissa": 3998,
  "melody": 3999,
  "melted": 4000,
  "melting": 4001,
  "member": 4002,
  "members": 4003,
  "membrane": 4004,
  "memory": 4005,
  "men": 4006,
  "mental": 4007,
  "mention": 4008,
  "mentioned": 4009,
  "mentor": 4010,
  "mer": 4011,
  "mermaid": 4012,
  "mess": 4013,
  "message": 4014,
  "messages": 4015,
  "metal": 4016,
  "metaphor": 4017,
  "meter": 4018,
  "meters": 4019,
  "method": 4020,
  "methods": 4021,
  "miami": 4022,
  "michael": 4023,
  "mick": 4024,
  "micro": 4025,
  "microphone": 4026,
  "microsoft": 4027,
  "microwave": 4028,
  "mid": 4029,
  "middle": 4030,
  "middleweight": 4031,
  "midi": 4032,
  "might": 4033,
  "mike": 4034,
  "mil": 4035,
  "mild": 4036,
  "mile": 4037,
  "miles": 4038,
  "milk": 4039,
  "mill": 4040,
  "million": 4041,
  "millions": 4042,
  "mind": 4043,
  "mine": 4044,
  "minimize": 4045,
  "minor": 4046,
  "minus": 4047,
  "minute": 4048,
  "minutes": 4049,
  "mirror": 4050,
  "mirrors": 4051,
  "mis": 4052,
  "miserable": 4053,
  "missing": 4054,
  "mistake": 4055,
  "mistakes": 4056,
  "mistress": 4057,
  "mit": 4058,
  "mix": 4059,
  "mixed": 4060,
  "mixer": 4061,
  "mixes": 4062,
  "mixing": 4063,
  "mixture": 4064,
  "mm": 4065,
  "mo": 4066,
  "mod": 4067,
  "mode": 4068,
  "model": 4069,
  "modeling": 4070,
  "models": 4071,
  "modern": 4072,
  "modifications": 4073,
  "modified": 4074,
  "module": 4075,
  "moist": 4076,
  "moisture": 4077,
  "mold": 4078,
  "mom": 4079,
  "moment": 4080,
  "momentum": 4081,
  "mommy": 4082,
  "monday": 4083,
  "money": 4084,
  "monique": 4085,
  "monitor": 4086,
  "monkeys": 4087,
  "mono": 4088,
  "monopoly": 4089,
  "monster": 4090,
  "mont": 4091,
  "month": 4092,
  "months": 4093,
  "mood": 4094,
  "moon": 4095,
  "more": 4096,
  "morgan": 4097,
  "morning": 4098,
  "mosaic": 4099,
  "most": 4100,
  "mostly": 4101,
  "mother": 4102,
  "motion": 4103,
  "motions": 4104,
  "motorcycle": 4105,
  "mountain": 4106,
  "mountainous": 4107,
  "mountains": 4108,
  "mounted": 4109,
  "mounting": 4110,
  "mouth": 4111,
  "move": 4112,
  "moved": 4113,
  "movement": 4114,
  "movements": 4115,
  "moves": 4116,
  "movie": 4117,
  "movies": 4118,
  "moving": 4119,
  "mr": 4120,
  "ms": 4121,
  "mu": 4122,
  "much": 4123,
  "mud": 4124,
  "mug": 4125,
  "muller": 4126,
  "multi": 4127,
  "multiple": 4128,
  "multitude": 4129,
  "munro": 4130,
  "mural": 4131,
  "murals": 4132,
  "murderer": 4133,
  "murphy": 4134,
  "muscle": 4135,
  "muscles": 4136,
  "music": 4137,
  "musical": 4138,
  "must": 4139,
  "muster": 4140,
  "my": 4141,
  "myself": 4142,
  "n": 4143,
  "na": 4144,
  "nail": 4145,
  "nails": 4146,
  "name": 4147,
  "names": 4148,
  "nancy": 4149,
  "nap": 4150,
  "napkin": 4151,
  "narrow": 4152,
  "nasal": 4153,
  "nasty": 4154,
  "nat": 4155,
  "natalie": 4156,
  "nathan": 4157,
  "nation": 4158,
  "natural": 4159,
  "naturally": 4160,
  "nature": 4161,
  "naughty": 4162,
  "nave": 4163,
  "navy": 4164,
  "ne": 4165,
  "nearby": 4166,
  "nearest": 4167,
  "neat": 4168,
  "necessarily": 4169,
  "necessary": 4170,
  "neck": 4171,
  "necklace": 4172,
  "necks": 4173,
  "nee": 4174,
  "need": 4175,
  "needed": 4176,
  "needle": 4177,
  "needles": 4178,
  "needs": 4179,
  "negative": 4180,
  "negotiating": 4181,
  "neighbor": 4182,
  "neither": 4183,
  "nervous": 4184,
  "nesting": 4185,
  "net": 4186,
  "neutral": 4187,
  "never": 4188,
  "new": 4189,
  "newborn": 4190,
  "newer": 4191,
  "news": 4192,
  "next": 4193,
  "ni": 4194,
  "nice": 4195,
  "nicely": 4196,
  "nick": 4197,
  "nicky": 4198,
  "nielsen": 4199,
  "nigel": 4200,
  "night": 4201,
  "nightmare": 4202,
  "nights": 4203,
  "nine": 4204,
  "ninety": 4205,
  "ninja": 4206,
  "nitrogen": 4207,
  "no": 4208,
  "nobody": 4209,
  "nodding": 4210,
  "noise": 4211,
  "noisy": 4212,
  "non": 4213,
  "none": 4214,
  "nonsense": 4215,
  "noodles": 4216,
  "nope": 4217,
  "nor": 4218,
  "normal": 4219,
  "normally": 4220,
  "north": 4221,
  "nose": 4222,
  "not": 4223,
  "notch": 4224,
  "note": 4225,
  "notes": 4226,
  "nothing": 4227,
  "notice": 4228,
  "noticed": 4229,
  "notre": 4230,
  "nova": 4231,
  "now": 4232,
  "np": 4233,
  "nude": 4234,
  "null": 4235,
  "number": 4236,
  "numbered": 4237,
  "numbers": 4238,
  "numerous": 4239,
  "nun": 4240,
  "nurse": 4241,
  "nut": 4242,
  "nutrition": 4243,
  "nuts": 4244,
  "nyc": 4245,
  "nylon": 4246,
  "o": 4247,
  "oaks": 4248,
  "oasis": 4249,
  "ob": 4250,
  "object": 4251,
  "objective": 4252,
  "observation": 4253,
  "observing": 4254,
  "obstacles": 4255,
  "obtain": 4256,
  "obviously": 4257,
  "occupation": 4258,
  "occupied": 4259,
  "occur": 4260,
  "ocean": 4261,
  "odd": 4262,
  "oddly": 4263,
  "odor": 4264,
  "of": 4265,
  "off": 4266,
  "offense": 4267,
  "offer": 4268,
  "offers": 4269,
  "office": 4270,
  "officer": 4271,
  "officers": 4272,
  "offs": 4273,
  "often": 4274,
  "oh": 4275,
  "ohio": 4276,
  "oil": 4277,
  "oils": 4278,
  "ok": 4279,
  "okay": 4280,
  "old": 4281,
  "older": 4282,
  "olds": 4283,
  "olive": 4284,
  "om": 4285,
  "on": 4286,
  "once": 4287,
  "one": 4288,
  "ones": 4289,
  "onion": 4290,
  "online": 4291,
  "only": 4292,
  "onto": 4293,
  "open": 4294,
  "opened": 4295,
  "opener": 4296,
  "opening": 4297,
  "opens": 4298,
  "operate": 4299,
  "operates": 4300,
  "operation": 4301,
  "operator": 4302,
  "opinion": 4303,
  "opponent": 4304,
  "opportunities": 4305,
  "opportunity": 4306,
  "oppose": 4307,
  "opposite": 4308,
  "optic": 4309,
  "optical": 4310,
  "option": 4311,
  "optional": 4312,
  "options": 4313,
  "or": 4314,
  "orange": 4315,
  "orbit": 4316,
  "orbital": 4317,
  "order": 4318,
  "ordering": 4319,
  "ore": 4320,
  "organic": 4321,
  "organization": 4322,
  "organizational": 4323,
  "organized": 4324,
  "orientation": 4325,
  "oriented": 4326,
  "original": 4327,
  "originally": 4328,
  "originate": 4329,
  "originated": 4330,
  "ornamental": 4331,
  "ornaments": 4332,
  "ortega": 4333,
  "os": 4334,
  "other": 4335,
  "others": 4336,
  "otherwise": 4337,
  "ought": 4338,
  "ounce": 4339,
  "our": 4340,
  "out": 4341,
  "outdated": 4342,
  "outdoor": 4343,
  "outdoors": 4344,
  "outer": 4345,
  "outfielder": 4346,
  "outfit": 4347,
  "outing": 4348,
  "outlets": 4349,
  "outline": 4350,
  "outlook": 4351,
  "outside": 4352,
  "outward": 4353,
  "oval": 4354,
  "oven": 4355,
  "over": 4356,
  "overall": 4357,
  "overcome": 4358,
  "overhead": 4359,
  "overlap": 4360,
  "overlapping": 4361,
  "overly": 4362,
  "overnight": 4363,
  "overview": 4364,
  "own": 4365,
  "owned": 4366,
  "owner": 4367,
  "ox": 4368,
  "oxygen": 4369,
  "p": 4370,
  "pa": 4371,
  "pace": 4372,
  "paces": 4373,
  "pacific": 4374,
  "package": 4375,
  "packaging": 4376,
  "packed": 4377,
  "packets": 4378,
  "packs": 4379,
  "pad": 4380,
  "padded": 4381,
  "paddle": 4382,
  "pads": 4383,
  "page": 4384,
  "pages": 4385,
  "pain": 4386,
  "painful": 4387,
  "pains": 4388,
  "paint": 4389,
  "painter": 4390,
  "painters": 4391,
  "painting": 4392,
  "paintings": 4393,
  "paints": 4394,
  "pair": 4395,
  "pajamas": 4396,
  "palm": 4397,
  "palms": 4398,
  "pam": 4399,
  "pan": 4400,
  "panel": 4401,
  "panels": 4402,
  "panic": 4403,
  "pants": 4404,
  "paper": 4405,
  "par": 4406,
  "para": 4407,
  "paragraph": 4408,
  "parallel": 4409,
  "parents": 4410,
  "paris": 4411,
  "park": 4412,
  "parker": 4413,
  "parrot": 4414,
  "parry": 4415,
  "parsons": 4416,
  "part": 4417,
  "partial": 4418,
  "partially": 4419,
  "participant": 4420,
  "participants": 4421,
  "particular": 4422,
  "particularly": 4423,
  "parties": 4424,
  "parting": 4425,
  "partner": 4426,
  "parts": 4427,
  "party": 4428,
  "pass": 4429,
  "passages": 4430,
  "passed": 4431,
  "passes": 4432,
  "passing": 4433,
  "past": 4434,
  "paste": 4435,
  "pastry": 4436,
  "pat": 4437,
  "patch": 4438,
  "patches": 4439,
  "patent": 4440,
  "path": 4441,
  "pathway": 4442,
  "patience": 4443,
  "patient": 4444,
  "patients": 4445,
  "patricia": 4446,
  "patrick": 4447,
  "patriotic": 4448,
  "pattern": 4449,
  "patterned": 4450,
  "patterns": 4451,
  "patti": 4452,
  "paul": 4453,
  "pause": 4454,
  "pay": 4455,
  "pe": 4456,
  "peace": 4457,
  "peach": 4458,
  "peacock": 4459,
  "pearl": 4460,
  "peck": 4461,
  "pedal": 4462,
  "pedestal": 4463,
  "pee": 4464,
  "peek": 4465,
  "peel": 4466,
  "peeled": 4467,
  "peeling": 4468,
  "pen": 4469,
  "penalty": 4470,
  "pencil": 4471,
  "pendulum": 4472,
  "penetration": 4473,
  "people": 4474,
  "pepper": 4475,
  "peppers": 4476,
  "per": 4477,
  "percent": 4478,
  "perception": 4479,
  "perfect": 4480,
  "perfection": 4481,
  "perfectly": 4482,
  "perform": 4483,
  "performance": 4484,
  "performed": 4485,
  "performing": 4486,
  "perfume": 4487,
  "perhaps": 4488,
  "period": 4489,
  "periodic": 4490,
  "periodically": 4491,
  "permanent": 4492,
  "permanently": 4493,
  "permission": 4494,
  "permits": 4495,
  "perpendicular": 4496,
  "perpetual": 4497,
  "person": 4498,
  "personal": 4499,
  "personalities": 4500,
  "personally": 4501,
  "perspective": 4502,
  "pest": 4503,
  "pet": 4504,
  "pete": 4505,
  "pets": 4506,
  "pew": 4507,
  "ph": 4508,
  "phase": 4509,
  "phases": 4510,
  "phd": 4511,
  "phone": 4512,
  "photo": 4513,
  "photographer": 4514,
  "photographic": 4515,
  "photographs": 4516,
  "photography": 4517,
  "photos": 4518,
  "phrases": 4519,
  "physical": 4520,
  "physician": 4521,
  "physics": 4522,
  "physiological": 4523,
  "pi": 4524,
  "piano": 4525,
  "pic": 4526,
  "pick": 4527,
  "picked": 4528,
  "picking": 4529,
  "picture": 4530,
  "pictures": 4531,
  "pie": 4532,
  "piece": 4533,
  "pieces": 4534,
  "pier": 4535,
  "piercing": 4536,
  "pigeon": 4537,
  "pigment": 4538,
  "pigs": 4539,
  "pike": 4540,
  "pile": 4541,
  "pill": 4542,
  "pillow": 4543,
  "pin": 4544,
  "pinch": 4545,
  "pine": 4546,
  "ping": 4547,
  "pink": 4548,
  "pinning": 4549,
  "pins": 4550,
  "pipe": 4551,
  "piper": 4552,
  "pistol": 4553,
  "pitch": 4554,
  "pitches": 4555,
  "pixels": 4556,
  "pl": 4557,
  "place": 4558,
  "placed": 4559,
  "placement": 4560,
  "places": 4561,
  "placing": 4562,
  "plain": 4563,
  "plan": 4564,
  "plane": 4565,
  "planet": 4566,
  "plank": 4567,
  "planner": 4568,
  "plant": 4569,
  "planted": 4570,
  "plants": 4571,
  "plastic": 4572,
  "plate": 4573,
  "play": 4574,
  "playback": 4575,
  "played": 4576,
  "player": 4577,
  "players": 4578,
  "playing": 4579,
  "plays": 4580,
  "plea": 4581,
  "pleasant": 4582,
  "please": 4583,
  "pleasing": 4584,
  "plenty": 4585,
  "plot": 4586,
  "plug": 4587,
  "plum": 4588,
  "plumbing": 4589,
  "plus": 4590,
  "po": 4591,
  "pocket": 4592,
  "pockets": 4593,
  "pod": 4594,
  "podium": 4595,
  "point": 4596,
  "pointed": 4597,
  "pointer": 4598,
  "pointing": 4599,
  "points": 4600,
  "poison": 4601,
  "poker": 4602,
  "poland": 4603,
  "pole": 4604,
  "police": 4605,
  "polish": 4606,
  "polite": 4607,
  "political": 4608,
  "politics": 4609,
  "polymer": 4610,
  "ponder": 4611,
  "pony": 4612,
  "pool": 4613,
  "pools": 4614,
  "pop": 4615,
  "popped": 4616,
  "popping": 4617,
  "popular": 4618,
  "por": 4619,
  "porcelain": 4620,
  "portable": 4621,
  "portal": 4622,
  "portion": 4623,
  "portrait": 4624,
  "portuguese": 4625,
  "pose": 4626,
  "poses": 4627,
  "position": 4628,
  "positioned": 4629,
  "positioning": 4630,
  "positions": 4631,
  "positive": 4632,
  "possible": 4633,
  "possibly": 4634,
  "post": 4635,
  "poster": 4636,
  "posters": 4637,
  "posture": 4638,
  "pot": 4639,
  "potato": 4640,
  "potatoes": 4641,
  "potential": 4642,
  "potter": 4643,
  "pouch": 4644,
  "pound": 4645,
  "pounds": 4646,
  "pour": 4647,
  "powder": 4648,
  "power": 4649,
  "powerful": 4650,
  "practically": 4651,
  "practice": 4652,
  "practicing": 4653,
  "praise": 4654,
  "prayer": 4655,
  "pre": 4656,
  "precise": 4657,
  "predictable": 4658,
  "prefer": 4659,
  "preference": 4660,
  "preferences": 4661,
  "prefers": 4662,
  "pregnancy": 4663,
  "pregnant": 4664,
  "preliminary": 4665,
  "premise": 4666,
  "premium": 4667,
  "prep": 4668,
  "prepare": 4669,
  "prepared": 4670,
  "preparing": 4671,
  "prescription": 4672,
  "present": 4673,
  "presentation": 4674,
  "presented": 4675,
  "preserve": 4676,
  "preserving": 4677,
  "president": 4678,
  "press": 4679,
  "presses": 4680,
  "pressing": 4681,
  "pressure": 4682,
  "pressures": 4683,
  "pretend": 4684,
  "pretty": 4685,
  "prevent": 4686,
  "prevention": 4687,
  "previous": 4688,
  "previously": 4689,
  "price": 4690,
  "primarily": 4691,
  "primary": 4692,
  "prime": 4693,
  "princess": 4694,
  "principle": 4695,
  "print": 4696,
  "printed": 4697,
  "printers": 4698,
  "prints": 4699,
  "private": 4700,
  "privilege": 4701,
  "pro": 4702,
  "probably": 4703,
  "problem": 4704,
  "problems": 4705,
  "procedure": 4706,
  "process": 4707,
  "processes": 4708,
  "processing": 4709,
  "produce": 4710,
  "producer": 4711,
  "produces": 4712,
  "producing": 4713,
  "product": 4714,
  "production": 4715,
  "productions": 4716,
  "productivity": 4717,
  "products": 4718,
  "profession": 4719,
  "professional": 4720,
  "professionals": 4721,
  "profile": 4722,
  "profit": 4723,
  "programmer": 4724,
  "programs": 4725,
  "progression": 4726,
  "project": 4727,
  "projections": 4728,
  "promenade": 4729,
  "promise": 4730,
  "promote": 4731,
  "promotion": 4732,
  "prone": 4733,
  "proof": 4734,
  "prop": 4735,
  "proper": 4736,
  "properly": 4737,
  "properties": 4738,
  "proponent": 4739,
  "proportion": 4740,
  "proportional": 4741,
  "props": 4742,
  "prospect": 4743,
  "protect": 4744,
  "protection": 4745,
  "protective": 4746,
  "protector": 4747,
  "protects": 4748,
  "protein": 4749,
  "proteins": 4750,
  "prove": 4751,
  "provide": 4752,
  "provides": 4753,
  "providing": 4754,
  "psi": 4755,
  "psychiatrist": 4756,
  "psycho": 4757,
  "psychologist": 4758,
  "psychologists": 4759,
  "psychology": 4760,
  "pt": 4761,
  "pu": 4762,
  "public": 4763,
  "publicity": 4764,
  "puck": 4765,
  "puddle": 4766,
  "puff": 4767,
  "pull": 4768,
  "pulled": 4769,
  "pulling": 4770,
  "pulls": 4771,
  "pulse": 4772,
  "pump": 4773,
  "pumps": 4774,
  "punch": 4775,
  "punches": 4776,
  "punching": 4777,
  "pup": 4778,
  "puppet": 4779,
  "purchase": 4780,
  "purchased": 4781,
  "pure": 4782,
  "purely": 4783,
  "purity": 4784,
  "purple": 4785,
  "purpose": 4786,
  "purposes": 4787,
  "purse": 4788,
  "pursue": 4789,
  "push": 4790,
  "pushes": 4791,
  "pushing": 4792,
  "put": 4793,
  "puts": 4794,
  "putting": 4795,
  "puzzle": 4796,
  "q": 4797,
  "qu": 4798,
  "quad": 4799,
  "qualification": 4800,
  "quality": 4801,
  "quarter": 4802,
  "quarterback": 4803,
  "quarters": 4804,
  "que": 4805,
  "queen": 4806,
  "queens": 4807,
  "question": 4808,
  "questions": 4809,
  "qui": 4810,
  "quick": 4811,
  "quicker": 4812,
  "quickly": 4813,
  "quiet": 4814,
  "quilt": 4815,
  "quit": 4816,
  "quite": 4817,
  "quota": 4818,
  "quotes": 4819,
  "r": 4820,
  "ra": 4821,
  "race": 4822,
  "racing": 4823,
  "rack": 4824,
  "racks": 4825,
  "radial": 4826,
  "radio": 4827,
  "radios": 4828,
  "radius": 4829,
  "rag": 4830,
  "rage": 4831,
  "ragged": 4832,
  "rail": 4833,
  "rain": 4834,
  "rainbow": 4835,
  "raise": 4836,
  "raised": 4837,
  "raising": 4838,
  "rake": 4839,
  "ram": 4840,
  "ran": 4841,
  "ranch": 4842,
  "random": 4843,
  "range": 4844,
  "ranger": 4845,
  "ranges": 4846,
  "raphael": 4847,
  "rapid": 4848,
  "rare": 4849,
  "ras": 4850,
  "rat": 4851,
  "rate": 4852,
  "rates": 4853,
  "rather": 4854,
  "rating": 4855,
  "ratings": 4856,
  "rats": 4857,
  "raw": 4858,
  "razor": 4859,
  "re": 4860,
  "reach": 4861,
  "react": 4862,
  "reaction": 4863,
  "read": 4864,
  "reader": 4865,
  "reading": 4866,
  "ready": 4867,
  "real": 4868,
  "realistic": 4869,
  "realities": 4870,
  "reality": 4871,
  "realize": 4872,
  "really": 4873,
  "rear": 4874,
  "reason": 4875,
  "reasons": 4876,
  "rebecca": 4877,
  "rec": 4878,
  "receive": 4879,
  "received": 4880,
  "receiver": 4881,
  "receives": 4882,
  "receiving": 4883,
  "recently": 4884,
  "recipe": 4885,
  "recognition": 4886,
  "recognizes": 4887,
  "recommend": 4888,
  "recommendation": 4889,
  "record": 4890,
  "recorded": 4891,
  "recorder": 4892,
  "records": 4893,
  "recovering": 4894,
  "recreational": 4895,
  "red": 4896,
  "reds": 4897,
  "reduce": 4898,
  "reduces": 4899,
  "reduction": 4900,
  "redundant": 4901,
  "reed": 4902,
  "reel": 4903,
  "reeves": 4904,
  "ref": 4905,
  "reference": 4906,
  "referred": 4907,
  "refined": 4908,
  "refining": 4909,
  "reflect": 4910,
  "reflex": 4911,
  "refreshing": 4912,
  "refrigerator": 4913,
  "regions": 4914,
  "register": 4915,
  "registers": 4916,
  "regular": 4917,
  "regularly": 4918,
  "regulate": 4919,
  "reinforce": 4920,
  "related": 4921,
  "relationship": 4922,
  "relationships": 4923,
  "relative": 4924,
  "relatively": 4925,
  "relax": 4926,
  "relaxation": 4927,
  "relaxed": 4928,
  "relaxing": 4929,
  "release": 4930,
  "released": 4931,
  "releasing": 4932,
  "relieve": 4933,
  "relieved": 4934,
  "rely": 4935,
  "remedy": 4936,
  "remember": 4937,
  "removal": 4938,
  "remove": 4939,
  "removed": 4940,
  "removes": 4941,
  "removing": 4942,
  "renegade": 4943,
  "renovations": 4944,
  "rent": 4945,
  "rep": 4946,
  "repair": 4947,
  "repaired": 4948,
  "repairs": 4949,
  "repeat": 4950,
  "repeats": 4951,
  "repetition": 4952,
  "replace": 4953,
  "replacement": 4954,
  "replay": 4955,
  "report": 4956,
  "represent": 4957,
  "represents": 4958,
  "reptiles": 4959,
  "republican": 4960,
  "republicans": 4961,
  "request": 4962,
  "require": 4963,
  "required": 4964,
  "requires": 4965,
  "res": 4966,
  "rescue": 4967,
  "research": 4968,
  "resin": 4969,
  "resist": 4970,
  "resistance": 4971,
  "resistant": 4972,
  "resisting": 4973,
  "resolve": 4974,
  "resource": 4975,
  "resources": 4976,
  "respect": 4977,
  "respond": 4978,
  "responding": 4979,
  "responds": 4980,
  "response": 4981,
  "responsibility": 4982,
  "rest": 4983,
  "restaurant": 4984,
  "resting": 4985,
  "restoration": 4986,
  "restored": 4987,
  "result": 4988,
  "results": 4989,
  "retail": 4990,
  "retention": 4991,
  "retire": 4992,
  "retirement": 4993,
  "retrieve": 4994,
  "return": 4995,
  "rev": 4996,
  "reveal": 4997,
  "reversal": 4998,
  "reverse": 4999,
  "review": 5000,
  "reviewing": 5001,
  "revised": 5002,
  "reward": 5003,
  "rex": 5004,
  "rhodes": 5005,
  "rhythm": 5006,
  "ri": 5007,
  "rib": 5008,
  "ribbon": 5009,
  "ric": 5010,
  "rice": 5011,
  "rich": 5012,
  "richard": 5013,
  "richards": 5014,
  "rico": 5015,
  "rid": 5016,
  "riders": 5017,
  "rides": 5018,
  "ridge": 5019,
  "riding": 5020,
  "right": 5021,
  "rim": 5022,
  "ring": 5023,
  "ringing": 5024,
  "rings": 5025,
  "rip": 5026,
  "ripped": 5027,
  "ripping": 5028,
  "rise": 5029,
  "rising": 5030,
  "risk": 5031,
  "rite": 5032,
  "ro": 5033,
  "road": 5034,
  "roads": 5035,
  "roasted": 5036,
  "rob": 5037,
  "robe": 5038,
  "robert": 5039,
  "robin": 5040,
  "robinson": 5041,
  "robot": 5042,
  "rock": 5043,
  "rocking": 5044,
  "rocks": 5045,
  "rocky": 5046,
  "rod": 5047,
  "rods": 5048,
  "roll": 5049,
  "rolled": 5050,
  "roller": 5051,
  "rolling": 5052,
  "rolls": 5053,
  "roman": 5054,
  "romantic": 5055,
  "roof": 5056,
  "room": 5057,
  "root": 5058,
  "roots": 5059,
  "rope": 5060,
  "ropes": 5061,
  "rosario": 5062,
  "rose": 5063,
  "rosen": 5064,
  "rotate": 5065,
  "rotation": 5066,
  "rough": 5067,
  "round": 5068,
  "rounded": 5069,
  "rounds": 5070,
  "route": 5071,
  "routes": 5072,
  "routine": 5073,
  "row": 5074,
  "ru": 5075,
  "rub": 5076,
  "rubber": 5077,
  "rubbing": 5078,
  "rudder": 5079,
  "rude": 5080,
  "rug": 5081,
  "ruin": 5082,
  "ruined": 5083,
  "rule": 5084,
  "ruler": 5085,
  "rulers": 5086,
  "rules": 5087,
  "rum": 5088,
  "run": 5089,
  "runner": 5090,
  "runners": 5091,
  "running": 5092,
  "runs": 5093,
  "rush": 5094,
  "rushing": 5095,
  "russ": 5096,
  "russell": 5097,
  "russian": 5098,
  "rust": 5099,
  "ry": 5100,
  "ryan": 5101,
  "s": 5102,
  "sa": 5103,
  "sabotage": 5104,
  "sabre": 5105,
  "sacrifice": 5106,
  "saddle": 5107,
  "safe": 5108,
  "safely": 5109,
  "safety": 5110,
  "sai": 5111,
  "said": 5112,
  "sailor": 5113,
  "sake": 5114,
  "sal": 5115,
  "salad": 5116,
  "salary": 5117,
  "sale": 5118,
  "salmon": 5119,
  "salon": 5120,
  "salsa": 5121,
  "salt": 5122,
  "same": 5123,
  "samples": 5124,
  "san": 5125,
  "sand": 5126,
  "sanders": 5127,
  "sandwiches": 5128,
  "sandy": 5129,
  "sanitary": 5130,
  "sans": 5131,
  "sap": 5132,
  "sara": 5133,
  "sarah": 5134,
  "saratoga": 5135,
  "satisfied": 5136,
  "sato": 5137,
  "saturated": 5138,
  "saturday": 5139,
  "sauce": 5140,
  "savage": 5141,
  "save": 5142,
  "savior": 5143,
  "saw": 5144,
  "say": 5145,
  "saying": 5146,
  "says": 5147,
  "sc": 5148,
  "scale": 5149,
  "scales": 5150,
  "scalp": 5151,
  "scar": 5152,
  "scare": 5153,
  "scarf": 5154,
  "scenario": 5155,
  "scene": 5156,
  "scent": 5157,
  "schedule": 5158,
  "scheduling": 5159,
  "schneider": 5160,
  "school": 5161,
  "schooling": 5162,
  "sci": 5163,
  "science": 5164,
  "sciences": 5165,
  "scissors": 5166,
  "scoop": 5167,
  "scooped": 5168,
  "score": 5169,
  "scored": 5170,
  "scores": 5171,
  "scoring": 5172,
  "scott": 5173,
  "scrap": 5174,
  "scratch": 5175,
  "scratches": 5176,
  "scream": 5177,
  "screaming": 5178,
  "screen": 5179,
  "screw": 5180,
  "script": 5181,
  "scrolling": 5182,
  "scrub": 5183,
  "sculpture": 5184,
  "sculptures": 5185,
  "se": 5186,
  "sea": 5187,
  "seal": 5188,
  "sealed": 5189,
  "seam": 5190,
  "sean": 5191,
  "search": 5192,
  "seas": 5193,
  "seaside": 5194,
  "season": 5195,
  "seat": 5196,
  "seated": 5197,
  "second": 5198,
  "secondary": 5199,
  "secondly": 5200,
  "seconds": 5201,
  "secret": 5202,
  "secrets": 5203,
  "section": 5204,
  "sections": 5205,
  "secure": 5206,
  "secured": 5207,
  "securely": 5208,
  "security": 5209,
  "see": 5210,
  "seed": 5211,
  "seeing": 5212,
  "seem": 5213,
  "seems": 5214,
  "seen": 5215,
  "segment": 5216,
  "segments": 5217,
  "select": 5218,
  "selected": 5219,
  "selecting": 5220,
  "selection": 5221,
  "selections": 5222,
  "self": 5223,
  "sell": 5224,
  "selling": 5225,
  "sells": 5226,
  "semi": 5227,
  "sen": 5228,
  "send": 5229,
  "sense": 5230,
  "sensitive": 5231,
  "sensor": 5232,
  "separate": 5233,
  "separated": 5234,
  "separately": 5235,
  "separating": 5236,
  "sequence": 5237,
  "serial": 5238,
  "series": 5239,
  "serious": 5240,
  "seriously": 5241,
  "serve": 5242,
  "served": 5243,
  "serves": 5244,
  "service": 5245,
  "serving": 5246,
  "sessions": 5247,
  "set": 5248,
  "sets": 5249,
  "setting": 5250,
  "settled": 5251,
  "setup": 5252,
  "seven": 5253,
  "seventies": 5254,
  "seventy": 5255,
  "several": 5256,
  "sewer": 5257,
  "sewing": 5258,
  "sex": 5259,
  "sexual": 5260,
  "sexuality": 5261,
  "sf": 5262,
  "sh": 5263,
  "shade": 5264,
  "shadow": 5265,
  "shadows": 5266,
  "shaft": 5267,
  "shake": 5268,
  "shakespeare": 5269,
  "shall": 5270,
  "shallow": 5271,
  "sham": 5272,
  "shape": 5273,
  "shaped": 5274,
  "shapes": 5275,
  "shaping": 5276,
  "share": 5277,
  "shark": 5278,
  "sharks": 5279,
  "sharp": 5280,
  "sharpe": 5281,
  "shaun": 5282,
  "she": 5283,
  "shed": 5284,
  "sheen": 5285,
  "sheer": 5286,
  "sheets": 5287,
  "shelf": 5288,
  "shell": 5289,
  "shelves": 5290,
  "shi": 5291,
  "shield": 5292,
  "shift": 5293,
  "shifts": 5294,
  "shin": 5295,
  "shine": 5296,
  "ship": 5297,
  "shirt": 5298,
  "shirts": 5299,
  "shock": 5300,
  "shoe": 5301,
  "shoes": 5302,
  "shoot": 5303,
  "shooter": 5304,
  "shooting": 5305,
  "shop": 5306,
  "shopping": 5307,
  "shops": 5308,
  "short": 5309,
  "shorter": 5310,
  "shortly": 5311,
  "shot": 5312,
  "shots": 5313,
  "should": 5314,
  "shoulder": 5315,
  "shoulders": 5316,
  "shouldn": 5317,
  "show": 5318,
  "shower": 5319,
  "showers": 5320,
  "showing": 5321,
  "shown": 5322,
  "shows": 5323,
  "shredded": 5324,
  "shrimp": 5325,
  "shrug": 5326,
  "shu": 5327,
  "shuffle": 5328,
  "shut": 5329,
  "shutter": 5330,
  "shy": 5331,
  "si": 5332,
  "sicilian": 5333,
  "sick": 5334,
  "side": 5335,
  "sided": 5336,
  "sidekick": 5337,
  "sides": 5338,
  "sideways": 5339,
  "sighting": 5340,
  "sign": 5341,
  "signature": 5342,
  "significant": 5343,
  "signing": 5344,
  "signs": 5345,
  "silent": 5346,
  "silicon": 5347,
  "silk": 5348,
  "silly": 5349,
  "silver": 5350,
  "similar": 5351,
  "similarly": 5352,
  "simple": 5353,
  "simpler": 5354,
  "simplified": 5355,
  "simply": 5356,
  "simulate": 5357,
  "simultaneous": 5358,
  "since": 5359,
  "sincere": 5360,
  "sincerity": 5361,
  "single": 5362,
  "singles": 5363,
  "sink": 5364,
  "sins": 5365,
  "sir": 5366,
  "sister": 5367,
  "sit": 5368,
  "site": 5369,
  "sits": 5370,
  "sitting": 5371,
  "situation": 5372,
  "situations": 5373,
  "six": 5374,
  "sixteen": 5375,
  "sixteenth": 5376,
  "sixty": 5377,
  "size": 5378,
  "sized": 5379,
  "sizes": 5380,
  "sk": 5381,
  "sketch": 5382,
  "sketches": 5383,
  "ski": 5384,
  "skiing": 5385,
  "skill": 5386,
  "skills": 5387,
  "skin": 5388,
  "skinny": 5389,
  "skip": 5390,
  "skirt": 5391,
  "skirts": 5392,
  "sky": 5393,
  "skyline": 5394,
  "sl": 5395,
  "slab": 5396,
  "slack": 5397,
  "slash": 5398,
  "slate": 5399,
  "sleep": 5400,
  "sleeping": 5401,
  "sleepy": 5402,
  "sleeve": 5403,
  "sleeves": 5404,
  "slender": 5405,
  "slice": 5406,
  "slices": 5407,
  "slicing": 5408,
  "slick": 5409,
  "slid": 5410,
  "slide": 5411,
  "slides": 5412,
  "sliding": 5413,
  "slight": 5414,
  "slightly": 5415,
  "slim": 5416,
  "sling": 5417,
  "slip": 5418,
  "slipped": 5419,
  "slips": 5420,
  "slow": 5421,
  "slowly": 5422,
  "slumped": 5423,
  "sm": 5424,
  "smack": 5425,
  "small": 5426,
  "smaller": 5427,
  "smallest": 5428,
  "smash": 5429,
  "smell": 5430,
  "smelling": 5431,
  "smells": 5432,
  "smiles": 5433,
  "smith": 5434,
  "smoke": 5435,
  "smoking": 5436,
  "smoky": 5437,
  "smooth": 5438,
  "smoothed": 5439,
  "smoothing": 5440,
  "smoothly": 5441,
  "snacks": 5442,
  "snake": 5443,
  "snap": 5444,
  "snatch": 5445,
  "sneak": 5446,
  "sniff": 5447,
  "snout": 5448,
  "snow": 5449,
  "so": 5450,
  "soaked": 5451,
  "soap": 5452,
  "soc": 5453,
  "soccer": 5454,
  "social": 5455,
  "society": 5456,
  "sock": 5457,
  "socket": 5458,
  "socks": 5459,
  "soda": 5460,
  "soft": 5461,
  "soil": 5462,
  "solar": 5463,
  "sold": 5464,
  "sole": 5465,
  "solely": 5466,
  "solid": 5467,
  "solids": 5468,
  "solution": 5469,
  "solutions": 5470,
  "solved": 5471,
  "solving": 5472,
  "some": 5473,
  "somebody": 5474,
  "someone": 5475,
  "something": 5476,
  "sometime": 5477,
  "sometimes": 5478,
  "somewhat": 5479,
  "somewhere": 5480,
  "somme": 5481,
  "song": 5482,
  "sonia": 5483,
  "soon": 5484,
  "sooner": 5485,
  "soothing": 5486,
  "sore": 5487,
  "sorry": 5488,
  "sort": 5489,
  "sorts": 5490,
  "soul": 5491,
  "sound": 5492,
  "sounds": 5493,
  "soup": 5494,
  "sour": 5495,
  "source": 5496,
  "sources": 5497,
  "south": 5498,
  "southern": 5499,
  "soy": 5500,
  "sp": 5501,
  "spa": 5502,
  "space": 5503,
  "spade": 5504,
  "span": 5505,
  "spanish": 5506,
  "spare": 5507,
  "spark": 5508,
  "speak": 5509,
  "speaking": 5510,
  "spec": 5511,
  "special": 5512,
  "specialist": 5513,
  "specialized": 5514,
  "specially": 5515,
  "specialty": 5516,
  "species": 5517,
  "specific": 5518,
  "specifically": 5519,
  "spectacular": 5520,
  "speech": 5521,
  "speed": 5522,
  "speedy": 5523,
  "spelled": 5524,
  "spend": 5525,
  "spice": 5526,
  "spices": 5527,
  "spider": 5528,
  "spike": 5529,
  "spill": 5530,
  "spin": 5531,
  "spinal": 5532,
  "spine": 5533,
  "spinning": 5534,
  "spins": 5535,
  "spiral": 5536,
  "spiritual": 5537,
  "splash": 5538,
  "splashed": 5539,
  "split": 5540,
  "spoke": 5541,
  "sponge": 5542,
  "sponsor": 5543,
  "sponsors": 5544,
  "spoon": 5545,
  "sports": 5546,
  "spot": 5547,
  "spots": 5548,
  "spotting": 5549,
  "spray": 5550,
  "spread": 5551,
  "spreading": 5552,
  "spring": 5553,
  "springs": 5554,
  "sq": 5555,
  "squad": 5556,
  "square": 5557,
  "squares": 5558,
  "squash": 5559,
  "squat": 5560,
  "squeeze": 5561,
  "squeezing": 5562,
  "st": 5563,
  "stab": 5564,
  "stability": 5565,
  "stabilize": 5566,
  "stabilized": 5567,
  "stable": 5568,
  "stack": 5569,
  "stacked": 5570,
  "stage": 5571,
  "staggered": 5572,
  "staging": 5573,
  "stain": 5574,
  "stained": 5575,
  "stainless": 5576,
  "staircase": 5577,
  "stairs": 5578,
  "stamp": 5579,
  "stamps": 5580,
  "stan": 5581,
  "stance": 5582,
  "stand": 5583,
  "standard": 5584,
  "standing": 5585,
  "stands": 5586,
  "staples": 5587,
  "star": 5588,
  "staring": 5589,
  "stars": 5590,
  "start": 5591,
  "started": 5592,
  "starting": 5593,
  "starts": 5594,
  "state": 5595,
  "statement": 5596,
  "statements": 5597,
  "states": 5598,
  "static": 5599,
  "station": 5600,
  "stationary": 5601,
  "staunch": 5602,
  "stay": 5603,
  "staying": 5604,
  "stays": 5605,
  "steady": 5606,
  "steal": 5607,
  "steam": 5608,
  "steamed": 5609,
  "steaming": 5610,
  "steel": 5611,
  "steep": 5612,
  "stem": 5613,
  "stems": 5614,
  "step": 5615,
  "stepping": 5616,
  "steps": 5617,
  "stereo": 5618,
  "steve": 5619,
  "steven": 5620,
  "stewart": 5621,
  "stick": 5622,
  "sticking": 5623,
  "sticks": 5624,
  "sticky": 5625,
  "stiff": 5626,
  "still": 5627,
  "stimulated": 5628,
  "sting": 5629,
  "stinging": 5630,
  "stink": 5631,
  "stir": 5632,
  "stitch": 5633,
  "stock": 5634,
  "stomach": 5635,
  "stone": 5636,
  "stones": 5637,
  "stop": 5638,
  "store": 5639,
  "stored": 5640,
  "stores": 5641,
  "stories": 5642,
  "storm": 5643,
  "story": 5644,
  "stove": 5645,
  "straight": 5646,
  "straighten": 5647,
  "straightening": 5648,
  "strain": 5649,
  "strands": 5650,
  "strange": 5651,
  "strap": 5652,
  "straps": 5653,
  "strategies": 5654,
  "strategy": 5655,
  "straw": 5656,
  "stray": 5657,
  "streaks": 5658,
  "stream": 5659,
  "streamlined": 5660,
  "street": 5661,
  "streets": 5662,
  "strength": 5663,
  "strengthen": 5664,
  "strengthening": 5665,
  "stress": 5666,
  "stretch": 5667,
  "stretched": 5668,
  "stretches": 5669,
  "stretching": 5670,
  "strictly": 5671,
  "strike": 5672,
  "strikes": 5673,
  "striking": 5674,
  "string": 5675,
  "strings": 5676,
  "strip": 5677,
  "stripe": 5678,
  "stripes": 5679,
  "stripped": 5680,
  "strips": 5681,
  "stroke": 5682,
  "strokes": 5683,
  "stroll": 5684,
  "strong": 5685,
  "stronger": 5686,
  "strongest": 5687,
  "strongly": 5688,
  "structure": 5689,
  "stu": 5690,
  "stuck": 5691,
  "student": 5692,
  "students": 5693,
  "studied": 5694,
  "studio": 5695,
  "study": 5696,
  "studying": 5697,
  "stuff": 5698,
  "stuffed": 5699,
  "stupid": 5700,
  "sturdy": 5701,
  "style": 5702,
  "styles": 5703,
  "styling": 5704,
  "su": 5705,
  "sub": 5706,
  "subject": 5707,
  "submit": 5708,
  "subsequently": 5709,
  "subtle": 5710,
  "subway": 5711,
  "success": 5712,
  "successful": 5713,
  "successfully": 5714,
  "such": 5715,
  "suck": 5716,
  "sucked": 5717,
  "sued": 5718,
  "sufficient": 5719,
  "sugar": 5720,
  "suggest": 5721,
  "suicide": 5722,
  "suit": 5723,
  "suite": 5724,
  "suited": 5725,
  "suits": 5726,
  "sum": 5727,
  "summer": 5728,
  "sun": 5729,
  "sunday": 5730,
  "sunglasses": 5731,
  "sunk": 5732,
  "sunny": 5733,
  "suns": 5734,
  "super": 5735,
  "superb": 5736,
  "supervision": 5737,
  "supplement": 5738,
  "supplied": 5739,
  "supplies": 5740,
  "supply": 5741,
  "support": 5742,
  "supporting": 5743,
  "supposed": 5744,
  "sure": 5745,
  "surf": 5746,
  "surface": 5747,
  "surfing": 5748,
  "surprise": 5749,
  "surprised": 5750,
  "surrounds": 5751,
  "survival": 5752,
  "survive": 5753,
  "susan": 5754,
  "suspended": 5755,
  "sustain": 5756,
  "suv": 5757,
  "sw": 5758,
  "swamps": 5759,
  "swan": 5760,
  "swat": 5761,
  "sweat": 5762,
  "sweater": 5763,
  "sweep": 5764,
  "sweeping": 5765,
  "sweet": 5766,
  "swell": 5767,
  "swelling": 5768,
  "swimming": 5769,
  "swing": 5770,
  "swings": 5771,
  "swirl": 5772,
  "swiss": 5773,
  "switch": 5774,
  "switching": 5775,
  "switzerland": 5776,
  "sy": 5777,
  "sylvia": 5778,
  "symbol": 5779,
  "symmetric": 5780,
  "sympathetic": 5781,
  "symphony": 5782,
  "symptoms": 5783,
  "sync": 5784,
  "synthetic": 5785,
  "system": 5786,
  "systems": 5787,
  "t": 5788,
  "ta": 5789,
  "tab": 5790,
  "table": 5791,
  "tack": 5792,
  "tackle": 5793,
  "tactic": 5794,
  "tactics": 5795,
  "tag": 5796,
  "tai": 5797,
  "tail": 5798,
  "tailor": 5799,
  "tails": 5800,
  "take": 5801,
  "taken": 5802,
  "takes": 5803,
  "taking": 5804,
  "talk": 5805,
  "talked": 5806,
  "talking": 5807,
  "talks": 5808,
  "tall": 5809,
  "taller": 5810,
  "tame": 5811,
  "tan": 5812,
  "tangle": 5813,
  "tango": 5814,
  "tank": 5815,
  "tanks": 5816,
  "tap": 5817,
  "tape": 5818,
  "tapping": 5819,
  "tar": 5820,
  "target": 5821,
  "task": 5822,
  "tasks": 5823,
  "taste": 5824,
  "tasted": 5825,
  "tastes": 5826,
  "tasting": 5827,
  "tattoo": 5828,
  "taught": 5829,
  "te": 5830,
  "tea": 5831,
  "teach": 5832,
  "teacher": 5833,
  "teachers": 5834,
  "teaching": 5835,
  "team": 5836,
  "teams": 5837,
  "tear": 5838,
  "tech": 5839,
  "technical": 5840,
  "technically": 5841,
  "technique": 5842,
  "techniques": 5843,
  "teeth": 5844,
  "telephone": 5845,
  "telescope": 5846,
  "telescopes": 5847,
  "television": 5848,
  "tell": 5849,
  "telling": 5850,
  "tells": 5851,
  "temperament": 5852,
  "temperature": 5853,
  "temperatures": 5854,
  "template": 5855,
  "temple": 5856,
  "tempo": 5857,
  "temporary": 5858,
  "ten": 5859,
  "tend": 5860,
  "tender": 5861,
  "tends": 5862,
  "tennis": 5863,
  "tense": 5864,
  "tension": 5865,
  "tent": 5866,
  "tents": 5867,
  "tequila": 5868,
  "ter": 5869,
  "term": 5870,
  "terminal": 5871,
  "terminals": 5872,
  "terminology": 5873,
  "terms": 5874,
  "terra": 5875,
  "terrible": 5876,
  "terry": 5877,
  "test": 5878,
  "texas": 5879,
  "text": 5880,
  "texts": 5881,
  "texture": 5882,
  "th": 5883,
  "thai": 5884,
  "thailand": 5885,
  "than": 5886,
  "thank": 5887,
  "thanked": 5888,
  "thanks": 5889,
  "that": 5890,
  "the": 5891,
  "theater": 5892,
  "their": 5893,
  "them": 5894,
  "theme": 5895,
  "themselves": 5896,
  "then": 5897,
  "theory": 5898,
  "therapist": 5899,
  "therapy": 5900,
  "there": 5901,
  "thereafter": 5902,
  "thereby": 5903,
  "therefore": 5904,
  "these": 5905,
  "they": 5906,
  "thick": 5907,
  "thicker": 5908,
  "thickness": 5909,
  "thigh": 5910,
  "thighs": 5911,
  "thin": 5912,
  "thing": 5913,
  "things": 5914,
  "think": 5915,
  "thinking": 5916,
  "thinks": 5917,
  "thinner": 5918,
  "third": 5919,
  "thirds": 5920,
  "thirteen": 5921,
  "thirteenth": 5922,
  "thirty": 5923,
  "this": 5924,
  "thorn": 5925,
  "thorough": 5926,
  "thoroughly": 5927,
  "those": 5928,
  "though": 5929,
  "thought": 5930,
  "thousands": 5931,
  "thread": 5932,
  "threaded": 5933,
  "threads": 5934,
  "three": 5935,
  "threshold": 5936,
  "throat": 5937,
  "throttle": 5938,
  "through": 5939,
  "throughout": 5940,
  "throw": 5941,
  "throwing": 5942,
  "thrown": 5943,
  "throws": 5944,
  "thrust": 5945,
  "thrusts": 5946,
  "thumb": 5947,
  "thumbs": 5948,
  "thursday": 5949,
  "thus": 5950,
  "thy": 5951,
  "thyroid": 5952,
  "tick": 5953,
  "ticket": 5954,
  "tie": 5955,
  "tied": 5956,
  "ties": 5957,
  "tiffany": 5958,
  "tiger": 5959,
  "tight": 5960,
  "tighten": 5961,
  "tightened": 5962,
  "tighter": 5963,
  "tightly": 5964,
  "tile": 5965,
  "till": 5966,
  "tilt": 5967,
  "tilting": 5968,
  "tim": 5969,
  "time": 5970,
  "timer": 5971,
  "times": 5972,
  "timing": 5973,
  "tin": 5974,
  "tina": 5975,
  "tingling": 5976,
  "tinted": 5977,
  "tiny": 5978,
  "tip": 5979,
  "tipping": 5980,
  "tips": 5981,
  "tire": 5982,
  "tired": 5983,
  "tires": 5984,
  "tissue": 5985,
  "to": 5986,
  "toast": 5987,
  "tobacco": 5988,
  "today": 5989,
  "todd": 5990,
  "toe": 5991,
  "toes": 5992,
  "together": 5993,
  "toilet": 5994,
  "toilets": 5995,
  "told": 5996,
  "tom": 5997,
  "tomato": 5998,
  "tomatoes": 5999,
  "tommy": 6000,
  "tomorrow": 6001,
  "ton": 6002,
  "tone": 6003,
  "tones": 6004,
  "tongue": 6005,
  "tongues": 6006,
  "tonight": 6007,
  "tons": 6008,
  "too": 6009,
  "took": 6010,
  "tool": 6011,
  "tools": 6012,
  "tooth": 6013,
  "top": 6014,
  "topic": 6015,
  "topics": 6016,
  "topographic": 6017,
  "topping": 6018,
  "tops": 6019,
  "tor": 6020,
  "torch": 6021,
  "tori": 6022,
  "tornadoes": 6023,
  "torque": 6024,
  "torso": 6025,
  "toss": 6026,
  "tossing": 6027,
  "total": 6028,
  "totally": 6029,
  "touch": 6030,
  "touching": 6031,
  "tough": 6032,
  "toward": 6033,
  "towards": 6034,
  "towel": 6035,
  "towels": 6036,
  "town": 6037,
  "towns": 6038,
  "toy": 6039,
  "toys": 6040,
  "track": 6041,
  "tracks": 6042,
  "tracy": 6043,
  "trade": 6044,
  "traditional": 6045,
  "traditionally": 6046,
  "traffic": 6047,
  "tragic": 6048,
  "trail": 6049,
  "trails": 6050,
  "train": 6051,
  "trainers": 6052,
  "training": 6053,
  "trains": 6054,
  "tram": 6055,
  "transfer": 6056,
  "transitions": 6057,
  "translation": 6058,
  "translucent": 6059,
  "transportation": 6060,
  "trap": 6061,
  "trapped": 6062,
  "trapping": 6063,
  "trash": 6064,
  "travel": 6065,
  "travelers": 6066,
  "traveling": 6067,
  "traverse": 6068,
  "travis": 6069,
  "tray": 6070,
  "tre": 6071,
  "tread": 6072,
  "treasure": 6073,
  "treat": 6074,
  "treated": 6075,
  "treating": 6076,
  "treatment": 6077,
  "treatments": 6078,
  "treats": 6079,
  "tree": 6080,
  "trees": 6081,
  "trek": 6082,
  "tri": 6083,
  "triangle": 6084,
  "tribal": 6085,
  "trick": 6086,
  "tricks": 6087,
  "tricky": 6088,
  "tried": 6089,
  "trigger": 6090,
  "trim": 6091,
  "trimmed": 6092,
  "trip": 6093,
  "trips": 6094,
  "trophy": 6095,
  "tropical": 6096,
  "trouble": 6097,
  "true": 6098,
  "truly": 6099,
  "trump": 6100,
  "trust": 6101,
  "truth": 6102,
  "try": 6103,
  "trying": 6104,
  "tu": 6105,
  "tub": 6106,
  "tuck": 6107,
  "tucked": 6108,
  "tug": 6109,
  "tugging": 6110,
  "tumble": 6111,
  "tumbling": 6112,
  "tuna": 6113,
  "tune": 6114,
  "tuned": 6115,
  "turbine": 6116,
  "turbo": 6117,
  "turkey": 6118,
  "turn": 6119,
  "turned": 6120,
  "turning": 6121,
  "turnout": 6122,
  "turns": 6123,
  "turquoise": 6124,
  "turtle": 6125,
  "tutor": 6126,
  "tv": 6127,
  "twelve": 6128,
  "twenty": 6129,
  "twice": 6130,
  "twist": 6131,
  "twisted": 6132,
  "twisting": 6133,
  "twists": 6134,
  "two": 6135,
  "ty": 6136,
  "tying": 6137,
  "tyler": 6138,
  "type": 6139,
  "types": 6140,
  "typical": 6141,
  "typically": 6142,
  "u": 6143,
  "uh": 6144,
  "ui": 6145,
  "uk": 6146,
  "ultimate": 6147,
  "ultimately": 6148,
  "ultra": 6149,
  "um": 6150,
  "umbrella": 6151,
  "umpire": 6152,
  "un": 6153,
  "una": 6154,
  "uncomfortable": 6155,
  "under": 6156,
  "underneath": 6157,
  "underside": 6158,
  "understand": 6159,
  "undo": 6160,
  "undone": 6161,
  "unfortunately": 6162,
  "uniform": 6163,
  "union": 6164,
  "unique": 6165,
  "unit": 6166,
  "unity": 6167,
  "universe": 6168,
  "university": 6169,
  "unless": 6170,
  "unlike": 6171,
  "unlimited": 6172,
  "uno": 6173,
  "unsuccessful": 6174,
  "until": 6175,
  "untouched": 6176,
  "unusual": 6177,
  "up": 6178,
  "upbeat": 6179,
  "upgrade": 6180,
  "upon": 6181,
  "upper": 6182,
  "ups": 6183,
  "upset": 6184,
  "upside": 6185,
  "upstairs": 6186,
  "upstream": 6187,
  "upward": 6188,
  "us": 6189,
  "usa": 6190,
  "usage": 6191,
  "use": 6192,
  "used": 6193,
  "useful": 6194,
  "uses": 6195,
  "using": 6196,
  "usual": 6197,
  "usually": 6198,
  "ut": 6199,
  "utah": 6200,
  "utopia": 6201,
  "uv": 6202,
  "v": 6203,
  "vacation": 6204,
  "vacuum": 6205,
  "valerie": 6206,
  "valley": 6207,
  "valuable": 6208,
  "value": 6209,
  "van": 6210,
  "vanilla": 6211,
  "var": 6212,
  "variance": 6213,
  "variation": 6214,
  "variations": 6215,
  "varies": 6216,
  "varieties": 6217,
  "variety": 6218,
  "various": 6219,
  "vary": 6220,
  "vase": 6221,
  "ve": 6222,
  "vegetable": 6223,
  "vegetables": 6224,
  "vehicle": 6225,
  "vehicles": 6226,
  "veil": 6227,
  "vein": 6228,
  "vendor": 6229,
  "vera": 6230,
  "verb": 6231,
  "versa": 6232,
  "versatile": 6233,
  "version": 6234,
  "versus": 6235,
  "vertical": 6236,
  "vertically": 6237,
  "very": 6238,
  "vest": 6239,
  "veterinary": 6240,
  "vi": 6241,
  "vial": 6242,
  "vibration": 6243,
  "vice": 6244,
  "vicious": 6245,
  "victory": 6246,
  "video": 6247,
  "videos": 6248,
  "view": 6249,
  "viewer": 6250,
  "vigorous": 6251,
  "villain": 6252,
  "vin": 6253,
  "vintage": 6254,
  "vinyl": 6255,
  "visit": 6256,
  "visual": 6257,
  "visually": 6258,
  "vital": 6259,
  "vitamin": 6260,
  "vivid": 6261,
  "vo": 6262,
  "vocal": 6263,
  "vodka": 6264,
  "vogue": 6265,
  "voice": 6266,
  "vol": 6267,
  "volcano": 6268,
  "volley": 6269,
  "volleyball": 6270,
  "voltage": 6271,
  "volume": 6272,
  "volumes": 6273,
  "vulnerable": 6274,
  "w": 6275,
  "wagon": 6276,
  "waist": 6277,
  "wait": 6278,
  "walk": 6279,
  "walker": 6280,
  "walking": 6281,
  "walks": 6282,
  "wall": 6283,
  "walls": 6284,
  "walt": 6285,
  "wand": 6286,
  "wanna": 6287,
  "want": 6288,
  "wanted": 6289,
  "wanting": 6290,
  "wants": 6291,
  "war": 6292,
  "ward": 6293,
  "warm": 6294,
  "warmer": 6295,
  "warming": 6296,
  "warmth": 6297,
  "warrant": 6298,
  "warrior": 6299,
  "was": 6300,
  "wash": 6301,
  "washed": 6302,
  "washing": 6303,
  "wasn": 6304,
  "waste": 6305,
  "wasting": 6306,
  "watch": 6307,
  "watching": 6308,
  "water": 6309,
  "watering": 6310,
  "watt": 6311,
  "wave": 6312,
  "wavy": 6313,
  "wax": 6314,
  "way": 6315,
  "ways": 6316,
  "we": 6317,
  "weak": 6318,
  "weapon": 6319,
  "weapons": 6320,
  "wear": 6321,
  "wearing": 6322,
  "weather": 6323,
  "weave": 6324,
  "web": 6325,
  "website": 6326,
  "websites": 6327,
  "wed": 6328,
  "wedding": 6329,
  "weddings": 6330,
  "wedge": 6331,
  "weed": 6332,
  "weeds": 6333,
  "week": 6334,
  "weekday": 6335,
  "weekends": 6336,
  "weeks": 6337,
  "weigh": 6338,
  "weighs": 6339,
  "weight": 6340,
  "weights": 6341,
  "welcome": 6342,
  "welded": 6343,
  "well": 6344,
  "wells": 6345,
  "went": 6346,
  "were": 6347,
  "wes": 6348,
  "western": 6349,
  "wet": 6350,
  "whale": 6351,
  "what": 6352,
  "whatever": 6353,
  "wheat": 6354,
  "wheel": 6355,
  "wheelchair": 6356,
  "wheels": 6357,
  "when": 6358,
  "whenever": 6359,
  "where": 6360,
  "wherever": 6361,
  "whether": 6362,
  "which": 6363,
  "while": 6364,
  "whip": 6365,
  "white": 6366,
  "whites": 6367,
  "whitley": 6368,
  "who": 6369,
  "whole": 6370,
  "why": 6371,
  "wi": 6372,
  "wide": 6373,
  "widely": 6374,
  "widening": 6375,
  "wider": 6376,
  "width": 6377,
  "wife": 6378,
  "wig": 6379,
  "wild": 6380,
  "will": 6381,
  "willing": 6382,
  "willy": 6383,
  "wilmington": 6384,
  "win": 6385,
  "wind": 6386,
  "windmill": 6387,
  "window": 6388,
  "windows": 6389,
  "windy": 6390,
  "wine": 6391,
  "wines": 6392,
  "wing": 6393,
  "wings": 6394,
  "winner": 6395,
  "wins": 6396,
  "winter": 6397,
  "wipe": 6398,
  "wiping": 6399,
  "wire": 6400,
  "wisconsin": 6401,
  "wish": 6402,
  "with": 6403,
  "within": 6404,
  "without": 6405,
  "wo": 6406,
  "woman": 6407,
  "women": 6408,
  "won": 6409,
  "wonder": 6410,
  "wonderful": 6411,
  "woo": 6412,
  "wood": 6413,
  "wooden": 6414,
  "woods": 6415,
  "wool": 6416,
  "word": 6417,
  "words": 6418,
  "work": 6419,
  "worked": 6420,
  "working": 6421,
  "workout": 6422,
  "works": 6423,
  "workshop": 6424,
  "workshops": 6425,
  "world": 6426,
  "worry": 6427,
  "worse": 6428,
  "worth": 6429,
  "would": 6430,
  "wouldn": 6431,
  "wounds": 6432,
  "wow": 6433,
  "wr": 6434,
  "wrap": 6435,
  "wrapped": 6436,
  "wrapping": 6437,
  "wren": 6438,
  "wrestling": 6439,
  "wrist": 6440,
  "wrists": 6441,
  "write": 6442,
  "writes": 6443,
  "writing": 6444,
  "written": 6445,
  "wrong": 6446,
  "x": 6447,
  "ya": 6448,
  "yan": 6449,
  "yank": 6450,
  "yard": 6451,
  "yards": 6452,
  "yarn": 6453,
  "ye": 6454,
  "yeah": 6455,
  "year": 6456,
  "years": 6457,
  "yeast": 6458,
  "yelling": 6459,
  "yellow": 6460,
  "yells": 6461,
  "yep": 6462,
  "yes": 6463,
  "yet": 6464,
  "ying": 6465,
  "yo": 6466,
  "yoga": 6467,
  "york": 6468,
  "you": 6469,
  "younger": 6470,
  "your": 6471,
  "yours": 6472,
  "yourself": 6473,
  "youth": 6474,
  "yu": 6475,
  "z": 6476,
  "za": 6477,
  "ze": 6478,
  "zebra": 6479,
  "zero": 6480,
  "zip": 6481,
  "zipper": 6482,
  "zombie": 6483,
  "zone": 6484,
  "zones": 6485,
  "zoo": 6486,
  "zoom": 6487
}